<unk>	0
<s>	0
</s>	0
.	-2.88627
,	-3.18169
▁eta	-4.09695
▁da	-4.23581
a	-4.36457
-	-4.48972
▁ez	-4.53012
?	-4.68393
▁bat	-4.90141
ak	-4.94542
:	-4.9928
ko	-5.08103
k	-5.12395
en	-5.20419
▁du	-5.24178
ren	-5.28008
▁izan	-5.28136
▁ere	-5.32595
▁egin	-5.39523
▁zen	-5.48653
▁dira	-5.51698
n	-5.52323
s	-5.56054
!	-5.64467
▁zuen	-5.67241
)	-5.67501
▁behar	-5.70129
▁Ez	-5.76577
an	-5.82546
aren	-5.8257
▁-	-5.83306
▁dut	-5.83683
▁(	-5.85299
ek	-5.91451
▁nahi	-5.91912
z	-5.95166
▁edo	-5.96026
▁duzu	-6.00205
rik	-6.01128
▁egiten	-6.08381
▁bere	-6.08972
▁	-6.12131
▁dute	-6.12264
▁dago	-6.12532
▁Eta	-6.14451
...	-6.18949
ra	-6.19368
▁dugu	-6.19572
▁"	-6.20314
ri	-6.22105
▁hori	-6.22578
▁zure	-6.25748
▁hau	-6.26613
▁beste	-6.33773
▁baina	-6.33973
▁izango	-6.34405
;	-6.35067
▁den	-6.41831
▁_	-6.45543
▁%	-6.47921
▁baino	-6.50239
▁esan	-6.5173
▁Baina	-6.52607
▁al	-6.52894
etan	-6.55803
▁gehiago	-6.55999
"	-6.56202
e	-6.57875
▁“	-6.58558
▁zer	-6.6297
▁naiz	-6.64199
▁ari	-6.64615
▁ditu	-6.66568
▁gure	-6.68465
▁ziren	-6.68581
tik	-6.71022
▁zuten	-6.74513
▁Zer	-6.7489
▁oso	-6.76942
▁nire	-6.77098
ta	-6.81103
rekin	-6.81226
▁bezala	-6.8591
▁batean	-6.86425
▁dela	-6.88004
▁bi	-6.90367
ean	-6.90439
▁asko	-6.91502
'	-6.93951
tzen	-6.95975
▁ezin	-6.98519
▁nuen	-6.99226
▁guztiak	-7.00885
▁«	-7.02034
eko	-7.02631
▁gabe	-7.03454
tu	-7.03661
▁duen	-7.03864
▁gara	-7.05033
▁baten	-7.0597
▁egingo	-7.06981
ekin	-7.07035
▁eman	-7.07803
▁Ezin	-7.07995
▁urte	-7.08441
ei	-7.08707
▁egun	-7.10388
ez	-7.14341
▁zara	-7.1676
▁batzuk	-7.17074
▁bada	-7.1788
▁ikusi	-7.19876
i	-7.21531
ari	-7.23037
▁bizi	-7.23122
▁lehen	-7.23312
d	-7.2377
▁diren	-7.24643
▁bai	-7.2472
/	-7.25726
▁hemen	-7.26389
▁hartu	-7.2678
▁hitz	-7.28093
▁honetan	-7.29058
▁joan	-7.29071
▁ahal	-7.30014
▁lan	-7.30023
”	-7.30155
▁—	-7.30522
▁daude	-7.30596
▁nola	-7.30837
▁egiteko	-7.31448
▁hasi	-7.32708
▁bakarrik	-7.33171
▁egon	-7.34334
▁gauza	-7.35062
r	-7.35423
▁beti	-7.35575
ik	-7.35745
”.	-7.36007
▁gero	-7.36778
tzeko	-7.37045
▁ematen	-7.38425
▁daiteke	-7.38633
▁Nola	-7.40215
».	-7.4038
t	-7.4065
▁zituen	-7.40909
▁aukera	-7.4091
▁Hori	-7.40996
▁Zure	-7.42011
▁uste	-7.42518
▁duten	-7.42522
▁artean	-7.43147
▁orain	-7.43731
▁dituzte	-7.4416
▁horiek	-7.45215
▁A	-7.46053
▁arte	-7.48157
go	-7.48457
▁berri	-7.48882
▁batek	-7.49109
▁ditugu	-7.49261
tan	-7.50599
▁zion	-7.50987
tako	-7.54397
▁izena	-7.54768
▁beharko	-7.54772
etako	-7.55352
▁gisa	-7.55372
_	-7.55822
▁erabiltzen	-7.57411
▁buruz	-7.57449
▁bera	-7.58628
(	-7.5863
▁hil	-7.59259
▁dena	-7.59307
era	-7.59815
rako	-7.60764
▁ondo	-7.61548
arekin	-7.62524
▁nintzen	-7.63317
tzea	-7.63795
▁ondoren	-7.63847
▁ikusten	-7.64177
o	-7.64725
▁azken	-7.65128
▁Nire	-7.65175
▁Zergatik	-7.65863
▁zerbait	-7.66119
▁batera	-7.67711
▁nik	-7.68226
ki	-7.68287
▁ezer	-7.68513
▁Nik	-7.68536
▁aurkitu	-7.68652
▁Hau	-7.69061
▁berriz	-7.69141
▁Bai	-7.69222
".	-7.69519
▁denbora	-7.70064
▁'	-7.70444
▁ni	-7.71052
▁baduzu	-7.7119
▁inoiz	-7.71646
▁zein	-7.71859
▁izatea	-7.72098
▁berriro	-7.72184
▁ditut	-7.72227
▁guztia	-7.72537
▁Beste	-7.72748
▁utzi	-7.73042
]	-7.73481
▁Gure	-7.7409
▁zegoen	-7.74209
▁1	-7.74219
▁gaur	-7.7424
▁dio	-7.7445
▁hauek	-7.74532
▁Hala	-7.74561
▁sortu	-7.75718
).	-7.76089
▁oraindik	-7.76286
▁erabili	-7.77594
▁berria	-7.78353
▁izaten	-7.79091
▁Orain	-7.79283
▁pertsona	-7.79624
▁handia	-7.80883
▁duzun	-7.81908
la	-7.82089
▁etorri	-7.82144
▁baita	-7.82267
▁ona	-7.82679
▁'%	-7.83633
▁gertatzen	-7.83974
A	-7.8408
▁bertan	-7.84272
▁[	-7.84319
▁Bere	-7.84876
▁Bi	-7.84946
▁arabera	-7.84974
▁alde	-7.85343
▁hiru	-7.8579
▁honek	-7.86097
▁E	-7.86127
▁esaten	-7.87023
▁Beraz	-7.87388
▁zela	-7.8747
▁jarri	-7.8758
▁–	-7.8852
▁dituzu	-7.88996
Ez	-7.89105
▁ala	-7.89494
▁aldiz	-7.89525
▁bidez	-7.90057
▁horretan	-7.90208
▁haren	-7.9021
▁aldatu	-7.91021
▁hain	-7.91147
▁genuen	-7.92234
▁ezta	-7.92312
▁zait	-7.92426
▁beraz	-7.92621
▁gertatu	-7.92987
▁bakarra	-7.9342
▁2	-7.93665
▁dagoen	-7.93955
▁egitea	-7.94039
▁...	-7.94181
▁bizitza	-7.94294
▁parte	-7.94356
▁besterik	-7.94924
▁Gaur	-7.95185
▁ba	-7.95425
▁Zein	-7.95685
▁Ba	-7.95828
▁horrek	-7.95893
▁jakin	-7.96839
▁sartu	-7.96986
▁ote	-7.97101
▁zu	-7.97115
u	-7.97241
▁buruzko	-7.97606
▁duela	-7.9785
▁I	-7.98149
▁aurrera	-7.98265
te	-7.98282
▁batez	-7.99023
▁modu	-7.99706
▁duzue	-8.00057
▁hainbat	-8.00429
▁3	-8.00744
▁hala	-8.02244
▁aurretik	-8.02361
▁e	-8.03277
▁zituzten	-8.03658
▁5	-8.04265
▁hartzen	-8.04544
▁lortu	-8.04609
▁burua	-8.04858
▁zergatik	-8.05258
▁honen	-8.05525
etik	-8.05935
▁dezakezu	-8.06227
▁ezagutzen	-8.06321
▁nago	-8.07024
▁Oso	-8.07521
▁gizon	-8.07628
gatik	-8.07669
ka	-8.07671
▁beren	-8.08484
▁non	-8.08555
▁a	-8.0892
S	-8.09068
▁horren	-8.09598
▁ordea	-8.09645
▁edozein	-8.10149
▁arteko	-8.10403
▁behin	-8.10734
y	-8.10868
▁izateko	-8.11792
zko	-8.12034
▁hura	-8.12293
c	-8.12513
▁maite	-8.12754
▁lagun	-8.13175
▁ezazu	-8.13384
tze	-8.13751
▁gai	-8.13791
▁Ni	-8.13833
▁S	-8.13844
▁egoera	-8.14138
▁erantzun	-8.14172
l	-8.14174
▁10	-8.14236
▁mota	-8.14589
az	-8.1514
tzat	-8.1543
▁egongo	-8.1564
▁gutxi	-8.15688
▁idatzi	-8.16086
▁egia	-8.16149
▁entzun	-8.16164
▁zuk	-8.16454
▁galdu	-8.16728
x	-8.173
tasuna	-8.17749
B	-8.17997
▁soilik	-8.18039
▁berean	-8.18419
▁batekin	-8.18495
▁orduan	-8.18976
da	-8.19032
▁atera	-8.19646
in	-8.19695
▁/	-8.19901
▁osoa	-8.20651
p	-8.20859
▁jaso	-8.21634
▁Izan	-8.21864
▁balio	-8.22145
▁4	-8.22178
▁horrela	-8.22433
»	-8.22771
▁fitxategi	-8.23058
▁direla	-8.23769
etara	-8.24525
▁dakit	-8.24958
koa	-8.25279
▁hor	-8.26425
▁zerrenda	-8.26591
b	-8.26608
▁gainean	-8.26705
▁Hemen	-8.26881
▁laster	-8.27013
▁fitxategia	-8.27162
▁lau	-8.27287
ro	-8.27595
er	-8.27596
ok	-8.27634
▁mundu	-8.277
▁daitezke	-8.28039
▁lana	-8.28237
entzat	-8.28496
▁Azken	-8.28768
▁zaude	-8.29086
▁dizut	-8.29244
▁itzuli	-8.29808
▁dugun	-8.29919
▁Orduan	-8.30158
tza	-8.3023
▁laguntza	-8.3047
▁on	-8.30486
▁18	-8.30792
tzera	-8.30861
▁dituen	-8.31497
▁leku	-8.31707
▁O	-8.31915
▁zehar	-8.31937
▁emakume	-8.31976
▁lehenengo	-8.32397
▁zaio	-8.32682
▁txiki	-8.32743
m	-8.33098
▁dauka	-8.33215
▁seme	-8.33621
K	-8.33651
▁Hautatu	-8.33744
▁Erakutsi	-8.33842
▁gabeko	-8.33852
tasun	-8.34033
▁erabaki	-8.34106
di	-8.34245
▁argi	-8.34279
▁aurrean	-8.34468
txo	-8.34566
▁talde	-8.34875
▁handi	-8.34992
▁C	-8.35031
etatik	-8.35063
▁ongi	-8.35388
▁de	-8.35843
▁litzateke	-8.36235
▁urtean	-8.36297
▁iritsi	-8.36328
▁berriak	-8.36428
I	-8.36483
▁hurrengo	-8.36657
▁baizik	-8.37097
▁prest	-8.37219
▁berak	-8.37414
▁eraman	-8.37628
▁ia	-8.37747
▁benetan	-8.37823
▁informazioa	-8.38179
▁izen	-8.38366
▁nuke	-8.38456
▁sentitzen	-8.38563
▁ordu	-8.38658
eta	-8.39058
to	-8.3913
▁bide	-8.39584
▁B	-8.39833
ena	-8.40258
▁inguruan	-8.40597
▁klik	-8.40615
▁irakurri	-8.41038
▁Egin	-8.41419
▁Europako	-8.41557
ma	-8.4159
▁bete	-8.42393
2	-8.4248
▁bitartean	-8.42642
▁ireki	-8.42763
▁milioi	-8.43363
▁etxean	-8.43671
▁sortzen	-8.43706
▁jarraitu	-8.43863
▁han	-8.43863
g	-8.43899
▁Errorea	-8.43934
▁beharra	-8.44745
▁haien	-8.44987
▁Gainera	-8.45058
▁ginen	-8.45329
▁dudan	-8.45523
▁badu	-8.45555
▁Zenbat	-8.45781
▁esker	-8.45881
▁moduan	-8.46078
▁gustatzen	-8.46209
▁dituzten	-8.46467
]]	-8.46479
▁zaitez	-8.46546
C	-8.46761
▁Horregatik	-8.46762
E	-8.46826
▁dauden	-8.47366
▁D	-8.47442
▁maila	-8.47591
▁era	-8.47882
▁espero	-8.48364
▁duena	-8.48425
ia	-8.4858
rak	-8.48824
▁adierazten	-8.48953
▁zenbat	-8.48982
▁falta	-8.49124
▁eskatu	-8.49454
▁G	-8.497
▁onena	-8.50122
ten	-8.50349
▁Estatu	-8.50372
▁bigarren	-8.50442
▁hizkuntza	-8.50449
▁liburu	-8.50639
O	-8.50845
▁aukeratu	-8.51042
du	-8.51056
▁begira	-8.51236
▁bihurtu	-8.51239
▁informazio	-8.5129
%	-8.51365
re	-8.51679
▁denean	-8.5183
na	-8.52022
▁irudi	-8.52309
▁ikus	-8.52389
f	-8.52448
▁bila	-8.52757
▁zidan	-8.52991
▁bezain	-8.53139
▁onartzen	-8.53327
▁Egun	-8.53442
▁bati	-8.53732
▁barruan	-8.53879
▁jo	-8.53915
▁Beti	-8.54198
▁eduki	-8.5429
▁Zu	-8.54587
le	-8.54696
▁kopurua	-8.5487
▁ahaztu	-8.5518
▁karpeta	-8.55384
▁lo	-8.55472
▁esku	-8.55585
▁galdetu	-8.55617
▁ikasi	-8.55625
▁dezake	-8.55872
▁15	-8.55956
▁ezagutu	-8.56187
▁gaude	-8.56269
keta	-8.56506
▁gauzak	-8.5652
G	-8.56655
▁behera	-8.5681
▁in	-8.5689
▁zuzen	-8.56952
▁galdera	-8.56978
­	-8.57006
▁sistema	-8.57225
▁egindako	-8.57365
▁6	-8.57551
▁huts	-8.57662
▁eskatzen	-8.57765
▁elkarrizketa	-8.57866
▁heldu	-8.57935
▁aita	-8.58229
▁Lehen	-8.58331
▁jende	-8.58375
▁Horrela	-8.58643
▁zenbait	-8.59234
▁7	-8.5938
h	-8.59472
▁zuela	-8.59531
▁zenuen	-8.59542
▁aurre	-8.59723
▁geratu	-8.6003
▁K	-8.60265
▁irabazi	-8.60288
▁ta	-8.60593
▁emango	-8.60877
▁bidali	-8.60954
on	-8.6111
▁zati	-8.61196
▁diot	-8.61199
▁gu	-8.61202
rek	-8.61283
D	-8.61332
▁eskaintzen	-8.61397
▁8	-8.61491
▁erraza	-8.61502
3	-8.61504
▁dit	-8.61625
▁Jainkoaren	-8.61626
▁guztietan	-8.61705
▁badago	-8.61868
▁20	-8.61878
▁erre	-8.6195
▁jauna	-8.62278
▁erakutsi	-8.62376
▁Dena	-8.62394
M	-8.62429
▁gain	-8.6246
▁Gero	-8.62544
esan	-8.62545
▁dezagun	-8.62773
▁gainera	-8.62785
▁ibili	-8.63019
▁gutxiago	-8.63365
bi	-8.63524
▁P	-8.63594
▁jartzen	-8.63848
▁gora	-8.64104
▁"%	-8.64112
▁batzuetan	-8.64196
▁bost	-8.64531
▁karta	-8.64533
▁garrantzitsua	-8.64558
▁osoan	-8.6465
▁kolore	-8.64663
▁duzula	-8.64809
▁herri	-8.6497
▁X	-8.65012
▁Ikusi	-8.65069
▁[[	-8.65135
▁nahiko	-8.65236
▁musika	-8.65263
▁eguna	-8.65488
▁neska	-8.66054
▁jarraitzen	-8.66071
▁dizu	-8.66129
▁ama	-8.66246
ti	-8.66312
▁esango	-8.66338
ago	-8.66362
▁Egia	-8.66496
▁nahikoa	-8.66496
▁tamaina	-8.66542
▁hartan	-8.66642
▁urteko	-8.66815
de	-8.66948
▁dagoela	-8.67111
pa	-8.67757
▁aurka	-8.67908
es	-8.68044
▁&	-8.68144
▁nahiz	-8.68315
▁batetik	-8.68471
▁nor	-8.68512
▁zitzaion	-8.68661
etarako	-8.68762
▁datu	-8.69061
▁arazo	-8.69202
▁Erabili	-8.69222
▁nagusia	-8.69242
▁pentsatu	-8.6936
▁ideia	-8.69429
▁onartu	-8.69444
▁zain	-8.69673
▁zuri	-8.6969
▁behintzat	-8.7001
▁aldaketa	-8.70256
▁aldi	-8.7026
▁guztiz	-8.70553
▁zioten	-8.70609
▁ulertzen	-8.70771
▁gorde	-8.70825
▁neure	-8.70848
▁arren	-8.71111
▁daukat	-8.71181
▁amaitu	-8.71399
▁baldin	-8.71418
▁zeuden	-8.71675
▁F	-8.71921
izena	-8.72049
▁nion	-8.72123
P	-8.72221
▁12	-8.7249
▁familia	-8.72511
1	-8.72864
▁euren	-8.73004
▁erabiltzaile	-8.73036
▁pentsatzen	-8.7319
▁Non	-8.73236
▁Horrek	-8.73533
F	-8.73557
▁herrialde	-8.73767
▁esperientzia	-8.74056
▁ur	-8.74259
▁ikusiko	-8.74437
▁dirua	-8.74515
>	-8.74538
▁enpresa	-8.74993
▁saiatu	-8.752
▁agertzen	-8.75377
▁hautatu	-8.75498
erako	-8.75885
▁etxe	-8.76141
▁mesedez	-8.76217
▁bakoitzak	-8.76266
▁minutu	-8.7628
▁Zuk	-8.76589
▁etxera	-8.76724
▁irudia	-8.76733
▁mezu	-8.77047
▁inork	-8.77158
▁M	-8.77223
▁ekarri	-8.7732
▁zeure	-8.77376
▁Hiru	-8.77932
▁agian	-8.77963
no	-8.77981
▁hiri	-8.78043
ba	-8.78185
garria	-8.78601
▁erakusten	-8.78658
▁diru	-8.78737
▁11	-8.78935
▁har	-8.79066
tua	-8.79095
▁Esan	-8.79165
▁zaitut	-8.79463
▁guztiek	-8.79475
!!	-8.79608
▁kontu	-8.79799
▁askoz	-8.79805
▁ikusteko	-8.80074
▁ohi	-8.80366
▁benetako	-8.8044
▁iruditzen	-8.80464
▁gehien	-8.80484
▁eragin	-8.80585
tuta	-8.80649
▁dutela	-8.80853
▁begiratu	-8.80967
▁Nork	-8.81028
▁kanpo	-8.81242
▁9	-8.81249
ing	-8.81325
▁datuak	-8.8146
▁gelditu	-8.81606
▁hasten	-8.81633
▁ustez	-8.81679
▁zaizu	-8.8179
▁T	-8.82006
▁inor	-8.82031
▁deitzen	-8.8227
▁•	-8.82547
▁azkar	-8.8259
▁aurreko	-8.82818
ga	-8.82954
▁puntu	-8.82961
▁lagundu	-8.82972
▁jaio	-8.83005
▁mezua	-8.83172
▁Gu	-8.83362
▁sekula	-8.83375
▁kontra	-8.83513
rentzat	-8.83724
▁horrelako	-8.83753
▁zaila	-8.83775
▁»	-8.83845
Zer	-8.83996
entzako	-8.84033
▁haiek	-8.84156
▁elkar	-8.84362
▁30	-8.84498
▁emateko	-8.84524
▁erosi	-8.84524
▁itxura	-8.84731
▁handiena	-8.84836
▁gazte	-8.84862
▁bidea	-8.84914
▁ekintza	-8.84946
▁16	-8.85027
▁lortzeko	-8.85189
▁munduko	-8.85215
▁ze	-8.85512
▁joaten	-8.85723
▁guztien	-8.85723
▁elkarrekin	-8.85783
▁arrazoi	-8.85806
▁garai	-8.85855
lo	-8.85968
▁lanean	-8.86054
L	-8.86158
▁erabat	-8.86345
ne	-8.86497
▁deitu	-8.86539
▁egunean	-8.86621
▁U	-8.86681
▁San	-8.8679
▁helburu	-8.86841
▁denak	-8.86904
▁sartzen	-8.87225
▁Noiz	-8.87286
▁17	-8.87602
▁Lan	-8.87624
▁>	-8.87645
▁noiz	-8.87784
▁gerra	-8.87911
▁Nor	-8.8793
▁merezi	-8.87961
▁hilabete	-8.88067
▁Oraindik	-8.88323
▁geratzen	-8.88414
▁omen	-8.88428
al	-8.88593
▁Hurrengo	-8.88784
▁delako	-8.88809
▁joko	-8.88829
▁hautatutako	-8.88958
▁bota	-8.89126
▁gako	-8.89268
▁lehenago	-8.89359
▁erabiltzeko	-8.89432
dun	-8.89719
▁handiagoa	-8.89808
▁jan	-8.89812
▁ugari	-8.89825
▁%1$	-8.89838
▁diote	-8.89887
4	-8.89895
▁hamar	-8.90133
▁nituen	-8.903
▁hobeto	-8.90352
▁H	-8.90424
▁gaizki	-8.90462
▁egunero	-8.90486
▁batzuek	-8.90491
▁guk	-8.90582
▁14	-8.90822
▁Edo	-8.9094
▁programa	-8.90963
▁joango	-8.91019
▁ederra	-8.91023
5	-8.91053
▁auto	-8.91092
▁tresna	-8.91359
▁Jauna	-8.91402
▁balitz	-8.91442
H	-8.9145
▁errege	-8.91563
▁kolorea	-8.91624
man	-8.9165
▁kendu	-8.91678
▁fitxategiak	-8.9176
▁argazki	-8.92092
ela	-8.92127
▁proiektu	-8.92192
▁erdi	-8.92356
▁beharrezkoa	-8.92401
▁jendea	-8.92445
▁Jainkoak	-8.92933
▁ihes	-8.93006
▁L	-8.93032
li	-8.9308
▁uneko	-8.9313
▁Bigarren	-8.93482
▁helburua	-8.93653
▁berdin	-8.93988
T	-8.94069
▁atzera	-8.94196
▁uzten	-8.9432
▁i	-8.94376
garri	-8.94454
▁une	-8.94487
▁historia	-8.94519
▁ezarri	-8.94547
▁Gauza	-8.9469
do	-8.9497
▁adibidez	-8.95175
▁bakar	-8.95312
▁zerbitzu	-8.95385
▁berehala	-8.95421
▁pasa	-8.95524
▁toki	-8.95826
▁halako	-8.95878
▁Ireki	-8.9599
▁zenbaki	-8.96031
▁dagoeneko	-8.9625
▁dezaket	-8.96345
▁nau	-8.96381
▁berezia	-8.96686
▁Huts	-8.97037
▁badira	-8.9713
▁aukerak	-8.97145
▁pixka	-8.97171
▁Uste	-8.97228
▁idazten	-8.97343
▁giza	-8.97578
▁agertu	-8.9761
▁askotan	-8.97627
▁jada	-8.97799
▁leiho	-8.9788
▁itxi	-8.97954
▁zenuke	-8.98026
mo	-8.98189
ar	-8.9823
▁web	-8.98288
▁horri	-8.98473
▁Jainkoa	-8.98518
tutako	-8.98539
▁honi	-8.98863
▁:	-8.98907
▁gurekin	-8.99146
▁zaren	-8.99459
▁Gehitu	-8.99615
▁gaitu	-8.9967
gu	-8.99725
▁erabil	-8.99786
▁ordez	-8.99795
▁digu	-8.99913
▁hartuko	-9.00043
▁tekla	-9.00081
▁inguru	-9.00137
▁%2$	-9.00165
▁buru	-9.0024
▁La	-9.0042
▁gutxienez	-9.00439
▁gehiegi	-9.00697
▁egotea	-9.00764
▁Aita	-9.00988
▁baterako	-9.01046
▁mila	-9.01106
▁Fitxategi	-9.01609
gi	-9.01644
▁hona	-9.01719
▁garbi	-9.01892
▁gehienak	-9.01965
▁Ondo	-9.02068
▁Jesus	-9.02218
▁elementu	-9.0241
▁produktu	-9.02485
▁pantaila	-9.02627
▁Ondoren	-9.02661
▁laguntzen	-9.02726
▁entzuten	-9.02965
▁luke	-9.02977
R	-9.03085
▁Mundu	-9.03147
▁noski	-9.03347
▁bakoitzean	-9.03384
▁mundua	-9.03551
▁heriotza	-9.03627
▁dezakegu	-9.03753
▁Sortu	-9.03794
▁Eskerrik	-9.04081
▁erabiliko	-9.04155
▁Agian	-9.0418
tsu	-9.042
▁be	-9.04265
▁diozu	-9.0441
▁Joan	-9.04465
▁bateko	-9.04519
▁*	-9.04547
▁zarete	-9.04582
▁kontua	-9.04709
▁Ama	-9.04709
▁txarra	-9.04804
gan	-9.04806
▁egokia	-9.04871
▁buruari	-9.05432
▁aldatzen	-9.05455
▁ondoan	-9.05456
▁horien	-9.05602
▁aste	-9.05695
▁beharreko	-9.05729
’	-9.06105
▁Aukera	-9.06371
▁erantzuna	-9.06489
zio	-9.0667
▁kontuan	-9.06731
▁hasiera	-9.07004
co	-9.07088
▁munduan	-9.07361
▁(%	-9.07682
▁13	-9.07688
▁[...]	-9.077
▁bakoitza	-9.07722
▁hartzeko	-9.07754
N	-9.07799
▁askok	-9.07807
pen	-9.07823
▁Gorde	-9.07855
men	-9.07947
be	-9.08025
▁niri	-9.0805
▁balioa	-9.08197
▁irakurtzen	-9.08275
▁betiko	-9.08525
▁beldur	-9.08778
▁eskubidea	-9.08823
▁Bat	-9.08894
▁Nazioarteko	-9.0891
▁Guk	-9.09073
▁Al	-9.09192
▁azaldu	-9.09285
▁zien	-9.09435
Bai	-9.09565
▁emaitza	-9.09617
▁Ongi	-9.09747
goa	-9.09998
▁bezalako	-9.10013
▁onak	-9.10208
▁harrapatzen	-9.10226
▁hobe	-9.10239
▁jokoa	-9.10324
▁zaitu	-9.10351
▁bilaketa	-9.10357
▁hainbeste	-9.10367
▁dakizu	-9.10438
▁ondorioz	-9.10571
▁EDO	-9.10656
▁energia	-9.10683
▁New	-9.10698
▁inguruko	-9.10737
▁aurkako	-9.10848
▁zurekin	-9.10884
▁sarrera	-9.10901
▁horietako	-9.10975
us	-9.10976
▁lortzen	-9.11067
▁bihotza	-9.11098
▁ezabatu	-9.11165
▁polita	-9.112
▁pozik	-9.11558
▁honekin	-9.11739
▁posta	-9.11761
▁Hitz	-9.11981
▁Aldatu	-9.12144
▁betetzen	-9.12199
▁beltza	-9.12249
▁didazu	-9.12365
▁bilatzen	-9.12457
tzailea	-9.12479
tzaile	-9.12627
▁bidaia	-9.12682
▁ziur	-9.12685
▁etxea	-9.12688
▁begi	-9.12738
▁en	-9.12743
▁letra	-9.12765
▁Azkenean	-9.12952
▁helbide	-9.12975
▁hobea	-9.13169
▁Google	-9.1321
▁Nahi	-9.13246
▁Lehenengo	-9.13851
▁kasu	-9.13903
▁lege	-9.13917
▁bihurtzen	-9.14054
▁In	-9.14239
▁seguru	-9.14586
▁azkenean	-9.14662
▁bertsio	-9.15011
▁0	-9.15158
▁aurkitzen	-9.15187
▁25	-9.15238
▁horretarako	-9.15283
▁Inoiz	-9.15359
▁txikia	-9.15498
▁erraz	-9.15573
▁Zerbait	-9.15589
▁barne	-9.15595
▁erabiliz	-9.15842
▁aurkituko	-9.15845
▁Denbora	-9.15882
▁hirugarren	-9.15897
?"	-9.15911
▁N	-9.15946
me	-9.16082
▁nagusi	-9.16151
▁dirudi	-9.16226
▁taldea	-9.16411
tuko	-9.1643
▁hitzak	-9.16444
▁zaie	-9.16595
pe	-9.16605
▁aplikazio	-9.16623
▁ezezaguna	-9.16647
▁nork	-9.16677
ke	-9.16781
▁Hor	-9.16818
▁Sartu	-9.16856
▁des	-9.16867
▁Adibidez	-9.16882
▁ditzakezu	-9.16919
▁modua	-9.17055
tz	-9.1708
▁bertsioa	-9.17129
▁EZ	-9.17234
▁Benetan	-9.17249
▁Gerra	-9.17427
▁nahiago	-9.17495
▁sentitu	-9.17506
▁De	-9.17662
▁handiak	-9.17723
▁joateko	-9.17956
ge	-9.17981
▁Urte	-9.18006
▁o	-9.18037
▁luze	-9.18135
▁zuek	-9.18179
▁gehitu	-9.18201
▁Hona	-9.1829
V	-9.18303
▁gogoratzen	-9.18454
▁mugimendu	-9.18681
lu	-9.18846
▁R	-9.18905
▁liburua	-9.18909
▁lehenetsia	-9.18937
▁azpian	-9.19051
▁bukatu	-9.19079
v	-9.191
▁eragiten	-9.19146
▁Lau	-9.19239
▁testu	-9.19262
ton	-9.19294
W	-9.19326
▁jotzen	-9.19346
▁diogu	-9.19399
▁atzean	-9.19447
▁Asko	-9.19478
ni	-9.195
▁existitzen	-9.19545
▁zitzaidan	-9.19583
▁gertatuko	-9.19605
Z	-9.19713
▁bideo	-9.19882
▁etxeko	-9.19913
▁kide	-9.19944
▁aurkeztu	-9.19963
▁hitza	-9.20114
▁haur	-9.20143
▁aipatu	-9.20314
▁24	-9.20342
▁doa	-9.20572
▁eraiki	-9.20591
▁alda	-9.20612
▁ostean	-9.20686
▁The	-9.21021
▁Ziur	-9.21206
▁jaten	-9.21266
[	-9.21318
▁borroka	-9.21476
▁dituzun	-9.21514
▁honako	-9.21572
▁‘	-9.21636
▁zirela	-9.21641
tzean	-9.21654
▁horrekin	-9.21862
▁<	-9.21881
barra	-9.21961
▁erabiltzea	-9.22182
▁sei	-9.22192
▁etorriko	-9.22241
▁gau	-9.22255
▁geroago	-9.22331
▁saio	-9.22493
▁adierazi	-9.2293
▁ateratzen	-9.22954
il	-9.22993
▁ikerketa	-9.23114
▁hartzea	-9.23127
▁zuretzat	-9.23257
▁GNOME	-9.23279
▁die	-9.23492
edo	-9.23529
▁posible	-9.24012
▁Bada	-9.2407
▁jasotzen	-9.24218
▁horregatik	-9.24251
▁Bertan	-9.24541
agoa	-9.24614
▁honetako	-9.24732
▁J	-9.2474
▁zaigu	-9.24867
▁zin	-9.24914
▁azaltzen	-9.24982
▁estrategia	-9.24992
▁ematea	-9.25178
▁irten	-9.25195
▁daki	-9.25205
▁zinen	-9.25795
▁aldatzeko	-9.25802
▁zuria	-9.25816
▁ulertu	-9.25856
▁dator	-9.2601
▁agindu	-9.26047
▁osatzen	-9.26176
▁zenean	-9.26206
▁automatikoki	-9.26222
▁Bera	-9.2628
▁dudala	-9.26285
▁pasahitza	-9.26307
▁Evolution	-9.26393
tara	-9.2651
▁aritu	-9.2668
U	-9.26813
▁Hainbat	-9.26875
▁muga	-9.26912
tea	-9.26943
▁guzti	-9.27023
▁Han	-9.27042
▁forma	-9.2705
▁saioa	-9.27086
▁igo	-9.27227
▁Ezarri	-9.27291
?”	-9.27361
▁Espainiako	-9.27443
▁eginez	-9.27536
so	-9.27569
▁Informazio	-9.27581
▁niretzat	-9.27807
▁ordaindu	-9.27826
▁ene	-9.27865
ino	-9.28056
▁izanez	-9.28109
▁bereziki	-9.28275
▁nazioarteko	-9.2836
▁funtzionatzen	-9.28397
▁Lo	-9.28419
Eta	-9.28435
▁mezuak	-9.28496
zu	-9.28512
▁beraien	-9.28635
▁biak	-9.2905
▁50	-9.2931
▁sortzeko	-9.29346
zi	-9.29381
▁Horretarako	-9.29436
▁jokatu	-9.29458
▁begiak	-9.29704
▁estatu	-9.29806
▁naizela	-9.29836
▁bizirik	-9.29877
po	-9.29974
▁berarekin	-9.29981
▁Kendu	-9.30017
▁ordua	-9.30023
▁c	-9.30306
▁lagunak	-9.30428
▁Le	-9.30558
ekoa	-9.30646
▁amaiera	-9.30654
ku	-9.3071
▁hiltzen	-9.30793
▁igaro	-9.30843
+	-9.30872
▁pila	-9.30885
▁duk	-9.30935
▁daukagu	-9.30946
▁gela	-9.30987
▁geure	-9.3099
▁Ur	-9.31074
▁saiatzen	-9.31175
▁erran	-9.31195
▁egungo	-9.31409
bo	-9.31703
▁zazpi	-9.31794
se	-9.31836
▁film	-9.32002
▁maitasuna	-9.32052
▁W	-9.32096
▁jendeak	-9.32143
▁zabaldu	-9.32233
ja	-9.32277
▁lasai	-9.32288
▁ume	-9.32446
▁erabilera	-9.32604
▁kopia	-9.32621
▁El	-9.32666
▁antzeko	-9.32687
▁Haren	-9.32701
koak	-9.32803
▁ezartzen	-9.33001
▁eskola	-9.33024
▁aski	-9.33079
▁ura	-9.33088
▁langile	-9.33251
ur	-9.33374
▁zuzenean	-9.33493
io	-9.33561
▁politika	-9.33655
REN	-9.3369
▁Ar	-9.33789
▁semea	-9.34028
▁bildu	-9.34112
▁hauetan	-9.34191
▁axola	-9.34211
▁zuzena	-9.3428
▁Idatzi	-9.3429
▁eremu	-9.34331
▁Aukeratu	-9.3447
▁hark	-9.34472
▁mailako	-9.34512
ed	-9.34643
▁berezi	-9.34668
▁galtzen	-9.34749
▁su	-9.34765
Y	-9.3477
▁argitaratu	-9.34781
▁zenbakia	-9.34925
▁apur	-9.34938
bide	-9.35009
▁Mo	-9.35022
ina	-9.35194
▁Ze	-9.35261
▁k	-9.35311
katu	-9.35343
▁urteetan	-9.35344
▁Erre	-9.35361
▁ezkondu	-9.3544
▁lur	-9.35442
▁Ta	-9.35614
▁baldintza	-9.35686
▁ditugun	-9.35697
▁leihoa	-9.35793
▁inolako	-9.35817
tar	-9.35828
▁Laster	-9.35835
▁kon	-9.36049
ber	-9.3609
▁urrun	-9.36119
▁100	-9.36307
st	-9.36345
▁izeneko	-9.36366
▁zerbitzari	-9.36446
▁libre	-9.36523
un	-9.36582
▁John	-9.36586
sa	-9.36617
▁Be	-9.36666
7	-9.36839
▁lerro	-9.3686
▁zaharra	-9.36929
▁batzuen	-9.37013
▁ezik	-9.37258
▁lanak	-9.37457
th	-9.37549
▁batere	-9.37594
▁Gaitu	-9.37627
▁Gizon	-9.37647
▁V	-9.37714
▁Mesedez	-9.37717
▁aldaketak	-9.37764
▁zerbitzuak	-9.37786
▁berdina	-9.37928
▁b	-9.3805
mi	-9.38074
▁egitera	-9.38076
keria	-9.38155
▁Munduko	-9.38252
▁zeren	-9.3834
▁arazoa	-9.38388
▁mugitzen	-9.38405
▁ikasle	-9.38426
▁Bilatu	-9.38434
▁erabilgarri	-9.38496
▁hasiko	-9.39224
▁hemendik	-9.39282
el	-9.39297
▁alderdi	-9.39362
6	-9.39546
▁bihar	-9.39604
▁Z	-9.39841
riko	-9.39956
▁ikasten	-9.39961
▁zerbitzua	-9.40006
▁bazara	-9.40106
▁Azkenik	-9.40125
▁hasieran	-9.40266
▁Jo	-9.40332
▁zarela	-9.40353
▁Aurreko	-9.40359
▁norbait	-9.40381
▁etorkizuna	-9.40451
▁Berak	-9.40463
▁ezaguna	-9.40479
▁ikustea	-9.40488
▁Hauek	-9.40568
▁bizitzan	-9.40838
▁arreta	-9.4092
▁gizona	-9.41021
▁are	-9.41024
▁eragina	-9.41118
dan	-9.41119
it	-9.41128
▁gizarte	-9.41178
▁dizugu	-9.41193
▁garen	-9.41329
▁gustuko	-9.41453
▁Euskal	-9.41514
▁2.	-9.41657
▁kanpoko	-9.41705
▁hasteko	-9.41751
▁eder	-9.41811
▁besteak	-9.41815
▁dugula	-9.41826
▁luzea	-9.41905
▁Behin	-9.4192
▁la	-9.41993
▁naizen	-9.42006
▁eskaera	-9.42022
▁Egoera	-9.42053
▁Sa	-9.42159
ter	-9.42239
X	-9.42271
▁honela	-9.42394
▁arazoak	-9.42399
▁alaba	-9.42401
▁esteka	-9.42423
▁mugitu	-9.42549
▁eztabaida	-9.42674
▁Kaixo	-9.42793
▁testua	-9.42827
den	-9.42862
▁Eraman	-9.42949
▁prozesu	-9.43191
oi	-9.43201
▁dantza	-9.43272
ac	-9.43304
si	-9.4343
▁ea	-9.43613
▁beharrik	-9.43696
▁horixe	-9.43729
egia	-9.43757
▁baliogabea	-9.43822
▁nirekin	-9.43875
▁Ka	-9.43909
▁erakunde	-9.43961
▁arrakasta	-9.44191
▁duzuna	-9.44319
▁begiratzen	-9.44324
▁?	-9.44559
▁Pi	-9.4463
▁buruan	-9.44749
▁Horren	-9.44861
tor	-9.44877
▁proiektua	-9.44877
▁x	-9.44999
raino	-9.45081
▁Ea	-9.45082
▁kontatu	-9.45191
▁zehaztu	-9.45227
▁osatu	-9.45336
▁sinesten	-9.45337
▁zahar	-9.45352
▁s	-9.45492
▁nere	-9.45625
▁Inork	-9.45714
▁genituen	-9.45719
ezko	-9.45915
▁datorren	-9.45955
sh	-9.46001
▁maitea	-9.46012
▁bidean	-9.46087
▁anaia	-9.46109
▁dakigu	-9.46144
rra	-9.46215
▁kultura	-9.46233
▁Garai	-9.46287
▁pasatu	-9.46306
▁handiko	-9.46445
▁hutsa	-9.46591
▁oinarri	-9.46615
:%	-9.46676
▁oinarrizko	-9.46707
▁An	-9.46756
▁Pertsona	-9.46771
▁banatu	-9.46786
w	-9.46959
▁barre	-9.47004
rean	-9.47066
engatik	-9.47095
▁atsegin	-9.47231
▁eramaten	-9.47239
pena	-9.47254
▁hari	-9.47325
hi	-9.47399
▁40	-9.47438
▁baitan	-9.47458
▁Sistema	-9.47546
ratu	-9.47583
▁euro	-9.47596
▁osoko	-9.4762
▁txikiak	-9.47724
▁Y	-9.47777
▁dutenak	-9.47969
▁atzetik	-9.47995
▁Lagun	-9.4802
▁egoteko	-9.48056
▁Liburu	-9.48087
▁dezakete	-9.48096
▁Bost	-9.48232
▁jarriko	-9.48247
▁guztiei	-9.4825
▁ardura	-9.48272
▁Begira	-9.48333
▁gainerako	-9.48395
tzi	-9.4841
▁utziko	-9.48447
▁Ikus	-9.48481
▁gogorra	-9.48554
▁eraso	-9.48601
▁goizean	-9.48662
▁Barkatu	-9.48755
▁Joko	-9.48774
▁Musika	-9.48898
▁segurtasun	-9.48905
▁eskuineko	-9.48908
▁jarraituko	-9.48953
pi	-9.49004
▁garaia	-9.49007
▁eskuratu	-9.49025
▁atzeko	-9.49046
▁data	-9.49047
▁di	-9.49125
▁Jaunak	-9.49128
▁liteke	-9.4928
▁Jaunaren	-9.49369
batean	-9.49424
▁amets	-9.49428
▁teknologia	-9.49438
▁Lizentzia	-9.49451
▁saldu	-9.49458
▁marka	-9.4948
▁politiko	-9.49514
▁jokatzen	-9.49708
ero	-9.49729
dura	-9.49805
▁argazkiak	-9.49843
▁erori	-9.49877
zerrenda	-9.49914
▁hutsik	-9.50043
▁pasatzen	-9.50083
▁Internet	-9.5011
▁Honek	-9.50121
▁bitartez	-9.50241
▁disko	-9.50288
▁online	-9.50363
zioa	-9.5038
▁helbidea	-9.50394
▁Bide	-9.50446
▁gorputza	-9.50475
▁Utzi	-9.50496
▁laguntzeko	-9.50543
▁Batzuetan	-9.50549
▁astean	-9.50632
▁ikuspegi	-9.50655
▁harrapatu	-9.50659
▁lekua	-9.50692
▁zertan	-9.50808
▁me	-9.50827
▁izanen	-9.5083
or	-9.50852
▁harreman	-9.50994
▁barru	-9.51017
▁etortzen	-9.51047
▁Argi	-9.51166
▁21	-9.5137
▁Izena	-9.51373
▁Jainko	-9.51418
▁bestela	-9.51533
son	-9.51546
▁oro	-9.51617
▁taldeak	-9.51642
▁Bizitza	-9.51669
tzako	-9.51675
▁emakumeak	-9.51704
is	-9.5172
ce	-9.51726
▁min	-9.518
▁telefono	-9.51802
▁beltzak	-9.51863
▁Web	-9.51883
▁adibide	-9.51943
▁argia	-9.51978
▁pertsonak	-9.52009
▁dituzue	-9.52024
▁indarra	-9.52183
▁ahoskatzea	-9.52191
▁Ma	-9.52238
▁garrantzitsuena	-9.52293
▁zegoela	-9.52312
▁egunetan	-9.52347
▁urtez	-9.52368
▁gaia	-9.52384
▁arau	-9.52446
tzaileak	-9.52488
▁#	-9.52514
tsua	-9.52683
▁Galdera	-9.52813
▁Edozein	-9.52854
▁Mila	-9.52856
▁gogoan	-9.52874
▁zeukan	-9.52914
▁daukazu	-9.53002
▁gakoa	-9.53057
▁Re	-9.53074
▁denok	-9.53273
▁irakasle	-9.53308
▁19	-9.53351
▁bizia	-9.53401
▁Irudi	-9.53475
▁duguna	-9.53486
▁pare	-9.53561
▁ordenagailu	-9.53585
▁etengabe	-9.53635
▁Ko	-9.53721
▁Europa	-9.53752
▁esateko	-9.53768
▁gogor	-9.53868
za	-9.53904
▁Laguntza	-9.53904
▁(19	-9.53925
▁fitxa	-9.53951
▁indar	-9.54013
▁badugu	-9.54173
▁emaitzak	-9.54295
▁p	-9.54326
▁normalean	-9.54348
▁d	-9.54409
▁Di	-9.54432
ho	-9.5449
▁orri	-9.54517
▁bakoitzeko	-9.54578
▁22	-9.54608
ul	-9.54612
▁itxaron	-9.54643
▁harremanetan	-9.54663
et	-9.54795
▁an	-9.54796
▁or	-9.54816
▁Entzun	-9.54837
ck	-9.54844
▁bikaina	-9.54922
▁emandako	-9.54928
▁neurri	-9.55184
ria	-9.55245
ts	-9.55252
▁itzuliko	-9.55293
▁gune	-9.55517
▁dizuet	-9.556
▁Mezu	-9.55621
▁Talde	-9.55627
▁genuke	-9.55651
▁ados	-9.55736
reko	-9.55929
▁objektu	-9.55944
▁azterketa	-9.56214
▁gertu	-9.56226
▁filmak	-9.56277
▁Era	-9.56447
▁Har	-9.56525
▁Ezabatu	-9.56537
lan	-9.56611
oa	-9.56618
▁Auto	-9.56706
▁nengoen	-9.56896
gai	-9.57051
▁itzultzen	-9.57056
▁Or	-9.571
▁biltzen	-9.57139
▁Hain	-9.57212
▁gorputz	-9.57246
▁Co	-9.57509
▁jarduera	-9.57534
▁Da	-9.57539
▁prestatu	-9.57547
▁lagunduko	-9.5759
▁badakizu	-9.57808
▁jarrera	-9.57901
▁Su	-9.57922
aldi	-9.5794
▁Hasi	-9.57965
▁Ra	-9.58001
▁direnak	-9.58013
▁nauzu	-9.58029
▁joatea	-9.58045
ista	-9.58051
▁duzunean	-9.5806
ly	-9.5811
▁desagertu	-9.58177
kin	-9.58239
▁jadanik	-9.58242
▁eskuragarri	-9.58279
pean	-9.58344
▁hazi	-9.58424
▁ditzake	-9.58428
▁irudiak	-9.58443
▁galdetzen	-9.58497
je	-9.58513
▁plan	-9.58564
▁emaztea	-9.58566
▁gainetik	-9.58609
▁Duela	-9.5878
▁Etxe	-9.5878
▁desberdinak	-9.58842
▁egoten	-9.58886
atu	-9.58997
at	-9.59033
▁bilatu	-9.59125
▁Izen	-9.59127
▁Emakume	-9.59154
paper	-9.59172
▁direnean	-9.59289
▁gordetzen	-9.5937
▁Na	-9.59506
▁baimena	-9.5952
tzu	-9.59561
ha	-9.5975
▁orduko	-9.59773
▁zehazten	-9.59825
▁norbaitek	-9.59869
▁sortzea	-9.59896
▁edan	-9.59978
▁Erabiltzaile	-9.6002
rez	-9.60044
▁Frantziako	-9.60255
▁gustatu	-9.60352
▁dei	-9.60426
▁jokalari	-9.60451
enak	-9.60606
▁karaktere	-9.6066
▁izendatu	-9.6077
▁Programa	-9.60793
▁zuriak	-9.60808
jo	-9.60905
▁badut	-9.60946
▁ezaugarri	-9.60951
▁bakoitzaren	-9.61017
▁sakatu	-9.6102
▁zi	-9.61093
▁izaera	-9.6118
▁haurrak	-9.61372
▁g	-9.61418
▁Begiratu	-9.61479
bat	-9.6154
▁artikulu	-9.6154
▁momentu	-9.61658
▁bilera	-9.61665
▁oker	-9.61714
fi	-9.61728
▁Behar	-9.61767
▁konturatu	-9.61887
▁ninduen	-9.61936
▁atal	-9.62114
▁Lu	-9.62171
=	-9.62197
▁Leiho	-9.6223
▁atea	-9.62255
▁duenean	-9.62262
tiko	-9.62321
▁mutil	-9.62406
▁Kolore	-9.62486
▁zera	-9.62567
▁saltzen	-9.62718
▁zuhaitz	-9.62732
▁aurpegia	-9.62758
▁eskaini	-9.6277
ve	-9.62775
der	-9.6283
▁aldia	-9.62893
▁Kon	-9.63015
▁bestelako	-9.6303
iz	-9.63168
▁Pro	-9.63171
ry	-9.63213
▁proba	-9.63272
▁horietan	-9.63339
▁lurralde	-9.63385
▁Bestela	-9.63405
▁Jende	-9.63433
▁Mar	-9.63498
▁ondorengo	-9.63524
▁konfiantza	-9.63656
▁dagoenean	-9.63665
▁kanpoan	-9.63685
▁lotura	-9.63719
▁osasun	-9.63726
▁Tira	-9.63737
▁Irakurri	-9.63906
retan	-9.64042
▁aztertu	-9.64096
▁ezarpenak	-9.64188
▁jar	-9.64288
▁urrats	-9.6438
▁1.	-9.64404
▁eguneko	-9.64412
txe	-9.64447
▁asmoa	-9.64548
▁aldetik	-9.64593
▁mendi	-9.64684
ca	-9.64794
▁antolatu	-9.64836
▁He	-9.64903
▁izenak	-9.65112
▁blog	-9.65147
10	-9.65234
▁hezkuntza	-9.65244
▁labur	-9.65258
▁ibiltzen	-9.65268
▁alegia	-9.65268
▁per	-9.65323
teko	-9.65341
!"	-9.65342
▁prestatzen	-9.65439
tasunaren	-9.65439
▁Badakizu	-9.65444
rekiko	-9.65458
▁sartzeko	-9.65587
▁Zuen	-9.65638
lari	-9.65731
▁Ia	-9.65732
▁biok	-9.65805
▁gizaki	-9.65876
▁Editatu	-9.65906
▁aldera	-9.65924
▁Saiatu	-9.65946
▁ezberdinak	-9.66084
▁baitu	-9.6609
▁eskua	-9.66152
▁iruditu	-9.66195
▁Bestalde	-9.66281
▁Herri	-9.66302
▁zutela	-9.66327
arentzat	-9.6638
▁telebista	-9.66464
▁Uneko	-9.66482
▁kontatzen	-9.66539
tsa	-9.66541
▁filma	-9.66598
8	-9.66602
▁dadin	-9.66913
ie	-9.66973
▁aldeko	-9.67004
▁etiketa	-9.67044
▁ezkontza	-9.67151
ismoa	-9.67162
▁li	-9.67198
▁Kasu	-9.67262
▁Aste	-9.67322
land	-9.67323
koadroa	-9.67556
▁asmatu	-9.67589
▁size	-9.67614
▁garrantzia	-9.6769
▁jakingo	-9.67719
▁gomendatzen	-9.67787
ala	-9.67885
▁saria	-9.67917
▁daitekeen	-9.67945
▁dudana	-9.67966
▁nora	-9.67982
▁legea	-9.67995
▁bezalakoa	-9.68002
▁Giza	-9.68167
▁jartzea	-9.6818
▁Pa	-9.68237
▁denez	-9.68239
▁f	-9.68268
▁zehatz	-9.68401
▁kopuru	-9.68403
▁harro	-9.68417
▁edukia	-9.68428
▁izenean	-9.68438
▁Do	-9.68495
sta	-9.68562
▁iraun	-9.68566
\	-9.68632
▁NIRE	-9.68648
▁zortzi	-9.68669
▁eredu	-9.68709
▁publiko	-9.68735
▁itzazu	-9.68738
▁erdian	-9.68819
▁23	-9.6909
▁garela	-9.69108
▁espazio	-9.69123
▁direktorioa	-9.69244
▁ETA	-9.69326
ger	-9.69506
▁gainditu	-9.6954
▁jasoko	-9.69541
▁istorio	-9.69547
▁to	-9.69657
iko	-9.69836
▁liburuak	-9.69853
9	-9.69855
▁produktuak	-9.69879
▁jantzi	-9.69887
▁ma	-9.69898
▁Eman	-9.69903
▁erabakia	-9.69914
▁bero	-9.69988
▁gobernu	-9.70056
Ba	-9.70086
▁beldurra	-9.70185
que	-9.70307
▁m	-9.70371
▁daudela	-9.70389
▁beharbada	-9.70394
per	-9.70397
▁Ai	-9.70421
▁zabalera	-9.70455
▁guztiok	-9.70476
.”	-9.70496
▁Une	-9.70635
▁eskubide	-9.70644
▁hiria	-9.70651
tegi	-9.70755
▁sozial	-9.70761
▁aurpegi	-9.70801
▁dagokionez	-9.70813
▁ka	-9.70906
▁of	-9.71003
▁Proiektu	-9.71069
▁hurbil	-9.71161
▁DA	-9.71196
▁Gehiago	-9.71338
▁GNOMEren	-9.71356
▁CD	-9.71356
▁Bihar	-9.71379
▁--	-9.71395
▁Hobe	-9.71413
▁aurki	-9.71421
▁Ne	-9.71447
txa	-9.71516
J	-9.71536
▁espezie	-9.71562
▁eginda	-9.71571
▁garatu	-9.71611
▁Batuetako	-9.71668
▁iturburu	-9.71702
▁Enpresa	-9.71713
▁Ipar	-9.71719
▁ondorio	-9.71759
▁dagokion	-9.71814
▁publikoa	-9.71861
*	-9.71897
tia	-9.71999
▁prozesua	-9.72026
▁Amerika	-9.72101
▁memoria	-9.72264
egi	-9.72341
arra	-9.72342
▁nagusiak	-9.72383
▁material	-9.72403
▁adina	-9.72475
▁ko	-9.7252
▁Hirugarren	-9.72521
▁garaian	-9.72553
kar	-9.72556
▁izanik	-9.7259
▁kontrol	-9.72607
▁ohar	-9.7263
▁gaitezen	-9.72674
▁gelditzen	-9.72745
▁aldean	-9.72779
▁Me	-9.72828
kide	-9.72862
j	-9.72919
▁formatu	-9.7311
▁dokumentu	-9.73119
Name	-9.73121
▁Horixe	-9.73172
tzerik	-9.73188
▁erakutsiko	-9.73201
▁baldintzak	-9.73203
▁ahotsa	-9.7321
▁ordena	-9.73215
é	-9.73334
▁kargatu	-9.7334
▁iristen	-9.73353
▁beraren	-9.73359
rren	-9.73395
▁askatasuna	-9.73424
marka	-9.7345
▁goi	-9.73453
▁orrialde	-9.73483
▁jakina	-9.73513
▁goiz	-9.73524
▁Gazte	-9.73529
▁Hizkuntza	-9.73666
▁interesgarria	-9.74005
▁zaindu	-9.74038
▁Espero	-9.74087
▁didate	-9.74207
▁berandu	-9.7424
▁kalte	-9.74261
▁Erantzun	-9.74262
▁errorea	-9.74459
▁nolako	-9.74588
▁jatorrizko	-9.74589
▁No	-9.74696
▁jakitea	-9.74736
▁gaituzte	-9.74803
▁mahai	-9.74806
▁eramango	-9.74838
▁bisita	-9.74864
▁Des	-9.74888
▁dabil	-9.74951
▁pro	-9.74974
bil	-9.75032
▁ezberdin	-9.75058
?”.	-9.75072
▁badute	-9.751
rantz	-9.75154
▁dituela	-9.75156
▁Eguna	-9.75174
▁Niri	-9.75226
▁geroztik	-9.75327
▁ezinezkoa	-9.75344
▁jaitsi	-9.75376
atzen	-9.7541
▁zituela	-9.75503
▁nazio	-9.7551
▁interes	-9.75595
▁planeta	-9.75602
▁ja	-9.75687
▁eskubideak	-9.75735
▁negozio	-9.7579
tuak	-9.75804
▁hi	-9.75811
▁merkataritza	-9.75825
▁gizonak	-9.75857
▁lurra	-9.75957
▁horretaz	-9.75988
▁ditudan	-9.76027
▁arrazoia	-9.76056
▁sare	-9.7611
▁nuela	-9.76218
▁Jakin	-9.76286
▁Alde	-9.76345
▁gaineko	-9.76401
itu	-9.76402
▁sinatu	-9.76506
▁28	-9.7664
eri	-9.76659
▁izar	-9.7669
▁lortuko	-9.76711
sistema	-9.76744
▁amak	-9.76769
▁bidaltzen	-9.76829
▁atzo	-9.76858
▁Badakit	-9.76909
▁ate	-9.76952
▁software	-9.77038
▁herria	-9.7706
▁pi	-9.7712
▁zoriontsu	-9.77198
▁aipatzen	-9.7721
▁irteera	-9.77242
▁profesional	-9.77293
▁komando	-9.77518
▁ontzi	-9.77537
ze	-9.77582
▁gauean	-9.77585
▁laneko	-9.77612
▁banatzen	-9.77615
▁Gai	-9.777
▁iturri	-9.77712
▁gerta	-9.77762
▁aplikazioa	-9.77853
00	-9.77876
▁Maite	-9.779
▁bikoitza	-9.77996
▁ikusgai	-9.78031
▁zaldi	-9.78103
▁Erresuma	-9.78116
▁GNU	-9.78124
▁hurbildu	-9.78136
▁kanpora	-9.78208
▁animalia	-9.78223
▁segurua	-9.78245
▁baitzen	-9.78294
▁Hortaz	-9.78333
▁erantzuten	-9.78336
▁egitura	-9.78382
▁Jesusek	-9.78413
▁Hi	-9.78417
izatu	-9.78447
▁denik	-9.7845
▁arrisku	-9.78452
fitxategia	-9.78455
▁Ordu	-9.7849
▁gogoa	-9.78532
▁Gako	-9.78565
IK	-9.78623
▁Free	-9.78625
Nire	-9.78652
fe	-9.78738
xe	-9.78789
▁arima	-9.78807
ere	-9.78814
ru	-9.78815
▁eskaintza	-9.78834
▁gailu	-9.78878
▁kontzientzia	-9.78883
▁le	-9.78947
▁sor	-9.78967
▁diat	-9.78978
▁hauen	-9.79035
kuntza	-9.79047
▁sar	-9.7907
▁Man	-9.79085
▁denda	-9.79092
▁hasierako	-9.79122
▁Horiek	-9.79187
▁Europan	-9.79259
▁pertsonalizatua	-9.79288
izen	-9.79344
”,	-9.79373
▁partida	-9.79465
▁irakurtzeko	-9.79483
▁Hasiera	-9.79485
txi	-9.79501
ic	-9.79541
▁kasuan	-9.7955
▁Ho	-9.79643
va	-9.79716
▁euskaraz	-9.79726
▁adiskide	-9.79736
ismo	-9.79751
ila	-9.79766
▁erdia	-9.79813
▁Software	-9.79855
▁Dagoeneko	-9.79881
▁Maria	-9.79883
▁badakit	-9.79966
▁Kontuz	-9.79999
▁irekitzen	-9.80146
Baina	-9.80358
▁erabilitako	-9.80448
▁bilakatu	-9.80472
id	-9.80663
▁abiatu	-9.80696
▁Publiko	-9.80708
▁esatea	-9.80744
▁Gau	-9.80757
▁ilun	-9.80789
@	-9.80828
▁zaldun	-9.8087
bu	-9.80876
min	-9.80879
▁iritzia	-9.80937
▁nabarmen	-9.80953
▁baliabide	-9.80973
ir	-9.81007
▁Go	-9.81065
▁lasterketa	-9.81203
▁gogoratu	-9.81232
▁zan	-9.81233
▁sari	-9.81286
▁Errepublika	-9.81326
▁milaka	-9.81513
▁sexu	-9.81532
▁t	-9.81607
▁iritzi	-9.81667
au	-9.81688
▁beltz	-9.81709
ol	-9.81714
▁pentsa	-9.81731
ch	-9.81755
▁botoia	-9.81912
▁Hil	-9.8211
tatu	-9.82135
▁zeuk	-9.82187
▁opari	-9.82205
▁Berriro	-9.82248
▁abesti	-9.82273
▁diegu	-9.8253
▁+	-9.82587
▁eskualde	-9.82709
▁hara	-9.82758
▁hobetu	-9.82836
▁egoki	-9.82888
▁kartak	-9.82917
▁pertsonala	-9.82936
▁nonbait	-9.82959
▁berdinak	-9.8298
ola	-9.82994
▁David	-9.83
▁handik	-9.83003
▁tiro	-9.83064
▁bezero	-9.83102
▁itsas	-9.83105
zen	-9.83155
▁soldadu	-9.83266
▁Honela	-9.833
30	-9.83315
▁ezkutatu	-9.83448
▁ezagutza	-9.83453
ian	-9.83462
▁politikoa	-9.83527
?»	-9.8362
▁Beno	-9.83633
▁segurtasuna	-9.83638
▁hartuta	-9.83804
▁Fitxategia	-9.83816
gar	-9.83843
▁eguneroko	-9.83846
▁artista	-9.83972
▁Li	-9.83976
▁Bilaketa	-9.84143
rentzako	-9.84199
▁guztian	-9.84209
▁doan	-9.84222
▁digute	-9.84224
▁Hego	-9.84378
▁nondik	-9.84579
▁negar	-9.84591
com	-9.84605
▁atxilotu	-9.84621
▁zeu	-9.84639
▁Leku	-9.84656
▁Testu	-9.84708
▁ahots	-9.84709
▁Egunero	-9.84767
▁nintzela	-9.84891
▁Ikusten	-9.84904
▁ekin	-9.84908
▁26	-9.84953
ron	-9.84955
alabak	-9.85005
▁at	-9.85065
▁27	-9.85122
▁badituzu	-9.85165
▁zerrendan	-9.85217
▁beranduago	-9.85237
▁Neska	-9.85368
▁gorabehera	-9.85394
▁eskuak	-9.85507
▁barnean	-9.85509
▁bana	-9.85529
▁biztanle	-9.85551
▁Denok	-9.85582
▁Jokoa	-9.85602
▁hobetzeko	-9.85655
▁2015	-9.85661
▁webgunea	-9.85925
▁Bizi	-9.85949
▁Argazki	-9.85964
▁60	-9.85972
▁altuera	-9.85994
▁geruza	-9.8601
▁bandera	-9.86011
▁onenak	-9.86012
▁erronka	-9.86091
11	-9.86129
▁banku	-9.86167
▁zaituzte	-9.86181
▁eskerrik	-9.86239
▁azpi	-9.86264
ua	-9.86279
▁Zenbait	-9.8632
▁hazten	-9.8632
▁batzuekin	-9.86337
▁ber	-9.86505
ster	-9.86575
▁Nazio	-9.86659
▁bidaltzeko	-9.86707
á	-9.86812
▁desberdin	-9.86841
▁Balio	-9.86847
dako	-9.86868
▁aitaren	-9.86945
].	-9.87124
▁guztira	-9.87264
▁badaude	-9.87336
▁→	-9.87358
▁jasan	-9.87499
▁kezkatu	-9.87535
▁Familia	-9.87538
▁mende	-9.87577
▁sorta	-9.87609
▁desberdina	-9.87617
▁kontrako	-9.87661
kor	-9.87681
rei	-9.87776
ion	-9.87816
zo	-9.87851
▁zabal	-9.87865
dia	-9.8787
▁partekatu	-9.8787
▁gutun	-9.87878
▁ar	-9.87899
▁hobespenak	-9.87914
▁menu	-9.87959
▁gertaera	-9.88049
▁aitak	-9.88085
EN	-9.88086
xi	-9.88147
▁buruzkoa	-9.88149
▁$	-9.88193
▁egiaztatu	-9.88244
▁zor	-9.88311
os	-9.88453
gintza	-9.88459
ric	-9.88523
ut	-9.88541
tikoa	-9.8862
qui	-9.88725
▁ageri	-9.88729
▁martxan	-9.88729
▁bertako	-9.8892
▁So	-9.88958
▁gozatu	-9.89062
▁bereziak	-9.89136
▁argazkia	-9.89214
gana	-9.89224
▁gorri	-9.89255
▁garbitu	-9.89296
▁jartzeko	-9.89301
▁nazazu	-9.89328
▁itxita	-9.89349
▁hauxe	-9.89353
▁erreferentzia	-9.89367
▁Atzeko	-9.89436
▁makina	-9.8944
▁mantendu	-9.89442
'(	-9.89446
▁Zin	-9.89527
▁ohiko	-9.89547
▁To	-9.89555
▁Jarri	-9.8957
garriak	-9.89637
▁Ha	-9.89697
▁ahalik	-9.89716
▁garrantzitsu	-9.89837
▁Berriz	-9.8987
▁elementuak	-9.89872
▁arma	-9.89891
▁laztana	-9.89905
▁eskura	-9.89932
▁etxetik	-9.89943
▁ezazue	-9.89974
▁urtero	-9.89994
▁Zuek	-9.90045
▁gaztelu	-9.90119
▁Es	-9.90166
▁se	-9.90243
▁Itxi	-9.90371
▁arropa	-9.90419
▁ukitu	-9.90487
▁zaizkit	-9.90524
▁3.	-9.9061
▁geratuko	-9.90624
▁Horrelako	-9.90684
▁esanez	-9.9078
▁zidaten	-9.90806
▁Datu	-9.90928
nik	-9.90964
▁Haur	-9.91022
▁zalantzarik	-9.91051
▁botere	-9.91069
▁gustatuko	-9.91098
▁En	-9.91107
▁gaitasuna	-9.9111
▁otoitz	-9.91154
arazi	-9.91195
▁bakea	-9.91219
▁gaixotasun	-9.91254
▁taula	-9.91276
▁Bo	-9.91287
▁maiz	-9.91318
▁Bideo	-9.91334
▁Te	-9.914
▁·	-9.91454
▁sinetsi	-9.9149
▁berreskuratu	-9.91602
▁finean	-9.91621
▁WEB	-9.91632
▁konpondu	-9.91685
▁Sal	-9.91727
▁irribarre	-9.91857
tal	-9.91864
▁berari	-9.91884
▁hautsi	-9.91897
▁Modu	-9.91983
▁bisitatu	-9.92014
▁emakumea	-9.92067
▁Gizarte	-9.92238
sek	-9.92248
▁Ekintza	-9.92264
he	-9.92285
▁zuenean	-9.92324
▁eskerrak	-9.92394
▁klase	-9.92394
»,	-9.92454
ea	-9.92454
▁gordetzeko	-9.92465
gin	-9.92543
▁natural	-9.92555
tekla	-9.92558
▁Bidali	-9.9262
▁abiadura	-9.92629
▁korrika	-9.92655
▁neuk	-9.92739
▁hildako	-9.92781
dar	-9.92807
▁zientzia	-9.92848
▁gogoko	-9.92891
▁prezioa	-9.92891
▁Errege	-9.92939
▁urtetik	-9.93041
▁autoa	-9.93042
▁aldatzea	-9.93048
txoa	-9.93099
▁guretzat	-9.93123
turik	-9.93147
▁moduz	-9.93157
▁garapen	-9.93173
mar	-9.93182
▁zaitezke	-9.93192
am	-9.93202
▁txakur	-9.93215
▁txanda	-9.9328
▁Hartu	-9.93282
▁II	-9.93345
mota	-9.9337
▁erregea	-9.93423
▁kezka	-9.93425
▁=	-9.93431
▁2008	-9.93487
ner	-9.93497
▁idazle	-9.93597
▁beharrezko	-9.93601
▁hotz	-9.93645
▁propioa	-9.93672
▁kate	-9.93726
▁Zerrenda	-9.93785
▁izaki	-9.93946
▁askatu	-9.93963
su	-9.93984
▁elkartu	-9.93998
▁piztu	-9.94072
▁ikustera	-9.94116
▁ekonomia	-9.94138
▁jakiteko	-9.94226
▁bihotz	-9.94236
▁erakusteko	-9.94247
▁amaitzen	-9.94252
▁errore	-9.94289
▁elektronikoa	-9.94364
▁begirada	-9.94445
▁eseri	-9.94539
ile	-9.94551
▁amaieran	-9.94553
▁elkarren	-9.94742
▁Guztira	-9.9481
▁diskoa	-9.94824
▁Facebook	-9.94856
▁Galdetu	-9.94894
▁dizute	-9.94968
▁haiz	-9.95079
▁aurrez	-9.95132
▁so	-9.95143
xa	-9.95168
fa	-9.95268
KO	-9.95346
▁aplikazioak	-9.95348
▁bir	-9.95378
agatik	-9.95378
▁Halaber	-9.95568
▁janaria	-9.9559
▁aire	-9.9562
beste	-9.95645
▁Afrika	-9.95678
▁horretatik	-9.9569
▁webgune	-9.95766
▁Pe	-9.95801
▁zehazki	-9.95865
▁babesa	-9.9591
▁industria	-9.95936
txu	-9.95955
▁duelako	-9.9599
▁planoaren	-9.96012
bar	-9.96014
▁Za	-9.96066
▁moduko	-9.96085
0	-9.96088
▁funtzio	-9.96097
mp	-9.96116
mendu	-9.9616
▁lehiaketa	-9.96288
▁dezan	-9.96294
▁Nahiz	-9.963
▁eraikin	-9.96308
tr	-9.96319
▁ikuspegia	-9.96321
▁zaitugu	-9.96361
▁agertuko	-9.96376
▁zaitezte	-9.96479
▁zoaz	-9.96527
▁Pantaila	-9.96567
▁oraintxe	-9.96575
▁botatzen	-9.966
▁istorioa	-9.96605
▁posizioa	-9.96605
tzerakoan	-9.96608
tek	-9.96689
▁beharrean	-9.96711
▁uztea	-9.96757
▁instalatu	-9.96797
!”	-9.96852
har	-9.9687
▁)	-9.96916
▁Per	-9.96918
▁laguna	-9.96941
▁izugarri	-9.96991
▁dion	-9.97126
):	-9.97137
▁zerbitzaria	-9.97171
▁topatu	-9.97184
▁ikasteko	-9.97205
▁bestea	-9.97258
▁zuzendu	-9.97297
▁kalitatea	-9.97309
▁he	-9.97386
▁babestu	-9.97458
erre	-9.97484
▁Osasun	-9.97498
action	-9.97559
▁mapa	-9.9756
zia	-9.97606
lin	-9.97608
▁kokalekua	-9.97681
▁balu	-9.97743
gabe	-9.9775
!!!	-9.97808
▁On	-9.97857
▁erabiltzaileak	-9.97885
▁BERTSIO	-9.97894
▁librea	-9.97939
▁Denak	-9.97974
▁bizitzeko	-9.9798
▁zitekeen	-9.98014
▁bizitzako	-9.98109
▁aske	-9.98239
tatik	-9.98278
▁bizitzaren	-9.98332
▁exekutatu	-9.98358
▁for	-9.98372
▁and	-9.98391
▁Er	-9.98581
▁orria	-9.98712
▁odol	-9.98714
▁edaten	-9.98856
▁Beharbada	-9.9887
▁elementua	-9.98904
▁urtea	-9.99001
▁edota	-9.99023
▁Zi	-9.9904
▁eguzki	-9.99195
▁teoria	-9.99286
▁taldearen	-9.99321
▁Jarraitu	-9.9942
▁normala	-9.99472
ine	-9.99522
▁mugitzeko	-9.99578
▁Eskola	-9.99647
▁Zertan	-9.99648
▁naute	-9.99679
▁sortutako	-9.9969
▁Atzo	-9.99751
▁legeak	-9.99757
▁daukate	-9.99772
▁dama	-9.99786
▁gonbidatu	-9.99819
▁diet	-9.99938
▁zalantza	-9.99952
▁zaharrak	-9.99982
▁zoragarria	-10
▁Tra	-10.0002
▁bazen	-10.0007
▁ordaintzen	-10.0008
▁Aldaketa	-10.0009
▁jabe	-10.0009
▁eskuetan	-10.0011
▁gustura	-10.0014
▁elkarri	-10.0014
▁preso	-10.0014
▁aldatuko	-10.0016
▁aitortu	-10.0022
▁haserre	-10.0022
▁Ezer	-10.0027
▁boterea	-10.0035
vi	-10.0045
▁Sakatu	-10.0047
▁Hautatutako	-10.0048
▁antzeztutako	-10.005
▁iraultza	-10.0057
▁Arrazoi	-10.006
▁umeak	-10.0063
▁zuzendari	-10.0064
▁kutxa	-10.0069
▁DOKUMENTUA	-10.007
▁daitezkeen	-10.0071
tzak	-10.0079
▁gal	-10.0089
▁aterako	-10.009
▁jardun	-10.0091
▁tarte	-10.0092
▁Posta	-10.0094
▁baitzuen	-10.0096
agoak	-10.0098
▁lauki	-10.0108
▁larri	-10.0111
▁Zerbitzu	-10.0113
▁Karpeta	-10.0114
▁egoitza	-10.0128
▁propietateak	-10.013
▁Mahai	-10.013
▁oraingoan	-10.0132
▁gehienetan	-10.0141
▁idazteko	-10.0141
▁edukitzea	-10.0143
▁bizitzen	-10.0144
▁oihu	-10.0145
▁galduko	-10.0148
▁zutabe	-10.016
▁uko	-10.0161
▁zutabea	-10.0162
▁eutsi	-10.0164
▁ukatu	-10.0165
▁na	-10.0166
ban	-10.0172
▁Haiek	-10.0172
Zergatik	-10.0174
▁zentzu	-10.0176
▁Bakarrik	-10.018
▁arazorik	-10.0181
▁Ad	-10.0182
Ma	-10.0183
▁kamera	-10.0185
▁Esku	-10.0187
▁kar	-10.0187
ida	-10.0189
▁Se	-10.019
▁emakumeen	-10.0194
▁formatua	-10.0196
▁irabazten	-10.0198
▁Energia	-10.0199
▁re	-10.0206
ff	-10.0207
des	-10.0211
▁konexioa	-10.0211
▁Fi	-10.0212
ci	-10.0221
▁honetara	-10.0225
lako	-10.0228
▁kirol	-10.0228
▁Batez	-10.023
▁bultzatu	-10.0248
▁saiatuko	-10.025
▁Hura	-10.0251
▁NIK	-10.0251
▁aukerarik	-10.0253
▁arauak	-10.0258
▁murriztu	-10.0259
▁baitira	-10.0259
▁Ene	-10.0263
50	-10.0264
▁ospatzen	-10.0269
RA	-10.027
zki	-10.0274
▁handiz	-10.0274
▁Ri	-10.0278
▁lekuan	-10.0278
▁Goazen	-10.028
▁Baita	-10.0286
▁larria	-10.0287
sia	-10.0289
▁eska	-10.0312
▁Askotan	-10.0317
▁hautapena	-10.032
▁Normalean	-10.0322
gandik	-10.0324
▁kalitate	-10.0334
▁hots	-10.0336
▁belaunaldi	-10.0343
▁mina	-10.0344
ler	-10.0349
▁errealitate	-10.0354
▁dituztela	-10.0356
▁irekita	-10.036
▁zaion	-10.0362
▁zatia	-10.0364
▁gehienek	-10.0364
▁metro	-10.0365
▁%(	-10.0367
▁Jon	-10.0386
▁29	-10.0395
▁Juan	-10.0397
▁mugak	-10.0404
▁euskara	-10.0407
▁paper	-10.0409
▁emazte	-10.0421
▁datozen	-10.0424
▁Hasieran	-10.0424
▁europar	-10.0425
▁ekarriko	-10.0427
▁duenak	-10.0428
▁dutena	-10.0432
▁Menu	-10.0433
▁erabiltzailea	-10.0434
▁irekitzeko	-10.0437
▁Martin	-10.0439
ard	-10.044
▁bereko	-10.0453
▁Plan	-10.0456
?».	-10.0457
▁ezkerreko	-10.0459
▁Zeren	-10.046
▁jabetza	-10.046
▁Interneten	-10.0466
▁maitasun	-10.0473
▁oin	-10.0474
um	-10.0475
–	-10.0477
▁goiko	-10.0479
▁Mi	-10.0481
▁kodea	-10.0481
}	-10.0483
itz	-10.0485
▁harri	-10.0489
▁urruneko	-10.0497
▁datoz	-10.0504
▁soinu	-10.0507
▁erro	-10.0512
▁babesteko	-10.053
▁sa	-10.0531
▁Berria	-10.0532
▁ekitaldi	-10.0533
▁kontrola	-10.0533
▁bo	-10.0534
▁odola	-10.0535
▁erakusketa	-10.0537
▁ohartu	-10.0542
Ni	-10.0545
tuz	-10.0547
▁Norbaitek	-10.0547
▁kontaktu	-10.0552
▁errua	-10.0553
▁diete	-10.0554
▁Haien	-10.0555
zkoa	-10.0556
korra	-10.0558
▁baliozko	-10.0559
▁dolar	-10.0562
▁2011	-10.0566
rio	-10.0568
▁denek	-10.0576
▁itzali	-10.0576
▁gazteak	-10.0579
tera	-10.0591
▁koloreak	-10.0593
ña	-10.0595
▁datuen	-10.0598
▁lor	-10.0601
▁deus	-10.0607
▁gaurko	-10.0624
▁Jendeak	-10.0636
▁gatazka	-10.0647
les	-10.0647
▁gaixo	-10.0653
bel	-10.0654
▁31	-10.0664
▁;	-10.0665
▁gaua	-10.0666
▁sinadura	-10.0668
▁botoian	-10.0672
▁Dirua	-10.0673
▁es	-10.0674
▁hilko	-10.0674
▁bilduma	-10.0674
▁Aurten	-10.0675
▁zuena	-10.0677
▁konfigurazioa	-10.068
▁ametsa	-10.0687
Nik	-10.0687
▁Ala	-10.0688
▁suntsitu	-10.0691
▁Ezagutzen	-10.0693
▁jainko	-10.0698
▁2009	-10.0698
▁lurrean	-10.0698
ita	-10.0699
▁lehendik	-10.0702
▁baditu	-10.0703
▁Hezkuntza	-10.071
rrak	-10.0711
▁lotu	-10.0713
etariko	-10.0714
▁harremana	-10.0715
▁edozer	-10.0719
▁noa	-10.0722
▁osasuna	-10.0723
▁Paul	-10.0728
▁finantza	-10.0732
▁garrantzitsuak	-10.0733
▁zinema	-10.0735
▁antza	-10.0737
▁area	-10.074
▁altxatu	-10.0748
▁Ja	-10.075
▁erabilgarria	-10.075
▁serio	-10.075
▁gorria	-10.0757
▁antzekoa	-10.0758
▁haurra	-10.076
gen	-10.0761
▁eskuliburua	-10.0764
▁banaketa	-10.0768
▁ekonomiko	-10.0768
▁Europar	-10.0769
▁2007	-10.077
▁eten	-10.078
▁azkenik	-10.078
▁baztertu	-10.0782
▁Zazpi	-10.0785
▁lotuta	-10.0786
len	-10.0787
▁Ikerketa	-10.0794
Al	-10.0797
▁Egiaztatu	-10.0802
mu	-10.0803
▁goian	-10.0804
▁xehetasun	-10.0808
▁enpresak	-10.0812
▁Itzuli	-10.0812
ll	-10.0815
ldi	-10.0819
▁Sentitzen	-10.082
▁esnatu	-10.0822
▁babes	-10.0822
▁zertarako	-10.0824
xka	-10.0826
▁Diru	-10.0826
▁zabiltza	-10.0828
▁atsegina	-10.0834
▁ikastetxe	-10.0842
▁dezaten	-10.0845
▁arriskua	-10.0849
goak	-10.0852
▁2018	-10.0853
▁pertsonen	-10.0859
▁Ahal	-10.0859
▁galderak	-10.0862
▁au	-10.0865
▁konpainia	-10.0865
▁izandako	-10.0865
▁Nere	-10.0866
▁zaintzen	-10.0868
▁Bistaratu	-10.087
▁harritu	-10.0871
▁Ados	-10.0876
▁Erdi	-10.0888
▁mantentzen	-10.0892
▁ahalegin	-10.0894
▁koadro	-10.0895
▁Horrez	-10.0895
▁Segurtasun	-10.0899
▁2010	-10.0901
maila	-10.0904
uz	-10.0908
▁prezio	-10.0908
▁Hiri	-10.0913
gune	-10.0921
▁salbatu	-10.0925
▁Berdin	-10.0925
▁adierazpen	-10.0932
▁Aurrera	-10.0939
▁komunikazio	-10.0941
▁Gogoratu	-10.0947
▁tira	-10.0948
data	-10.095
itate	-10.0953
▁Kar	-10.0954
▁Vi	-10.0955
▁2013	-10.0956
▁kreditu	-10.0961
▁ha	-10.0963
▁mo	-10.0965
▁badaki	-10.097
▁adi	-10.097
▁azalduko	-10.0979
▁hirian	-10.098
15	-10.098
duna	-10.0982
ng	-10.0983
▁Historia	-10.0983
oak	-10.0986
▁ehun	-10.0987
▁Ab	-10.0996
▁{	-10.1003
▁peoi	-10.1013
▁gaztea	-10.1015
▁!	-10.1016
▁bestera	-10.1023
ondo	-10.1027
▁ekainaren	-10.1028
▁Berri	-10.1038
▁zauritu	-10.1056
▁zelako	-10.1058
▁Ku	-10.1059
▁ab	-10.1061
▁Lasai	-10.1061
▁pribatu	-10.1065
▁Arazo	-10.1066
▁Kristo	-10.1067
▁Elkarrizketa	-10.1067
▁post	-10.1067
▁Frantzia	-10.1072
▁gehiagotan	-10.1075
▁ohitura	-10.1076
▁kontrolatzen	-10.1091
▁guraso	-10.1093
20	-10.1098
▁adin	-10.1099
▁sartzea	-10.11
▁esanda	-10.1101
mon	-10.1101
▁metodo	-10.1106
▁garrantzi	-10.1111
pro	-10.1112
▁Ga	-10.1114
▁ezpata	-10.1126
▁distantzia	-10.1127
▁2017	-10.1129
▁kentzen	-10.113
▁eraikitzen	-10.1135
op	-10.1136
gailu	-10.1138
▁Jendea	-10.114
▁uharte	-10.114
▁esaldi	-10.114
▁itzultzeko	-10.1154
▁polizia	-10.1154
▁funtzioak	-10.1165
▁Zientzia	-10.1169
▁guztietako	-10.1175
ski	-10.1196
▁Jakina	-10.1196
▁normal	-10.1206
buru	-10.1206
▁Horietako	-10.1207
▁gogo	-10.1208
rera	-10.1212
▁Zuri	-10.1217
name	-10.1221
▁beheko	-10.1223
AK	-10.1224
▁egunkari	-10.1225
▁titulua	-10.1232
▁Mikel	-10.1234
ver	-10.1237
▁bideoa	-10.1237
aldia	-10.1239
▁irudiaren	-10.1244
▁gurasoak	-10.1246
▁Ro	-10.125
▁Si	-10.1253
▁Mu	-10.1259
▁Etxean	-10.1263
retik	-10.1266
▁aurten	-10.1268
▁harekin	-10.127
▁komunitate	-10.1273
▁errepikatu	-10.1274
▁ulertzeko	-10.1277
▁prestakuntza	-10.1282
▁Con	-10.1283
▁neu	-10.1287
▁moztu	-10.1287
rengatik	-10.1288
▁orokorra	-10.1292
▁berez	-10.1292
▁Ca	-10.1293
▁horretara	-10.1295
▁zioen	-10.1297
▁Etxeko	-10.1298
▁osagai	-10.1299
▁Asia	-10.1303
zer	-10.1304
muga	-10.1312
▁ideiak	-10.1312
ite	-10.1313
▁Esate	-10.1314
▁Bidaia	-10.1319
▁telefonoa	-10.132
▁ondorioak	-10.1321
▁dau	-10.1321
▁zitzaien	-10.1323
▁zulo	-10.1325
tasunez	-10.1328
hu	-10.1328
raren	-10.1334
▁etsai	-10.1334
▁errenkada	-10.1336
▁ofizial	-10.1337
▁York	-10.134
▁amaren	-10.1344
Ar	-10.1348
▁duzuen	-10.135
▁jasotzeko	-10.1352
mena	-10.1353
▁Halako	-10.1353
▁kanal	-10.1361
ingo	-10.1364
▁oinarritutako	-10.1365
▁sektore	-10.1367
▁pentsamendu	-10.1368
▁Handik	-10.1369
ide	-10.137
▁helburuak	-10.1371
mapa	-10.1371
▁bizitzea	-10.1373
▁Ezagutu	-10.1375
dik	-10.1376
▁inori	-10.1379
▁erortzen	-10.138
▁bazkide	-10.1381
▁Po	-10.1383
▁lukete	-10.1392
tatzen	-10.1395
▁janari	-10.1399
▁ezagutzeko	-10.1399
▁erregina	-10.1399
tin	-10.1417
▁Kopiatu	-10.1419
▁Israel	-10.1421
▁Oraingoan	-10.1421
izazioa	-10.1423
▁Artikulu	-10.1423
▁Tom	-10.1426
▁justizia	-10.1437
▁cookie	-10.1438
▁pertsonalak	-10.144
ikoa	-10.1441
▁beteta	-10.1441
hor	-10.1444
rri	-10.1444
▁uzteko	-10.1448
▁2012	-10.1449
▁Hamar	-10.1451
▁komandoa	-10.1452
▁Ohar	-10.1453
▁dokumentua	-10.1458
▁Car	-10.1461
nda	-10.1463
▁burutu	-10.1463
▁euskal	-10.1465
▁sartuko	-10.1465
zue	-10.1467
Hau	-10.1469
▁oinarritzen	-10.1474
▁aho	-10.1475
izazio	-10.1477
▁bidaliko	-10.1478
▁iritsiko	-10.148
▁erlijio	-10.1482
▁handitu	-10.1483
▁Min	-10.1483
▁Don	-10.1492
▁bistaratzen	-10.1496
▁errazagoa	-10.15
▁istripu	-10.1505
▁horretako	-10.1505
dio	-10.1507
▁Lege	-10.1507
▁oharrak	-10.151
▁za	-10.1512
▁Berehala	-10.1517
fitxategi	-10.1526
▁beroa	-10.153
Nola	-10.153
Bi	-10.1533
▁beraiek	-10.1537
▁kode	-10.1537
▁aktibo	-10.1539
▁estiloa	-10.154
▁egokitu	-10.1546
▁bikain	-10.1549
▁kokatzen	-10.155
ley	-10.1552
▁lortzea	-10.1553
▁andrea	-10.1555
net	-10.1557
ntzi	-10.1562
ben	-10.1563
▁horrelakorik	-10.1568
tura	-10.1568
▁arrunta	-10.1569
▁2014	-10.1577
▁betetzeko	-10.1578
▁urtebete	-10.1579
▁txarrak	-10.1581
▁Produktu	-10.1582
▁Nora	-10.1583
▁gida	-10.1586
▁Letra	-10.1587
▁audio	-10.1595
tra	-10.1597
▁jakinarazi	-10.1598
ntz	-10.1599
▁handirik	-10.1606
▁lekuko	-10.1607
▁hautatzeko	-10.1608
▁As	-10.161
▁Ju	-10.1611
▁Batzuk	-10.1613
▁larrialdi	-10.1613
tasunak	-10.1614
▁festa	-10.1627
▁Tu	-10.164
ekiko	-10.1642
ien	-10.1644
unit	-10.1645
▁gorroto	-10.1657
▁80	-10.1662
▁barik	-10.1667
▁Mal	-10.167
▁Disko	-10.1673
12	-10.1677
▁barra	-10.1678
▁zenuten	-10.1687
katzen	-10.1689
ec	-10.169
▁multzo	-10.1691
▁Gogoan	-10.1703
▁90	-10.1707
▁pieza	-10.1712
▁bizkor	-10.1714
▁mi	-10.1718
▁ipini	-10.1719
▁kudeaketa	-10.1722
▁Mendebaldeko	-10.1725
▁mugimendua	-10.1728
▁Aitak	-10.1736
▁Teknologia	-10.1738
▁jarraitzeko	-10.1738
▁segundo	-10.1743
▁eremua	-10.1747
▁Zenbaki	-10.1748
▁konfigurazio	-10.1748
▁Gutxienez	-10.175
▁Ameriketako	-10.1756
▁nintzateke	-10.1763
▁bikote	-10.1763
▁eserita	-10.1764
▁St	-10.1768
▁u	-10.1772
▁ezetz	-10.1773
▁hortik	-10.1775
▁grabatu	-10.1778
▁Tresna	-10.178
im	-10.1783
▁2005	-10.1788
▁eraikuntza	-10.179
▁independentzia	-10.1792
▁kategoria	-10.1793
azio	-10.1796
▁galtzea	-10.1797
▁Cor	-10.1798
▁ziurtatu	-10.18
▁Etiketa	-10.1804
▁ga	-10.1805
▁go	-10.1812
itza	-10.1814
▁label	-10.1826
tch	-10.1827
▁ai	-10.1828
▁izatera	-10.1837
fo	-10.1837
▁ekartzen	-10.1838
razi	-10.1841
ker	-10.1841
▁For	-10.1847
▁Hara	-10.1851
▁IDa	-10.1851
▁baimenik	-10.1852
▁er	-10.1854
▁luzera	-10.1858
▁bidezko	-10.1863
▁froga	-10.1866
ov	-10.1869
▁2016	-10.187
ot	-10.1873
▁nekien	-10.1875
▁urterekin	-10.1883
▁zeregin	-10.1883
▁Zuzendaria	-10.1887
▁bait	-10.189
▁Buru	-10.1892
▁okerra	-10.1897
zale	-10.1897
▁irakatsi	-10.1902
▁beldurrik	-10.1905
▁pelikula	-10.1913
▁konektatu	-10.1919
▁guri	-10.1919
▁leihoaren	-10.1921
▁arriskuan	-10.1923
▁aholku	-10.1924
▁ekintzak	-10.1926
▁landu	-10.1937
▁tren	-10.194
▁Inor	-10.1945
RI	-10.1951
▁txori	-10.1951
▁taldeko	-10.1952
▁ondoko	-10.1956
iar	-10.1957
▁aukeratzen	-10.1962
▁Benetako	-10.1965
▁ezarritako	-10.1973
▁etorkizunean	-10.1973
▁Atzera	-10.1974
▁arrunt	-10.1977
▁Sarrera	-10.198
▁kalean	-10.1981
riak	-10.1986
▁jarraipena	-10.1988
▁azkarra	-10.1989
▁direktorio	-10.1996
▁eskema	-10.1996
▁Bar	-10.2009
▁dagoena	-10.2009
▁erabakitzen	-10.201
fer	-10.2014
▁aktore	-10.2019
▁herrian	-10.202
▁egunez	-10.2025
▁herritar	-10.2026
tarrak	-10.2027
▁txikiagoa	-10.2032
▁Nolakoa	-10.2036
▁proposatu	-10.204
berri	-10.204
▁profila	-10.2045
19	-10.2049
▁bilatzeko	-10.2054
▁kristau	-10.2059
▁ibilbide	-10.206
▁honetatik	-10.2065
▁izugarria	-10.2072
▁hegazkin	-10.2072
▁egunak	-10.2074
▁aztertzen	-10.2077
tion	-10.2079
ska	-10.2095
jokoa	-10.2097
▁betirako	-10.2098
▁erosten	-10.21
▁Etorri	-10.2106
▁Gainerako	-10.2108
▁gakoak	-10.2108
▁George	-10.2112
▁etorkizuneko	-10.2118
▁jokoak	-10.2122
tsi	-10.2123
▁gehitzeko	-10.2128
mer	-10.2132
▁jolasten	-10.2137
▁egiazko	-10.214
▁Alderdi	-10.2141
▁badakigu	-10.2142
▁izenburua	-10.215
bai	-10.215
▁Politika	-10.215
▁sin	-10.2155
▁klima	-10.2157
▁senarra	-10.2167
▁haiekin	-10.2168
gaz	-10.217
▁balioak	-10.2171
▁lore	-10.2176
▁gutxieneko	-10.2178
▁iragarri	-10.2179
▁Mon	-10.2183
▁h	-10.2188
▁elektroniko	-10.2192
▁sendo	-10.2194
▁lirateke	-10.2195
▁plataforma	-10.2206
▁Kontua	-10.2207
▁Aldi	-10.2208
line	-10.2208
▁kgm	-10.2212
▁probatu	-10.2225
▁lehenik	-10.2231
▁artikulua	-10.2232
▁lantzen	-10.2233
▁ikusita	-10.2235
▁Bu	-10.2235
▁ateratzeko	-10.2243
▁baietz	-10.2248
▁akats	-10.2262
▁pre	-10.2266
▁kanpaina	-10.2268
▁zabaltzen	-10.227
wa	-10.2272
▁jolas	-10.2273
▁35	-10.2274
keten	-10.2274
▁Gela	-10.2276
▁Aplikazio	-10.2277
alaba	-10.2286
▁Ume	-10.2289
▁Robert	-10.2293
▁banu	-10.2293
▁Kate	-10.2294
▁Pu	-10.2297
▁Ondorioz	-10.2297
▁Sei	-10.2298
▁irauten	-10.2298
▁Ti	-10.2302
▁nahastu	-10.2303
▁epe	-10.2311
▁seinale	-10.2318
leku	-10.2337
▁gizakiak	-10.2339
▁bederatzi	-10.2345
datu	-10.2347
▁Eztabaida	-10.2347
▁gas	-10.2353
▁mintzatu	-10.2357
▁goaz	-10.2359
▁DVD	-10.2362
uta	-10.2366
Hori	-10.2366
▁sistemaren	-10.2374
▁eguneratu	-10.2384
ham	-10.2386
▁jaun	-10.2386
▁Testua	-10.2388
▁Batuetan	-10.2388
▁dituena	-10.2393
▁laugarren	-10.2396
atzeko	-10.2396
▁exekutatzen	-10.2397
▁xehetasunak	-10.2397
Gure	-10.24
zten	-10.24
▁idaztea	-10.2403
▁Gauzak	-10.2405
▁Hauxe	-10.2409
▁Elementu	-10.2409
par	-10.2409
▁bistaratu	-10.2417
dy	-10.2419
tela	-10.2426
▁Badirudi	-10.2429
▁aurkitzeko	-10.243
▁200	-10.2435
▁automatikoa	-10.2438
▁Espainian	-10.2439
▁interesa	-10.2441
▁Jose	-10.2443
▁semeak	-10.2446
▁do	-10.2446
▁Gar	-10.2448
▁frogatu	-10.2448
▁kale	-10.245
▁eskutik	-10.2451
▁lotsa	-10.2451
▁landare	-10.2453
▁Jesusen	-10.246
tro	-10.246
▁ezberdina	-10.2462
40	-10.2463
▁arrain	-10.2472
▁gailua	-10.2472
▁ibiltzea	-10.2477
▁pista	-10.2494
▁gizakia	-10.2496
▁errealitatea	-10.2502
▁borrokatu	-10.2502
▁ibilbidea	-10.2503
▁bistaratzeko	-10.2504
ratzen	-10.2505
▁70	-10.2508
Oso	-10.2508
engandik	-10.2524
▁Deitu	-10.2529
▁Zatoz	-10.2529
▁baduzue	-10.2534
▁laburra	-10.2535
▁diseinua	-10.2536
▁jaunak	-10.2536
▁zieten	-10.2537
▁armada	-10.2539
▁maiatzaren	-10.254
▁Film	-10.2541
▁Semea	-10.2543
▁pakete	-10.2545
▁elikagai	-10.2547
▁berbera	-10.2557
bera	-10.2558
▁Sar	-10.256
▁Mundua	-10.2563
▁umea	-10.2567
▁jasotako	-10.2574
▁halaber	-10.2575
▁2004	-10.2578
▁luzatu	-10.258
▁erregistratu	-10.2582
▁Tamaina	-10.2584
▁zizkion	-10.2585
▁eskatuko	-10.2586
▁esaterako	-10.2591
▁Izenburua	-10.2593
ketak	-10.2594
Zu	-10.2599
▁euskaldun	-10.26
▁irakurtzea	-10.2603
▁Baliteke	-10.2604
AN	-10.2604
tarra	-10.2608
egin	-10.2614
▁pertsonal	-10.2618
bidea	-10.2626
▁proposamen	-10.2628
▁Zeintzuk	-10.2631
▁erosteko	-10.2631
▁ne	-10.2634
▁nabil	-10.2637
▁babesten	-10.2639
▁ordainketa	-10.2647
▁horma	-10.2653
▁kilometro	-10.2656
▁bukatzen	-10.2658
tur	-10.266
▁kopiatu	-10.2663
▁horiei	-10.2663
▁dot	-10.2664
lar	-10.2668
▁ezkutatzen	-10.2672
▁hire	-10.2673
▁esate	-10.2674
▁Maila	-10.2674
sto	-10.2675
▁Mugimendu	-10.2678
▁Biak	-10.2678
▁geldi	-10.2679
▁Txina	-10.2681
▁Itxaron	-10.2685
▁Seguru	-10.269
bor	-10.269
▁Txinako	-10.2693
▁berriaren	-10.2698
▁plugina	-10.2699
▁Frantzian	-10.2706
rrek	-10.2707
▁Guztiak	-10.2708
dra	-10.271
In	-10.2716
tzan	-10.2717
tzeak	-10.272
▁itsu	-10.2721
ld	-10.2724
▁bizikleta	-10.2725
ist	-10.2725
▁Zertarako	-10.2726
▁bolumena	-10.2729
▁y	-10.2733
▁Hu	-10.2736
▁estilo	-10.2737
▁Ideia	-10.2737
▁miniaplikazioa	-10.2743
▁fabrika	-10.2744
▁sortuko	-10.2749
▁2006	-10.2749
▁panela	-10.2752
▁gaitasun	-10.2754
▁alfil	-10.2755
▁ira	-10.276
▁Zorionez	-10.2761
▁Oinarrizko	-10.2765
▁zehatza	-10.2765
▁dibertigarria	-10.2765
▁aurtengo	-10.2766
▁laguntzea	-10.2768
▁dakite	-10.2768
ate	-10.2769
gabea	-10.277
▁txartel	-10.2772
▁Lerro	-10.2772
▁proiektuak	-10.2779
▁Goiko	-10.2781
▁Eliza	-10.2784
▁funtzioa	-10.2784
▁estatubatuar	-10.2785
▁positiboa	-10.2787
▁konpromisoa	-10.2788
Zure	-10.2789
▁diseinu	-10.2799
▁antzera	-10.2804
▁Biblia	-10.2812
▁Arte	-10.2813
▁Afrikako	-10.2818
▁webgunean	-10.2819
▁abenduaren	-10.2823
▁saihestu	-10.2827
▁Santa	-10.2828
▁lanaren	-10.2835
▁unitate	-10.284
han	-10.2842
lak	-10.2843
▁kontsulta	-10.2844
▁herriko	-10.2851
▁Fa	-10.2854
▁kudeatzeko	-10.2856
peko	-10.2857
▁hobetzen	-10.2859
natu	-10.2864
▁Du	-10.2865
▁handiago	-10.2866
▁obra	-10.2872
▁ekoizpen	-10.2873
▁ahala	-10.2875
ya	-10.2876
▁Kontaktu	-10.2878
▁Foundation	-10.2881
▁dakar	-10.2881
▁azkeneko	-10.2885
▁HTML	-10.2892
▁hilda	-10.2897
▁antzinako	-10.2898
▁Bete	-10.2901
▁kontuz	-10.2906
▁presentzia	-10.2912
▁dioten	-10.2912
▁txapelketa	-10.2915
ers	-10.2916
ika	-10.2919
▁sarritan	-10.2919
▁ekonomikoa	-10.292
tore	-10.2923
▁2019	-10.2925
▁n	-10.2928
ji	-10.2939
▁anai	-10.294
lon	-10.2941
▁urruti	-10.2944
talde	-10.2946
▁etxebizitza	-10.2948
▁idatzitako	-10.2951
▁dadila	-10.2951
▁Jokalari	-10.2952
▁neskak	-10.2953
▁gradu	-10.2956
▁soinua	-10.2958
▁Eskerrak	-10.2958
▁oinez	-10.2961
▁eliza	-10.2962
▁zaizkio	-10.2967
▁Dantza	-10.297
▁azaroaren	-10.2973
Aldatu	-10.2977
▁Are	-10.2977
▁ilea	-10.2978
nd	-10.2978
▁jokoan	-10.298
ontzi	-10.2985
▁egokiak	-10.2988
▁Kor	-10.299
▁botoi	-10.2991
▁zehaztutako	-10.2993
▁eragiketa	-10.2995
▁urduri	-10.2998
entzia	-10.3002
▁Sam	-10.3003
▁litzaidake	-10.3007
▁Ana	-10.3008
▁ile	-10.3011
▁txakurra	-10.3013
▁zigun	-10.3016
▁Zaila	-10.3017
▁buelta	-10.3017
▁mailan	-10.3017
▁barkatu	-10.3023
▁dituzula	-10.3023
▁txartela	-10.3028
▁zenbakiak	-10.303
▁aurkitzea	-10.3031
up	-10.3033
teklak	-10.3034
▁Esperientzia	-10.3035
lea	-10.3038
▁jarraitzea	-10.3039
bere	-10.304
▁biziko	-10.3043
▁aurreratu	-10.3045
▁sal	-10.3049
▁kantu	-10.3049
▁pika	-10.305
▁unibertsitate	-10.305
▁Mari	-10.3054
[1].	-10.3057
▁interesatzen	-10.3057
▁azkena	-10.3059
▁heltzen	-10.306
▁hogei	-10.3064
▁aurkezten	-10.3065
▁kudeatu	-10.3066
▁literatura	-10.3066
▁ospatu	-10.3067
▁merkatu	-10.3069
bal	-10.3073
ah	-10.3076
▁Parte	-10.3081
▁natura	-10.3083
▁Q	-10.3084
▁giltza	-10.3085
▁Windows	-10.309
▁bihotzean	-10.3091
▁Nahikoa	-10.3093
▁botila	-10.3098
▁halakorik	-10.31
▁osaba	-10.3105
ño	-10.3106
▁garaipena	-10.3111
▁ikasleak	-10.3115
▁kontuak	-10.3116
▁galde	-10.3117
▁ostalari	-10.3119
▁arlo	-10.3124
ER	-10.3128
▁mar	-10.3129
▁dutenek	-10.313
liburu	-10.3131
▁the	-10.3137
oso	-10.3142
▁Libre	-10.3154
rea	-10.3156
▁gezurra	-10.3157
▁isilik	-10.3159
▁unean	-10.3165
▁martxoaren	-10.3167
zitza	-10.3168
▁zirudien	-10.3175
▁Garbitu	-10.318
▁iragan	-10.3181
▁diguzu	-10.3181
▁Her	-10.3182
▁zabalik	-10.3183
▁kanta	-10.3183
▁Goi	-10.3185
▁eskala	-10.3188
din	-10.3188
▁perfektua	-10.3193
▁genero	-10.3196
▁zeru	-10.32
▁egi	-10.3201
▁Microsoft	-10.3201
▁bereizten	-10.3202
▁irabazteko	-10.3204
▁uler	-10.3205
type	-10.3205
▁jabea	-10.3206
▁pribatua	-10.3207
▁uda	-10.3214
▁borrokan	-10.3219
▁daitekeela	-10.3223
gun	-10.3227
▁itzul	-10.3235
ste	-10.3245
if	-10.3248
▁erantsi	-10.3248
▁bertikala	-10.325
▁Lortu	-10.325
▁Can	-10.3254
▁Helbide	-10.3255
▁bezalaxe	-10.3256
▁Sin	-10.3257
▁Erantzuna	-10.3259
▁herriaren	-10.3265
▁kor	-10.3266
—	-10.3266
▁Mac	-10.3274
▁garatzen	-10.3274
▁Irakasle	-10.3275
▁ofiziala	-10.3275
▁Espazio	-10.3278
▁arratsaldean	-10.3281
mina	-10.3284
▁ibilgailu	-10.3285
▁santu	-10.329
▁fase	-10.3293
by	-10.3293
▁IP	-10.3296
▁batu	-10.3296
▁zuzendaria	-10.3305
▁barrena	-10.3307
▁buruaz	-10.331
0.000	-10.3313
▁Aurtengo	-10.3318
▁Amets	-10.3318
dena	-10.332
▁gauez	-10.3322
mm	-10.3326
▁Niretzat	-10.3328
▁Orokorra	-10.333
▁Zuzendaritza	-10.3334
alde	-10.3335
▁arrazoiak	-10.3336
▁ezezagun	-10.3337
▁hegan	-10.3343
iak	-10.3344
▁hanka	-10.3347
▁arduratzen	-10.3349
▁mantentzeko	-10.3352
▁daitezen	-10.3355
▁esklabo	-10.3355
kari	-10.3356
▁Bur	-10.3356
▁jateko	-10.3359
▁Kategoria	-10.3363
▁Oraintxe	-10.3366
▁eguzkia	-10.3367
res	-10.3369
▁lekuz	-10.3373
▁ezagun	-10.3377
ezina	-10.3379
▁ezagutzea	-10.3379
▁digital	-10.3379
▁Neure	-10.3383
▁sakon	-10.3386
▁kaleratu	-10.3388
▁kasua	-10.3388
▁dezakeen	-10.3392
▁Zal	-10.3392
▁berrien	-10.3392
▁eraikitzeko	-10.3393
▁jota	-10.3396
itatea	-10.3398
▁komun	-10.3402
▁bisitari	-10.3408
ioa	-10.3411
▁apaiz	-10.3412
▁antolatzen	-10.3414
▁fitxategiaren	-10.3415
▁James	-10.3415
▁artzain	-10.3431
▁hasieratik	-10.3431
▁legez	-10.3438
▁idatzita	-10.3438
azioa	-10.3438
▁Saio	-10.3442
▁hautatzen	-10.3447
▁egitean	-10.3447
rok	-10.3447
▁triste	-10.345
▁Peter	-10.3469
▁Seme	-10.3472
▁estu	-10.3475
▁Inprimatu	-10.3484
▁(1	-10.3489
ville	-10.3489
ig	-10.3489
▁Nondik	-10.3494
▁Mendi	-10.3497
ezin	-10.3497
▁nolakoa	-10.3499
nu	-10.3507
▁Mota	-10.3514
▁apirilaren	-10.3522
▁bereizi	-10.3524
IN	-10.3525
▁Errore	-10.3527
▁eramatea	-10.3527
▁Eguzki	-10.3528
▁urdin	-10.3531
▁direlako	-10.3536
▁argitaratutako	-10.3538
▁Prest	-10.3539
enean	-10.354
▁hurbiltzen	-10.3542
▁funtsezko	-10.3547
▁agur	-10.3548
▁harremanak	-10.3549
rengana	-10.355
▁Agur	-10.3551
▁Aurkitu	-10.3553
▁fitxategian	-10.3554
Q	-10.356
▁ordezkari	-10.3562
")	-10.3563
▁Haurrak	-10.3563
▁hasita	-10.3564
▁Helburua	-10.3567
▁eramateko	-10.3568
▁Mezuak	-10.3571
▁elkarte	-10.3573
▁alferrik	-10.3574
▁Momentu	-10.3575
▁igotzen	-10.3577
▁ditzakete	-10.358
▁tratamendu	-10.358
▁si	-10.3581
engan	-10.3581
▁txar	-10.3582
▁Taldea	-10.3583
▁Erabaki	-10.3586
▁munduaren	-10.3589
▁biktima	-10.3589
UR	-10.3593
nahi	-10.3596
vo	-10.3596
tarako	-10.36
▁albo	-10.3601
▁barruko	-10.3601
▁futbol	-10.3602
▁iraupena	-10.3603
▁zutik	-10.3606
▁Ura	-10.3607
▁dauzka	-10.3616
▁argitu	-10.3618
▁truke	-10.3618
ça	-10.3619
▁aulki	-10.3623
AR	-10.3624
▁Au	-10.3625
gain	-10.3632
▁Inportatu	-10.3632
▁Je	-10.3638
ey	-10.3639
▁Fe	-10.3639
▁Gobernuak	-10.364
isten	-10.3643
▁panel	-10.3644
▁Hemendik	-10.3646
▁indartsu	-10.3646
▁auzo	-10.3648
▁32	-10.3655
▁oinarrituta	-10.3656
▁Honen	-10.3665
takoa	-10.3665
▁entzutea	-10.3667
ju	-10.367
▁abiarazi	-10.3671
▁ordenagailua	-10.3672
erantzun	-10.3675
▁atala	-10.3677
▁Gi	-10.368
toa	-10.3682
▁adierazteko	-10.3683
stra	-10.3689
▁Den	-10.369
gailua	-10.3692
▁Karta	-10.3698
▁erantzuteko	-10.3702
let	-10.3705
▁Handia	-10.3707
pila	-10.371
▁militar	-10.3713
ran	-10.372
▁Games	-10.3722
▁lehena	-10.3726
▁konexio	-10.3726
mentu	-10.3728
▁gobernuak	-10.3729
▁Zelan	-10.373
▁gaitz	-10.3733
hau	-10.3734
▁Jainkoari	-10.3736
▁Borroka	-10.3736
▁ederrak	-10.3741
▁nolabait	-10.3741
▁zigor	-10.3742
▁jai	-10.3746
▁ziurtagiria	-10.3751
▁4.	-10.3754
▁onartuko	-10.3755
▁hizketan	-10.376
▁presidente	-10.3761
▁Jan	-10.3764
▁bateria	-10.3767
▁urtetan	-10.377
▁kausa	-10.3775
▁Badira	-10.3778
▁pa	-10.3779
▁eskuz	-10.3783
▁bulego	-10.3784
▁ahalmena	-10.3784
▁man	-10.3786
▁propietate	-10.3788
▁ditzakegu	-10.3791
▁Kan	-10.3792
▁Am	-10.3795
▁Amaitu	-10.3796
▁dantzan	-10.3796
▁berba	-10.3798
▁entzuteko	-10.3799
▁ikono	-10.38
▁mendean	-10.3803
▁lotutako	-10.3805
▁tokian	-10.3807
▁zarenean	-10.381
▁mediku	-10.3814
▁Ekonomia	-10.3815
▁jokoaren	-10.3819
tzearen	-10.3823
▁proxy	-10.3824
!”.	-10.3832
pu	-10.3838
▁itzal	-10.3838
errek	-10.3843
▁betea	-10.3843
▁arin	-10.3844
▁EDOZEIN	-10.3845
xu	-10.3845
▁aditu	-10.3845
▁ikonoa	-10.3846
▁lurrera	-10.3847
▁doaz	-10.3855
ntza	-10.3855
gel	-10.3857
▁zaudela	-10.3857
▁jarraitzaile	-10.3861
▁animaliak	-10.3865
▁GABE	-10.3877
▁soldata	-10.3878
▁zuzendutako	-10.3878
▁Ber	-10.3878
tzailearen	-10.388
▁Bel	-10.388
▁udal	-10.3886
▁Lur	-10.3886
ismoaren	-10.3887
▁Denek	-10.3895
▁eskolan	-10.39
▁erreserba	-10.39
▁bider	-10.3901
▁modurik	-10.3906
▁aritzen	-10.3907
▁Aizu	-10.3908
▁Hortik	-10.3909
▁zintzo	-10.3915
▁hastea	-10.3915
▁Data	-10.3917
▁hiriko	-10.3917
▁Kontu	-10.3923
▁objektua	-10.3923
▁kokaleku	-10.3926
▁mutiko	-10.3927
▁ateak	-10.3927
▁logela	-10.3932
▁musu	-10.3934
▁lagunekin	-10.3938
tes	-10.3939
▁zirenean	-10.3946
▁badirudi	-10.3946
▁jolastu	-10.395
▁Blog	-10.3951
▁pertsonaia	-10.3952
▁Saria	-10.3953
▁aurrebista	-10.3956
▁baso	-10.3958
▁administrazio	-10.3959
▁albiste	-10.3959
▁Wa	-10.3961
▁ezarpen	-10.3966
▁azkarrago	-10.3969
▁zauden	-10.3974
▁Datorren	-10.3977
▁zigorra	-10.3983
▁profesionala	-10.3988
tic	-10.399
EZ	-10.3991
▁bitarteko	-10.3994
▁Noski	-10.4002
▁horrenbeste	-10.4004
▁kontaktua	-10.4007
▁partekatzen	-10.4012
markak	-10.4012
▁behean	-10.4015
▁erosketa	-10.4017
▁hartzera	-10.4018
▁poesia	-10.4022
▁Larrialdi	-10.4025
▁Espainia	-10.4036
▁edertasuna	-10.404
IA	-10.4042
▁2003	-10.4043
▁Ben	-10.4045
ada	-10.4045
▁zaudete	-10.4045
▁Erabiltzaileak	-10.4046
▁Batzuek	-10.4047
▁gertakari	-10.4048
nt	-10.405
▁Lurra	-10.405
▁el	-10.4053
▁markatu	-10.4056
▁gidatzen	-10.4058
▁dezala	-10.406
▁Informazioa	-10.4061
▁bihurtuko	-10.4063
▁gehitzen	-10.4064
▁arreba	-10.4064
garren	-10.4069
▁behartu	-10.4069
▁guztion	-10.407
ty	-10.4071
▁euskarria	-10.4071
▁autobus	-10.4075
▁ditzagun	-10.4075
▁ahizpa	-10.4077
▁Exekutatu	-10.4082
▁Parlamentuak	-10.4083
▁arnasa	-10.4086
pin	-10.4086
▁gaizto	-10.4088
▁beteko	-10.409
▁guztientzat	-10.4094
▁jatorria	-10.4095
▁Pentsa	-10.4099
▁demokrazia	-10.4105
▁interesgarri	-10.4105
▁galera	-10.411
galdetu	-10.411
▁hobeak	-10.4111
▁proiektuaren	-10.4111
▁tartea	-10.4122
▁hirusta	-10.4124
Orain	-10.4125
▁batentzat	-10.413
▁~	-10.4134
▁hamabi	-10.4139
▁deituko	-10.4139
▁Alemaniako	-10.414
▁Udal	-10.4145
▁Ikasle	-10.4145
▁agerian	-10.415
gile	-10.4152
zka	-10.4154
.—	-10.4155
▁fin	-10.4155
▁ezartzeko	-10.4156
▁eredua	-10.4158
etarik	-10.416
▁emanez	-10.4161
▁gabiltza	-10.4163
▁konpontzeko	-10.4169
▁fisiko	-10.417
lia	-10.4175
▁ninduten	-10.4177
▁Atal	-10.4177
▁arraio	-10.4185
▁bake	-10.4192
▁Herrialde	-10.4193
▁gogoeta	-10.4193
▁irakaslea	-10.4193
kudeatzailea	-10.4194
▁Beren	-10.4194
▁dik	-10.4196
▁dugunean	-10.4202
▁Azkar	-10.4206
▁Hilabete	-10.4208
rengandik	-10.4208
▁osorik	-10.4208
▁efektu	-10.421
▁dizuegu	-10.421
▁Heldu	-10.4214
▁zitzaizkion	-10.422
▁marra	-10.4231
▁izanda	-10.4231
ira	-10.4233
▁kexatu	-10.4235
▁droga	-10.4248
▁zerga	-10.4248
▁Kultura	-10.4253
▁komeni	-10.4259
orri	-10.426
▁Iraultza	-10.4261
▁Gelditu	-10.4268
▁nintzenean	-10.4268
▁Amerikako	-10.4269
▁bezeroak	-10.4272
▁haurren	-10.4273
▁gose	-10.4274
▁dis	-10.4274
▁esperantza	-10.4274
egun	-10.428
▁lizentzia	-10.4285
▁Batuen	-10.4285
▁nazional	-10.4286
▁pertsonek	-10.4286
▁giro	-10.4293
Ja	-10.4296
▁Twitter	-10.4298
orde	-10.4299
▁anaiak	-10.43
▁Lehenik	-10.4301
▁diseinatu	-10.4304
▁Elkarrekin	-10.4307
▁orokor	-10.4309
▁menua	-10.4313
▁Profeta	-10.4313
▁atseden	-10.4314
▁ku	-10.4315
▁banintz	-10.4315
▁ezinbestekoa	-10.4319
▁epea	-10.4323
▁naturala	-10.4324
▁horizontala	-10.4326
▁itsasoa	-10.4326
▁bermatzen	-10.4329
▁gura	-10.4337
▁par	-10.4337
▁anitz	-10.4344
▁jatetxe	-10.4345
▁Bitartean	-10.4348
▁Hark	-10.4357
▁Begi	-10.4362
▁izenez	-10.4364
tamaina	-10.4365
ity	-10.4375
▁kideak	-10.4377
arekiko	-10.4381
▁pasahitz	-10.4382
format	-10.4383
▁Prozesu	-10.4383
▁zekien	-10.4385
▁gaitezke	-10.4391
▁zerikusirik	-10.4393
▁fisikoa	-10.4396
▁>>	-10.4399
▁bekatu	-10.4403
▁500	-10.4405
▁gidatu	-10.4408
▁Halere	-10.4412
▁nahian	-10.4412
we	-10.4412
▁diamantea	-10.4417
▁guztiaren	-10.4422
000	-10.4426
▁greba	-10.4429
▁eskuin	-10.4436
▁berr	-10.4439
▁erruki	-10.4443
▁mugi	-10.4444
▁Lagundu	-10.4445
sal	-10.4449
arrak	-10.4455
etxe	-10.4456
▁bukaera	-10.4463
▁buruzagi	-10.4463
▁lagunek	-10.4466
▁zabala	-10.4466
▁ingeles	-10.4466
▁zehazteko	-10.4467
ona	-10.4467
▁joera	-10.4471
▁egutegia	-10.4471
▁iristeko	-10.4474
▁gelan	-10.4474
etaz	-10.4479
▁45	-10.448
▁dudanean	-10.4481
▁Liburua	-10.4486
▁maitatu	-10.449
▁kentzeko	-10.449
▁parke	-10.4496
▁partaide	-10.4496
▁aspaldi	-10.4497
mb	-10.4499
▁Israelgo	-10.4503
▁Honako	-10.4503
▁pe	-10.4505
▁jarrita	-10.451
▁eragile	-10.451
▁eskuinera	-10.4513
▁tenperatura	-10.4516
TA	-10.4518
▁Pedro	-10.4519
▁abantaila	-10.452
arazten	-10.4525
▁sekretu	-10.4529
▁ausartzen	-10.453
▁tokia	-10.4531
▁hotza	-10.4533
▁lapurtu	-10.4536
▁jendearen	-10.4539
engana	-10.454
▁erretzen	-10.4543
▁Juramentua	-10.4543
▁hatz	-10.4543
▁betetzea	-10.4547
▁aldian	-10.4547
▁presidentea	-10.4549
▁urtera	-10.4551
▁Ira	-10.4552
dak	-10.4553
▁itsasontzi	-10.4555
che	-10.4556
▁irakasten	-10.4558
▁l	-10.4558
▁ahul	-10.4558
▁aplikatu	-10.4561
▁emakumeek	-10.4561
▁guztiekin	-10.4564
▁hartzaile	-10.4566
tt	-10.4567
▁bidaiari	-10.4571
ndu	-10.4571
▁Oinarri	-10.4573
▁Post	-10.4573
▁orokorrean	-10.4576
▁mutilak	-10.4578
▁Horra	-10.4585
mail	-10.4587
▁anti	-10.4589
▁jaiki	-10.4592
▁ego	-10.4595
▁asmo	-10.4598
▁plugin	-10.4601
zar	-10.4604
ito	-10.4605
▁zuekin	-10.4606
▁Puntu	-10.4609
▁Bilera	-10.4612
▁irakur	-10.4612
▁gabea	-10.4613
▁baitute	-10.4613
!»	-10.4616
▁urteak	-10.4616
▁heriotzaren	-10.4616
▁lotzen	-10.4617
▁mintzo	-10.4617
▁eskolara	-10.462
▁NI	-10.4622
▁Heriotza	-10.4623
Es	-10.463
▁karga	-10.4639
▁Pentsatu	-10.464
▁ale	-10.464
▁egokiena	-10.4641
▁ateratzea	-10.4642
▁zentro	-10.4646
org	-10.4649
▁plana	-10.4655
▁Online	-10.4656
▁Pasahitza	-10.4666
▁abentura	-10.4668
én	-10.4675
▁ziurtagiri	-10.4676
▁osatutako	-10.4677
▁berriago	-10.4679
▁oinarria	-10.4683
▁jantzita	-10.4685
▁daukan	-10.4688
▁geldituko	-10.4695
▁zurea	-10.4698
▁konturatzen	-10.4698
lde	-10.4711
▁erregeak	-10.4717
▁kolpe	-10.4721
▁ju	-10.4721
▁Justizia	-10.4721
▁At	-10.4722
▁aurkezpena	-10.4723
▁Zurekin	-10.4726
ble	-10.4726
ct	-10.4726
tiboa	-10.4728
▁kudeatzen	-10.4728
▁edukiko	-10.4742
▁taldean	-10.4745
▁berrikuntza	-10.4745
▁museo	-10.4746
▁arraroa	-10.475
▁lanik	-10.4752
▁hamarkadan	-10.4753
▁Telebista	-10.4753
▁kokatu	-10.4754
▁publikoak	-10.4754
▁erantzunak	-10.4755
toki	-10.4758
▁Gaurko	-10.4758
ikus	-10.4758
▁hoberena	-10.4758
▁irteten	-10.4759
▁distira	-10.4761
▁Mai	-10.4764
▁instalatuta	-10.4764
▁hauetako	-10.4767
bia	-10.4768
▁Nahiago	-10.4769
▁6.	-10.4775
▁honetarako	-10.4775
▁Audio	-10.4777
▁Etxea	-10.4785
LA	-10.4785
itzen	-10.4792
▁erreprodukzio	-10.4793
▁denboraldi	-10.4794
▁nizun	-10.4795
▁iezadazu	-10.4806
bit	-10.4808
▁erantzungo	-10.481
▁zerua	-10.4814
ment	-10.4819
▁Hitza	-10.482
▁zelan	-10.483
▁mesede	-10.4831
▁zaituztet	-10.4835
▁bueltan	-10.4839
▁atalean	-10.4843
▁Ikuspegi	-10.4844
▁MA	-10.4845
▁hogeita	-10.4853
▁aplikatzen	-10.4854
▁usain	-10.487
▁titulu	-10.4877
▁leihoak	-10.4878
25	-10.4878
▁orrialdea	-10.488
▁ezagutuko	-10.4882
▁Hasteko	-10.4884
▁ingelesez	-10.4888
▁salmenta	-10.4888
▁jendeari	-10.4889
▁hiriburua	-10.4892
▁pisu	-10.4899
▁aktiboa	-10.4899
▁gordetako	-10.4902
BAR	-10.4906
▁iluna	-10.4908
▁askoren	-10.4908
▁Ah	-10.4913
▁Ekialdeko	-10.4915
▁Ikono	-10.492
▁faltan	-10.4921
▁ingurune	-10.4922
▁ahalko	-10.4924
▁amore	-10.4925
▁tartean	-10.4925
▁("	-10.4934
lagun	-10.4934
▁Jar	-10.4935
▁Jatorrizko	-10.4938
taz	-10.4942
▁eraginkorra	-10.4944
▁Pre	-10.4945
LE	-10.4945
▁ogia	-10.4946
▁zeuen	-10.4946
▁Emakumeak	-10.4946
▁irekiko	-10.4949
▁bertara	-10.4949
▁bazuen	-10.4952
▁praktika	-10.4955
▁lankide	-10.4956
▁Zortzi	-10.4957
▁duenez	-10.496
▁erabakiak	-10.4962
ex	-10.4965
▁garaipen	-10.4965
▁pisua	-10.4966
▁nabarmendu	-10.4966
OR	-10.4968
bin	-10.497
▁formula	-10.4976
kia	-10.4977
▁neukan	-10.4985
▁Legea	-10.4987
▁faktore	-10.4993
▁dutenean	-10.4993
▁zalantzan	-10.4993
▁Zorionak	-10.4997
▁Parlamentuaren	-10.4997
▁noizbait	-10.4998
▁agindua	-10.4998
▁sortzean	-10.4999
▁polit	-10.5006
▁tipo	-10.5006
nek	-10.5015
▁eske	-10.5022
▁kontzertu	-10.5023
▁inongo	-10.5025
▁sistemak	-10.5027
▁Ezta	-10.5027
▁osatzeko	-10.503
▁mailegu	-10.5031
▁eskainiko	-10.5032
▁Ke	-10.5037
▁Herriko	-10.5039
▁filosofia	-10.5041
▁errudun	-10.5041
▁familiako	-10.5042
kua	-10.5043
▁sarri	-10.5047
▁onik	-10.5048
▁zero	-10.5048
▁bitxia	-10.5051
▁langileak	-10.5052
▁India	-10.5057
▁lehengo	-10.5059
▁herriak	-10.5059
▁identifikatu	-10.5061
▁teknika	-10.5062
▁Ahaztu	-10.5066
▁negozioa	-10.5066
▁ziola	-10.507
▁soziala	-10.507
▁Amak	-10.5079
▁gehienez	-10.5079
▁Polizia	-10.5081
▁gurasoek	-10.5091
▁ordainduko	-10.5092
ad	-10.5092
▁Ezkutatu	-10.5097
▁beharrezkoak	-10.5098
▁baxua	-10.5103
▁Paris	-10.5106
▁ad	-10.5108
▁batzuei	-10.511
em	-10.5113
▁Mor	-10.5113
/%	-10.5114
▁kaka	-10.5115
La	-10.5116
▁Zehaztu	-10.5117
▁Guzti	-10.5117
▁handitzen	-10.5123
▁honetaz	-10.5127
▁kritika	-10.5129
▁dagokienez	-10.5129
▁arriskutsua	-10.5133
▁zutaz	-10.5134
▁oraingoz	-10.5135
▁belarri	-10.5136
▁lehenetsi	-10.5136
▁portaera	-10.5139
▁hiltzea	-10.5143
xo	-10.5144
▁hauei	-10.5144
▁Gogoratzen	-10.5146
▁okerrago	-10.5147
▁300	-10.5148
▁ibiliko	-10.5154
eu	-10.5155
▁lezake	-10.5155
▁sekretua	-10.516
▁saihesteko	-10.516
▁ikastea	-10.516
▁goazen	-10.516
tipoa	-10.5161
▁tratatu	-10.5174
▁iz	-10.5175
▁Kirol	-10.5176
▁Hotel	-10.5177
▁lineaz	-10.5181
Beste	-10.5185
▁hondatu	-10.5186
▁profil	-10.5188
▁nagusiaren	-10.5188
sio	-10.5191
▁Objektu	-10.5194
</	-10.5194
-19	-10.5196
▁lokal	-10.5198
▁irailaren	-10.5198
▁emakumezko	-10.52
▁apal	-10.5201
▁itzultzea	-10.5202
▁musikari	-10.5204
▁zoragarri	-10.5209
dala	-10.521
▁aldea	-10.5212
til	-10.5214
▁baliteke	-10.5217
▁irrati	-10.5217
▁bertsioan	-10.5224
▁planoa	-10.5227
AL	-10.5227
▁esanahia	-10.5228
▁senide	-10.5229
▁amaituko	-10.5229
ore	-10.5234
▁Sekula	-10.5235
▁kargatzen	-10.5237
▁Komando	-10.5241
▁amaitzeko	-10.5241
▁konpontzen	-10.5242
▁taberna	-10.5244
▁kontrolatu	-10.5247
▁baserri	-10.525
▁Beldur	-10.5252
▁bezela	-10.5254
▁Merkataritza	-10.5256
▁errespetatu	-10.5257
▁Irudia	-10.5257
▁AEB	-10.5259
▁Konfiguratu	-10.5259
▁Gor	-10.526
▁]	-10.526
aukera	-10.5263
▁Bezero	-10.5267
▁karpetak	-10.5267
▁programak	-10.5271
▁nahasi	-10.5272
▁zailtasun	-10.528
aldea	-10.5282
▁historian	-10.5284
▁etortzeko	-10.5284
one	-10.5288
▁artxibo	-10.5289
▁azpiko	-10.529
▁hutsak	-10.529
tasunean	-10.5291
DA	-10.5291
▁Jada	-10.5293
▁krisi	-10.5298
▁irakurtzean	-10.5299
▁ikasleek	-10.5299
▁harrera	-10.5313
▁laguntzaile	-10.5314
ID	-10.5314
▁Emaitza	-10.5321
▁URLa	-10.5321
▁epaile	-10.5322
▁inbertsio	-10.5323
▁karrera	-10.5323
▁Firefox	-10.5325
▁bakoitzari	-10.5327
▁2020	-10.5327
▁ikas	-10.5328
illa	-10.5331
▁izateak	-10.5332
▁Lana	-10.5332
▁mahaigaineko	-10.5338
▁kafe	-10.5339
▁Gutxi	-10.5342
▁Zerk	-10.5345
▁trepeta	-10.5346
▁aginduak	-10.5346
▁prozedura	-10.5347
▁Desgaitu	-10.5348
▁erdiko	-10.5349
▁Ru	-10.5349
▁askatasun	-10.5352
▁2001	-10.5352
▁plaza	-10.5353
▁Michael	-10.5355
▁edari	-10.5357
▁Charles	-10.5359
▁indarkeria	-10.5359
▁ahoa	-10.5361
gela	-10.5364
▁irakurketa	-10.5367
▁Gaia	-10.537
▁definitu	-10.537
▁ariketa	-10.5371
▁etorkizun	-10.5373
▁Errusiako	-10.5376
▁ipar	-10.5378
▁eskuratzeko	-10.538
▁Zoritxarrez	-10.5382
ting	-10.5383
▁ap	-10.5384
▁jarrai	-10.5385
Gu	-10.5388
yo	-10.539
port	-10.5392
▁bazenu	-10.5394
▁urdina	-10.5402
ido	-10.5403
▁Exchange	-10.5408
▁atxiki	-10.5411
tre	-10.5415
80	-10.5418
▁bit	-10.542
▁animatu	-10.5421
▁berririk	-10.5425
▁hauteskunde	-10.5427
uri	-10.5427
▁deia	-10.543
base	-10.5431
▁topo	-10.5432
▁botoiarekin	-10.5437
18	-10.5445
▁lanpostu	-10.5445
▁denboran	-10.5448
lie	-10.5454
▁sareko	-10.5455
▁mugikorra	-10.5456
▁Kontuan	-10.5456
▁2002	-10.546
▁hiltzeko	-10.5463
▁Bakoitzak	-10.5468
▁Neu	-10.5475
▁te	-10.5475
▁zenetik	-10.5478
ztu	-10.548
▁Tri	-10.548
▁dabiltza	-10.5483
▁jauzi	-10.5485
▁aberatsa	-10.5486
ES	-10.5488
▁baimen	-10.5489
▁ixten	-10.5489
▁duenik	-10.549
▁datza	-10.549
tak	-10.5492
▁editorea	-10.5492
▁ingelesa	-10.5495
▁Home	-10.5496
▁barrura	-10.5496
dor	-10.5496
lio	-10.5498
▁salatu	-10.5498
ang	-10.5498
▁Nobel	-10.55
▁nauk	-10.5504
▁debekatu	-10.5505
▁Azpi	-10.5509
Nor	-10.5509
Mo	-10.551
▁00	-10.551
▁Emakumeen	-10.5517
don	-10.5517
▁gozatzeko	-10.5518
▁Oharra	-10.5521
▁eremuan	-10.5523
▁det	-10.5526
▁familiaren	-10.5526
▁sentimendu	-10.5527
▁bihurtzeko	-10.5528
▁ekar	-10.5528
▁Garrantzitsua	-10.553
▁Harri	-10.5531
▁Zuhaitz	-10.5532
▁eserleku	-10.554
Egun	-10.554
▁Luis	-10.5545
▁osoaren	-10.5547
▁Ki	-10.5554
▁gizonen	-10.5554
▁azal	-10.5556
▁onartuta	-10.5556
bert	-10.5556
▁bakean	-10.5557
▁proposatzen	-10.5557
nes	-10.5557
▁urrezko	-10.5559
iten	-10.5561
▁33	-10.5561
▁@	-10.5561
▁heinean	-10.5562
▁Guztiok	-10.5564
▁Nolanahi	-10.5565
▁Wi	-10.5567
▁naiteke	-10.557
zabal	-10.5571
▁guztietatik	-10.5574
arte	-10.5578
▁Australia	-10.5583
▁gutxitan	-10.5584
▁ibaia	-10.5586
▁bertatik	-10.5586
aldaketa	-10.5587
▁Gobernu	-10.5589
▁zorte	-10.5589
▁Parisen	-10.5592
▁portu	-10.5592
▁Uda	-10.5596
28	-10.5606
▁irekia	-10.5608
▁hautagai	-10.5611
▁pentsatzea	-10.5613
▁hortaz	-10.5615
▁gehigarria	-10.5617
▁Pan	-10.5623
▁Aitaren	-10.5624
met	-10.5624
hur	-10.5626
▁ardoa	-10.5628
▁Gora	-10.563
▁ebaz	-10.5632
▁Mezua	-10.5635
▁debekatuta	-10.5639
▁dutelako	-10.564
▁euria	-10.5643
▁ipuin	-10.5646
sar	-10.5646
▁agintzen	-10.5647
▁prestatzeko	-10.5648
▁elektriko	-10.5648
▁gehi	-10.5648
▁ho	-10.5649
▁kontzeptu	-10.5649
▁etor	-10.566
▁Lurraren	-10.566
▁ustekabean	-10.566
▁udalerri	-10.5661
▁unea	-10.5661
▁Real	-10.5665
▁azalpen	-10.5668
sten	-10.5669
fitxategiak	-10.567
txoak	-10.567
▁jaurti	-10.567
▁ikaragarri	-10.5678
▁bestearen	-10.5679
▁ordutan	-10.5681
▁erantzukizuna	-10.569
▁kartzelan	-10.5694
▁aberats	-10.5696
dal	-10.5696
karpeta	-10.57
▁familiak	-10.5701
ratzea	-10.5705
▁entzungo	-10.5708
▁€	-10.5714
▁tratamendua	-10.5714
▁bizimodua	-10.5721
▁Zerbitzua	-10.5723
▁zatoz	-10.5723
para	-10.5723
▁asteburu	-10.5735
▁bertso	-10.5737
▁zeharkatu	-10.5737
▁Atera	-10.5741
▁gozatzen	-10.5742
eten	-10.5744
▁hedatu	-10.5744
▁Pasa	-10.5746
▁asmoz	-10.5747
▁porrot	-10.5754
▁Zaldi	-10.5755
60	-10.5757
kada	-10.5763
▁Garapen	-10.5764
▁Ziurtatu	-10.5765
ix	-10.5766
▁eskuan	-10.5768
▁Dei	-10.5773
▁lehentasuna	-10.5775
▁Orokorraren	-10.5775
▁horiekin	-10.5777
▁bidaiatu	-10.5781
▁zibil	-10.5783
▁Egon	-10.5784
▁ohore	-10.5785
bre	-10.5789
▁eskubideen	-10.579
▁fedea	-10.579
▁haiei	-10.5793
▁Txiki	-10.5796
▁Badago	-10.5796
▁urteotan	-10.5799
agu	-10.5803
▁}	-10.5805
▁segur	-10.5806
▁badi	-10.5807
▁haurrek	-10.5817
▁printzipio	-10.5819
▁modukoa	-10.5821
logia	-10.5822
▁Ikusiko	-10.5823
▁ikaragarria	-10.5823
▁epaiketa	-10.5825
▁ex	-10.5827
▁ahazten	-10.5829
▁ezkerrera	-10.583
▁hotel	-10.583
▁motor	-10.5831
▁erabateko	-10.5832
▁Lord	-10.5834
ent	-10.5839
▁hantxe	-10.5843
tsuak	-10.5846
▁esanahi	-10.5848
▁soil	-10.5849
▁berezko	-10.585
▁jaiotza	-10.5854
▁Itsas	-10.5858
▁dieza	-10.5861
ute	-10.5862
est	-10.5863
▁ziguten	-10.5864
izi	-10.5866
▁Bero	-10.5866
▁Park	-10.5867
▁ikasiko	-10.5868
▁honelako	-10.5869
▁tokiko	-10.587
▁oharra	-10.587
▁ikuskizun	-10.5875
▁48	-10.5882
▁Hainbeste	-10.5886
▁oinak	-10.5887
▁Parke	-10.5892
▁marraztu	-10.5897
▁abokatu	-10.59
▁garbitzen	-10.5909
istak	-10.5913
▁Korrika	-10.5914
▁substantzia	-10.5916
▁Orrialde	-10.5917
▁motako	-10.5922
▁bitxi	-10.5923
eo	-10.5924
▁Unibertsitatea	-10.5928
eren	-10.5928
▁aseguru	-10.5929
▁gehienezko	-10.5931
▁Kaka	-10.5932
PA	-10.5933
14	-10.5937
▁Dan	-10.5937
▁hego	-10.5937
lazio	-10.5938
aga	-10.5943
▁{0}	-10.5946
▁dezakezue	-10.5952
▁Jokoaren	-10.5953
▁aitona	-10.5953
70	-10.5959
q	-10.5959
▁bueltatu	-10.596
▁pazientzia	-10.5961
Ezin	-10.5964
▁ezabatzen	-10.5967
▁Irlandako	-10.5973
▁zaizkie	-10.5974
▁ki	-10.5976
ologia	-10.5976
▁aitortzen	-10.5976
▁Abraham	-10.5977
▁haurdun	-10.5977
▁mezuaren	-10.5978
▁itxaropena	-10.5978
▁içan	-10.5981
▁bazaude	-10.5981
▁edonork	-10.5983
▁ezker	-10.5983
nean	-10.5992
▁posizio	-10.5994
▁definitzen	-10.5995
▁estandarra	-10.5995
▁Bor	-10.5996
▁bakarrak	-10.5998
▁inondik	-10.6
▁Dokumentazio	-10.6001
▁Hiriburua	-10.6001
▁baliozkoa	-10.6001
▁nirea	-10.6004
▁aukeratzeko	-10.6011
▁gezur	-10.6012
▁egunkaria	-10.6013
▁haize	-10.6013
▁isil	-10.6019
▁errazago	-10.6019
▁sorgin	-10.6019
dunak	-10.6029
▁has	-10.6031
▁Los	-10.6034
▁eskatzeko	-10.6037
▁zarata	-10.6043
▁hornitzaile	-10.6045
zun	-10.6046
▁sarbidea	-10.6049
Ikusi	-10.605
▁ohe	-10.6051
▁instalazio	-10.6051
▁orrian	-10.6051
▁Hasierako	-10.6052
▁Art	-10.6057
▁kalera	-10.6058
▁zauri	-10.606
▁zuzeneko	-10.6064
▁ibai	-10.6067
▁partekatzea	-10.6072
▁bultzatzen	-10.6075
▁menpe	-10.6076
▁aitzakia	-10.6077
▁Jean	-10.6078
▁gera	-10.6078
▁serie	-10.6078
▁gorputzaren	-10.6079
▁keinu	-10.6079
▁Aurre	-10.6084
▁36	-10.6088
▁egutegi	-10.609
▁ordain	-10.609
▁zaidan	-10.6092
▁akordio	-10.6092
▁kudeatzailea	-10.6093
▁liburutegi	-10.6095
ven	-10.6095
▁maitemindu	-10.6096
ab	-10.6096
▁industrial	-10.6101
▁kazetari	-10.6101
▁ardo	-10.6103
▁arrantza	-10.6104
▁etsaiak	-10.6106
▁abar	-10.6107
▁zebilen	-10.6109
▁zaizue	-10.6109
▁Oro	-10.611
▁botoa	-10.611
▁bloke	-10.6111
▁Alemania	-10.6122
Ireki	-10.6123
▁nitaz	-10.6125
tatzeko	-10.6126
ell	-10.6128
ego	-10.6128
▁editatu	-10.6131
▁zihoan	-10.6131
▁beso	-10.6137
▁urriaren	-10.6141
▁zeharo	-10.6147
ow	-10.615
▁mantentzea	-10.6154
▁hilketa	-10.6154
.»	-10.6157
bete	-10.6158
▁ahalmen	-10.6158
▁eginiko	-10.6159
▁oraingo	-10.6161
▁legearen	-10.6162
▁Mutil	-10.6162
▁artea	-10.6168
▁amona	-10.6172
▁dantzari	-10.6173
▁Itxura	-10.6176
▁kotxe	-10.6178
▁Martxoa	-10.618
▁partekatzeko	-10.6181
▁hauekin	-10.6182
▁Gertaera	-10.6184
13	-10.6193
▁irakurle	-10.6198
▁zuzentzen	-10.62
▁TRUE	-10.6201
▁indartsua	-10.6203
hon	-10.6207
▁erregearen	-10.6214
▁iezaguzu	-10.6218
▁ditugula	-10.6219
tegia	-10.6219
sin	-10.6221
▁asmorik	-10.6221
▁espazioa	-10.6223
▁berde	-10.6223
oz	-10.6225
Gorde	-10.6228
▁je	-10.6228
▁aurreneko	-10.6231
▁Honi	-10.6234
▁Txapelketa	-10.6234
▁eskuratzen	-10.6236
erra	-10.6238
▁sinple	-10.6246
▁We	-10.6248
▁Hobespenak	-10.6249
!».	-10.6251
▁Unibertsitatean	-10.6256
▁kezkatzen	-10.6257
▁poema	-10.6259
▁Funtzio	-10.6259
▁←	-10.6262
▁etortzea	-10.6263
▁sekulako	-10.6268
▁unitatea	-10.6278
▁hitzaldi	-10.6279
▁inporta	-10.6281
▁estali	-10.6281
▁gorantz	-10.6283
▁magia	-10.6284
Lo	-10.6285
▁zeintzuk	-10.6285
çue	-10.6288
▁saiakera	-10.6293
Pa	-10.6295
ier	-10.6296
▁paziente	-10.6297
▁zaizkizu	-10.6297
▁buruaren	-10.6304
▁urre	-10.6304
▁premia	-10.6304
▁bestalde	-10.6307
nal	-10.6307
▁gizonezko	-10.6311
kit	-10.6314
▁azala	-10.6314
▁galduta	-10.6316
▁mu	-10.6321
▁gehigarri	-10.6322
▁elikadura	-10.6323
▁Erabilitako	-10.6324
▁itzulera	-10.6326
OS	-10.6333
▁internet	-10.6336
▁dauzkat	-10.6338
▁azpimarratu	-10.6342
▁Etxera	-10.6344
▁v	-10.6345
▁Ordenagailu	-10.6347
▁berdea	-10.6349
▁bistaratuko	-10.635
▁Thomas	-10.6351
▁dokumentuak	-10.6354
▁Arazoa	-10.6355
▁nai	-10.6358
24	-10.636
liburua	-10.6361
▁osatuta	-10.6362
▁tresnak	-10.6364
▁poeta	-10.6365
ON	-10.6365
▁inoren	-10.6369
▁Industria	-10.6371
▁Gal	-10.6373
▁zientifiko	-10.6373
▁Eskatu	-10.6378
▁km	-10.6378
▁sortzailea	-10.638
▁itsaso	-10.6381
▁ALDATUA	-10.6383
▁EBren	-10.6384
ft	-10.6388
▁Oraingoz	-10.6391
tzeagatik	-10.6392
▁morroi	-10.6392
▁jokatzeko	-10.6394
▁mahaiko	-10.6397
▁garraio	-10.6397
▁Lurralde	-10.6397
Bo	-10.6399
list	-10.6403
Zein	-10.6405
▁zaharrena	-10.641
▁defentsa	-10.641
▁del	-10.641
tasa	-10.641
▁baliabideak	-10.6411
▁Ezkontza	-10.6414
▁Administrazio	-10.6418
▁cookieak	-10.6421
▁planoko	-10.6421
▁historiko	-10.6424
▁Dokumentu	-10.6428
ize	-10.643
▁Asteburu	-10.6433
▁printzesa	-10.6435
▁baimendu	-10.6441
▁katea	-10.6441
▁horietatik	-10.645
teak	-10.6451
▁ditzaket	-10.6452
▁banaiz	-10.6454
▁Onartu	-10.6455
▁kol	-10.646
▁Kontrol	-10.6463
▁aldizkari	-10.6463
"(	-10.6466
▁zuelako	-10.6468
▁Mark	-10.6469
▁errepublika	-10.6475
▁profeta	-10.6475
▁gordeko	-10.6477
▁ID	-10.648
▁tri	-10.6486
dek	-10.6487
chi	-10.6491
21	-10.6492
▁jarraituz	-10.6493
▁AEBetako	-10.65
▁eratu	-10.6502
▁Zutabe	-10.6503
▁politak	-10.651
▁arratsalde	-10.6511
▁gehiagok	-10.6512
▁Helburu	-10.6514
.[1]	-10.6515
gor	-10.6516
▁aldarrikatu	-10.6517
01	-10.6517
▁et	-10.6518
bra	-10.6518
▁zeregina	-10.6525
ori	-10.6528
▁Nolako	-10.653
▁Unibertsitateko	-10.653
▁Geroago	-10.6533
▁egunen	-10.6533
▁testuaren	-10.6535
gorri	-10.6537
▁instalazioa	-10.6539
▁III	-10.6542
▁konbinazio	-10.6544
▁objektuak	-10.6547
hasiera	-10.6553
▁ke	-10.6553
▁no	-10.6555
▁barrutik	-10.6557
iera	-10.6558
▁Bal	-10.6559
▁proposamena	-10.656
oko	-10.656
las	-10.6561
tsonen	-10.6562
laria	-10.6562
▁ikasketak	-10.6566
tarren	-10.6566
▁txikiena	-10.6566
koadroan	-10.6567
▁ezagunak	-10.657
▁medikuntza	-10.6572
▁arrotz	-10.6577
▁Cookie	-10.6578
aldeko	-10.6579
▁horra	-10.6579
▁apurtu	-10.6583
▁gizakiaren	-10.6583
ling	-10.6586
▁Santu	-10.6596
lt	-10.6597
▁Ikasi	-10.6598
▁tekniko	-10.6599
▁Zentzu	-10.6599
bizi	-10.66
▁idatzia	-10.6601
▁Beharrezkoa	-10.6602
▁Partekatu	-10.6603
▁elektrikoa	-10.6604
▁gogora	-10.6606
▁irabaztea	-10.6608
NA	-10.6609
▁edizio	-10.6609
▁erabiltzaileek	-10.6609
▁Arrakasta	-10.6614
▁zaien	-10.6625
▁ametsak	-10.6628
▁aro	-10.6629
▁Memoria	-10.663
▁nituzke	-10.6631
▁garrantzitsuen	-10.6632
▁Espiritu	-10.6634
▁harrigarria	-10.6635
▁Daniel	-10.6636
▁inportatu	-10.6638
atzailea	-10.6639
▁errepikatzen	-10.6639
▁irtenbide	-10.6643
▁fi	-10.6644
▁deskargatu	-10.6647
▁2000	-10.6649
▁Fu	-10.6649
▁Saint	-10.6649
▁ibiltzeko	-10.6649
▁Ihes	-10.665
▁produktua	-10.6651
▁kentzea	-10.6652
▁galtzeko	-10.666
▁Horri	-10.6662
▁kontatuko	-10.6663
▁super	-10.6665
▁Errusia	-10.6666
tzia	-10.6666
▁segi	-10.6667
▁berau	-10.6667
▁nagoela	-10.6668
▁Apple	-10.6669
▁baieztatu	-10.6669
▁ahaztuko	-10.667
▁erresuma	-10.6674
▁bideak	-10.6676
▁zutenean	-10.6677
▁Zeure	-10.6677
▁garbia	-10.668
▁kontzeptua	-10.6683
▁lehia	-10.6685
▁zerbitzariak	-10.6687
▁gorputzak	-10.6687
▁erresistentzia	-10.6688
▁Laneko	-10.669
▁mehatxu	-10.669
▁Orri	-10.6691
▁Josu	-10.6691
▁besteek	-10.6695
▁Ktrl	-10.6696
▁Besterik	-10.6697
▁funtsezkoa	-10.6699
▁ehiza	-10.6701
▁beherantz	-10.6701
▁bidaiatzen	-10.6702
▁(18	-10.6704
▁dizkio	-10.6707
▁haragi	-10.6708
▁arduratu	-10.6709
ain	-10.671
▁soinuak	-10.671
▁Kode	-10.6714
▁Telefono	-10.6716
▁guzi	-10.672
▁zaizkigu	-10.6721
▁Elkar	-10.6721
▁gaituta	-10.6722
▁(2	-10.6722
▁utz	-10.6723
▁modura	-10.6725
▁baitago	-10.6726
▁betetako	-10.6734
▁klub	-10.6735
kopurua	-10.6738
▁zenituen	-10.674
▁Irudiaren	-10.6741
▁barkamena	-10.6742
▁Banku	-10.6746
retako	-10.6747
her	-10.6747
í	-10.6748
▁ataka	-10.6753
▁kafea	-10.6754
▁arrazoirik	-10.6755
▁free	-10.6757
▁behe	-10.6757
txerik	-10.6765
▁meta	-10.6766
▁”	-10.6773
{	-10.6773
aba	-10.6775
▁zubi	-10.6779
▁Harry	-10.6781
▁euskarri	-10.6791
▁kontaktuak	-10.6792
▁desberdintasun	-10.6793
tipo	-10.6793
▁Trans	-10.6795
▁diezu	-10.6796
▁moldatu	-10.6797
▁aztarna	-10.6799
▁Oi	-10.6801
aldean	-10.6801
▁Eremu	-10.6802
txegabetasuna	-10.6805
▁pauso	-10.6806
ztatu	-10.6807
▁oroitzapen	-10.6807
▁armak	-10.6808
▁dituztenak	-10.6809
▁Interneteko	-10.681
▁inon	-10.6813
▁minutuko	-10.6814
gh	-10.6815
▁papera	-10.6816
plan	-10.6816
▁deskribatu	-10.6817
▁Norbait	-10.6823
▁lerroa	-10.6827
▁Gaizki	-10.6828
▁bazter	-10.6829
▁kargu	-10.683
Ka	-10.6831
▁ondasun	-10.6832
▁leihoan	-10.6836
Gaur	-10.6838
▁landa	-10.6839
▁genezake	-10.684
▁Tro	-10.6841
▁seguruak	-10.6843
Mar	-10.6847
▁aldez	-10.6849
▁adimen	-10.6852
▁aurkeztuko	-10.6853
▁sartuta	-10.6856
▁erostea	-10.6857
▁Alex	-10.6857
▁altxa	-10.6861
▁dagoelako	-10.6862
▁politikari	-10.6862
▁eskuinean	-10.6862
▁Itsaso	-10.6864
▁ekimen	-10.687
▁Txertatu	-10.6873
▁Batuak	-10.6881
cy	-10.6884
▁ausazko	-10.6885
▁po	-10.689
▁ikusle	-10.6895
▁tra	-10.6895
▁jarraian	-10.6897
▁poltsa	-10.6898
▁beharrak	-10.6906
▁34	-10.6908
▁goiburu	-10.6911
▁askorik	-10.6917
▁zigarro	-10.692
▁kokatua	-10.692
RIK	-10.692
▁Ero	-10.6927
▁Eli	-10.6935
▁kartzela	-10.6937
TAKO	-10.6937
▁Henry	-10.6937
▁urtarrilaren	-10.6943
▁ezarrita	-10.6944
▁balira	-10.6947
▁ezean	-10.6951
▁txostena	-10.6953
▁desegin	-10.6957
▁etsi	-10.6957
▁Arrisku	-10.696
Hemen	-10.696
mendua	-10.696
▁Arau	-10.6965
▁Sara	-10.6969
▁Tren	-10.6969
▁Soilik	-10.697
▁tratatzen	-10.6975
▁kontratu	-10.6975
ise	-10.6976
▁txosten	-10.6977
▁150	-10.6979
▁lanera	-10.6981
▁Aurrez	-10.6981
▁osagarri	-10.6981
▁lanetan	-10.6984
zain	-10.6987
▁guztioi	-10.699
▁ALDATU	-10.6992
▁haserretu	-10.6995
▁jatea	-10.6995
▁Mer	-10.6998
▁bidaltzea	-10.6999
▁nonahi	-10.7
▁garaitu	-10.7
▁helduko	-10.7001
▁sarrerak	-10.7002
▁xede	-10.7002
ini	-10.7002
▁Toki	-10.7003
▁zerikusia	-10.7003
▁analizatu	-10.7003
▁osasuntsu	-10.7006
lek	-10.7008
-1	-10.7009
▁kokapena	-10.701
▁aurkikuntza	-10.701
▁Japoniako	-10.7012
▁udako	-10.7014
▁onartzea	-10.7016
▁haietako	-10.7016
▁ordezkatu	-10.702
▁Ona	-10.702
▁gaitzazu	-10.7021
Bilatu	-10.7024
▁Auzitegi	-10.7031
▁bihurtzea	-10.7033
▁ziurrenik	-10.7036
▁Robotak	-10.7037
▁Euren	-10.7038
▁Armada	-10.7038
▁CO	-10.7039
▁Natura	-10.7042
tasunik	-10.7042
TI	-10.7052
▁Urruneko	-10.7054
erdi	-10.7056
▁Bro	-10.7058
▁uztailaren	-10.7059
▁sarrerako	-10.7065
▁Txakur	-10.7065
▁Gurutze	-10.7066
▁Jack	-10.7067
▁iragana	-10.7068
tse	-10.7069
▁halaxe	-10.7069
una	-10.7071
▁kontrakoa	-10.7074
ux	-10.7075
▁fede	-10.7077
etsi	-10.7081
▁antzekoak	-10.7089
7-0475/2011	-10.7089
▁edizioa	-10.7096
▁entrenatzaile	-10.7096
▁az	-10.7098
▁Arra	-10.7099
▁ispilu	-10.71
▁igarotzen	-10.7101
▁fitxategien	-10.7105
uk	-10.7106
▁Pozik	-10.7107
▁Irten	-10.7108
▁logika	-10.7112
▁zeudela	-10.7112
▁baliatu	-10.7113
▁itxaropen	-10.7113
▁Badakigu	-10.7116
▁probintzia	-10.7116
▁Eskuliburu	-10.7116
▁GTK	-10.7117
▁Irabazi	-10.7121
▁Ger	-10.7129
▁ehuneko	-10.7129
▁Muga	-10.7143
▁errefuxiatu	-10.7144
▁ohitu	-10.7147
undo	-10.7154
tzeari	-10.7155
ip	-10.7159
hai	-10.716
▁jaiotzen	-10.716
▁txerri	-10.7163
16	-10.7168
zan	-10.7169
▁gunea	-10.717
▁pistola	-10.7171
▁Karaktere	-10.7173
▁zientzialari	-10.7174
ndi	-10.7175
▁Urtero	-10.7175
▁ausardia	-10.7176
pel	-10.7176
▁ezartzea	-10.7176
▁trans	-10.7177
▁bozkatu	-10.7179
latu	-10.718
▁dudarik	-10.7183
▁konposatu	-10.7185
shi	-10.7186
egu	-10.7186
▁alderantziz	-10.7187
▁Nahiko	-10.7188
uste	-10.7188
katzea	-10.7191
▁guneak	-10.7192
22	-10.7193
▁gorputzean	-10.7194
▁enpresaren	-10.7194
▁esandakoa	-10.7195
▁kontinente	-10.7195
▁haietan	-10.7197
“	-10.7198
▁zezakeen	-10.7202
kako	-10.7209
▁blokeatu	-10.721
▁gauzatu	-10.7213
▁ikertzaile	-10.7213
▁lehenbiziko	-10.7215
▁irri	-10.7215
▁hortxe	-10.7215
▁Is	-10.7216
▁biltzeko	-10.7218
▁datazio	-10.7218
▁erabilgarriak	-10.7222
▁biek	-10.7226
Kendu	-10.7227
▁iraungo	-10.7228
bol	-10.7229
▁pertsonalizatu	-10.7229
▁ospitale	-10.723
tzaren	-10.7232
esten	-10.7233
▁hemengo	-10.7233
arri	-10.7234
iako	-10.7235
▁ulertuko	-10.7238
▁barneko	-10.7238
taldea	-10.7239
▁Dubai	-10.724
Jauna	-10.7244
▁as	-10.7244
▁inprimatzeko	-10.7245
arazteko	-10.7245
▁sasoi	-10.7246
▁norabide	-10.7247
32	-10.7247
▁fenomeno	-10.7249
▁erraldoi	-10.7249
▁Txa	-10.7249
▁Jaun	-10.7251
▁pixel	-10.7255
▁Material	-10.7259
▁definizioa	-10.7259
▁bloga	-10.726
Egin	-10.7261
▁biltegi	-10.7264
▁irudikatzen	-10.727
▁1990	-10.7272
▁Zalantzarik	-10.7273
▁Kargatu	-10.7275
▁hitzaldia	-10.7279
▁Erabilera	-10.7279
rus	-10.728
tina	-10.7281
▁lu	-10.7285
▁isiltasuna	-10.7287
▁cache	-10.7288
▁desagertzen	-10.7288
▁Pakete	-10.7289
▁Langile	-10.7293
rat	-10.7295
▁Jolas	-10.7297
▁softwarea	-10.7299
▁txikiago	-10.7299
▁naizenean	-10.7299
▁pentsatuko	-10.7309
teria	-10.7311
▁Indiako	-10.7314
▁Gra	-10.7316
▁lurraldea	-10.7318
DI	-10.7319
▁mendeko	-10.732
▁Horretan	-10.7322
cu	-10.7323
enetako	-10.7327
rre	-10.7331
▁poz	-10.7332
▁aipatutako	-10.7332
▁Kanpoko	-10.7333
▁Euskara	-10.7334
▁erregistro	-10.7337
▁sarbide	-10.7337
▁goxo	-10.7337
▁agintari	-10.7339
▁zuei	-10.7339
▁Erraza	-10.734
▁maisu	-10.7344
▁Burua	-10.7344
run	-10.7348
pon	-10.7348
ges	-10.7348
▁ostatu	-10.7349
▁ikustean	-10.7353
▁zaizun	-10.7353
▁Bisita	-10.7354
▁gaixotasuna	-10.7357
▁ertz	-10.7366
▁Rock	-10.7367
▁herritarren	-10.7368
▁liburuan	-10.7369
arentzako	-10.7369
▁Klase	-10.737
▁Barne	-10.737
▁Eskubide	-10.7371
▁mahaian	-10.7372
▁bezalakoak	-10.7374
▁eztabaidatu	-10.7379
▁mintzatzen	-10.738
▁hartako	-10.7381
▁egizu	-10.7381
▁azaleko	-10.7382
▁Maitasuna	-10.7384
▁Barre	-10.7388
▁administra	-10.739
nte	-10.7391
▁gaiak	-10.7392
gon	-10.7393
▁salto	-10.7396
▁hautsa	-10.7396
▁gauzarik	-10.7397
▁Munduan	-10.7398
▁Batzordeak	-10.7399
rd	-10.74
▁Iaz	-10.74
▁Aire	-10.7401
▁Unibertsitate	-10.7403
▁oroitzen	-10.7407
▁Nagusi	-10.7407
ser	-10.741
cho	-10.7414
▁motorra	-10.7416
▁presio	-10.7421
▁banan	-10.7421
end	-10.7421
▁jasaten	-10.7424
▁berritu	-10.7425
▁base	-10.7428
▁arraro	-10.743
berria	-10.7432
▁negarrez	-10.7435
▁bertze	-10.7437
Ta	-10.7438
▁lagin	-10.7443
▁etapa	-10.7445
ratzeko	-10.7445
▁ordaintzeko	-10.7445
▁desgaitu	-10.7446
▁Guraso	-10.7447
▁kalkulu	-10.7448
Comment	-10.7449
▁ospatzeko	-10.745
eria	-10.7454
▁paketea	-10.7457
▁lankidetza	-10.7457
▁genuela	-10.7462
#	-10.7462
▁Alda	-10.7465
pres	-10.7466
Gehitu	-10.7468
▁Goiz	-10.747
bus	-10.7472
▁Baimena	-10.7472
▁azalera	-10.7472
▁zituztela	-10.7476
ura	-10.7476
▁plazer	-10.7477
▁tasa	-10.7478
▁script	-10.7482
▁hausnarketa	-10.7483
▁bidal	-10.7486
▁Ali	-10.7486
▁global	-10.7488
▁errezeta	-10.749
▁Azalpena	-10.7495
▁argiak	-10.7495
ama	-10.7496
bis	-10.7496
▁Forma	-10.7497
▁iraungi	-10.7501
▁komertzial	-10.7502
▁arduradun	-10.7504
▁abestia	-10.7516
▁Artista	-10.7517
gt	-10.7519
▁Ver	-10.7519
▁elurra	-10.7521
▁kanala	-10.7522
▁diskoan	-10.7522
▁Trepeta	-10.7523
▁irakasleak	-10.7523
▁dogu	-10.7523
▁sendoa	-10.7528
▁Ontzi	-10.7528
▁Az	-10.7533
▁larriak	-10.7538
▁edonon	-10.7539
▁gurasoen	-10.7539
▁baliagarria	-10.7544
▁Chi	-10.7547
▁aurrerapen	-10.755
▁fotograma	-10.7552
▁ezabatzeko	-10.7553
▁motel	-10.7555
▁Cha	-10.7558
▁hustu	-10.7561
▁salgai	-10.7562
▁diferentzia	-10.7563
▁ero	-10.7564
▁handiagoak	-10.7566
ny	-10.7568
▁gozo	-10.7573
▁kontratua	-10.7577
▁Max	-10.7577
▁gidari	-10.7579
▁zail	-10.758
▁Batu	-10.7582
▁DOKUMENTU	-10.7583
);	-10.7584
▁erloju	-10.7584
▁Erro	-10.7588
▁zaintza	-10.7591
ü	-10.7592
▁Arma	-10.7593
▁zigortu	-10.7597
▁Allah	-10.76
▁hiriaren	-10.76
kur	-10.7601
bul	-10.7601
▁orduak	-10.7601
▁Grabatu	-10.7605
▁lurraren	-10.7607
bio	-10.7607
▁mutila	-10.7617
dua	-10.7619
▁moral	-10.762
▁sua	-10.7621
om	-10.7624
▁hauteskundeak	-10.7624
▁xake	-10.7625
▁jasotzea	-10.7627
▁Sare	-10.7627
puntu	-10.7627
▁name	-10.7629
▁z	-10.7631
▁arraza	-10.7637
▁banda	-10.764
▁Wikipedia	-10.7641
▁gizonek	-10.7642
ius	-10.7647
▁bio	-10.7651
wi	-10.7654
▁genion	-10.7657
▁elkartzen	-10.7657
▁antzerki	-10.7659
▁Kamera	-10.7661
▁dirurik	-10.7661
▁Alemanian	-10.7664
▁robot	-10.767
▁eguraldi	-10.767
▁eran	-10.7671
▁mikro	-10.7672
▁zeruan	-10.7673
▁izatearen	-10.7674
▁Nibbles	-10.7674
▁urtebetetzea	-10.7675
koadro	-10.7678
▁masa	-10.7679
log	-10.7681
▁zailagoa	-10.7683
▁metodoa	-10.7683
▁kultur	-10.7684
▁hamaika	-10.7684
▁zintzoa	-10.7695
▁samarra	-10.7696
▁unetan	-10.7697
▁gainontzeko	-10.7698
ford	-10.7699
▁lorategi	-10.7703
▁lurrikara	-10.7708
▁hartutako	-10.7708
▁materia	-10.771
▁Aurretik	-10.7712
informazioa	-10.7716
▁jokatuko	-10.772
▁hamarkada	-10.7723
▁moldatzen	-10.7726
▁Bill	-10.7732
▁38	-10.7734
▁printze	-10.7735
kizun	-10.7736
mak	-10.7736
▁Com	-10.7737
ai	-10.7737
sor	-10.7737
▁Markatu	-10.774
▁Euro	-10.774
▁pu	-10.7744
▁kontratatu	-10.7745
▁Segi	-10.7747
▁Argibide	-10.7747
▁Guztiz	-10.775
▁emozio	-10.775
Lan	-10.7752
▁artikuluak	-10.7754
▁gazta	-10.7756
burua	-10.7756
▁metal	-10.7757
▁XML	-10.7762
▁mezuen	-10.7762
▁bukaeran	-10.7763
▁Datuak	-10.7764
Non	-10.7765
▁Instalatu	-10.7767
▁inprimatu	-10.7771
osa	-10.7775
▁desio	-10.7776
gg	-10.7777
▁txikien	-10.7778
▁garatzeko	-10.7779
▁Zeregin	-10.778
▁Port	-10.7781
▁Italiako	-10.7784
istek	-10.7787
▁Babes	-10.7791
▁hango	-10.7794
▁eszena	-10.7795
esta	-10.7796
ntzia	-10.7797
▁ulertzea	-10.7801
▁emazteak	-10.7802
▁irekitzean	-10.7805
▁ekoizle	-10.7806
▁zenuela	-10.7807
uak	-10.7809
▁zentzua	-10.781
pre	-10.7811
▁ertza	-10.7814
▁Herria	-10.7815
ilo	-10.7818
▁Gustatzen	-10.7819
▁hizkuntzak	-10.7822
ERA	-10.7822
roa	-10.7823
▁errepide	-10.7824
▁etsaia	-10.7826
▁Eguzkia	-10.7827
$	-10.7828
▁senda	-10.7832
▁Mugitu	-10.7832
▁sendatu	-10.7834
▁Kristoren	-10.7834
▁eskaintzeko	-10.7836
▁oporrak	-10.7836
▁filosofo	-10.7837
▁Txi	-10.7837
▁Eska	-10.7838
Ko	-10.7838
▁burura	-10.784
▁bear	-10.784
▁Egiten	-10.7842
▁Begiak	-10.7842
▁bagenu	-10.7843
▁babeskopia	-10.7843
rro	-10.7846
▁sentituko	-10.7846
▁Beraien	-10.7848
▁Nagusia	-10.785
▁egile	-10.7851
uka	-10.7858
▁men	-10.7861
▁Fitxategiak	-10.7864
▁pean	-10.7865
▁jabetu	-10.7868
▁bilakatzen	-10.7868
▁buruak	-10.7872
▁Proba	-10.7873
▁ministro	-10.7874
▁gaueko	-10.7875
▁adar	-10.7875
▁Adierazpen	-10.7876
cha	-10.7876
▁ezaugarriak	-10.7877
egoera	-10.7878
▁gaudela	-10.7881
▁plano	-10.7884
pil	-10.789
IT	-10.7892
mal	-10.7893
▁etorria	-10.7893
▁Ulertzen	-10.7893
▁existentzia	-10.7895
▁Ondorengo	-10.7898
▁eusten	-10.7898
▁tu	-10.7902
▁dizkizu	-10.7905
▁moderno	-10.7905
▁esperimentu	-10.7909
▁lanbide	-10.791
vin	-10.7912
▁adibidea	-10.7914
▁mugatu	-10.7916
▁artxiboa	-10.7916
▁aparte	-10.7918
▁hiztegi	-10.7918
uen	-10.7925
▁Gurekin	-10.7925
▁Baso	-10.7926
▁konta	-10.7933
kera	-10.7937
▁alboan	-10.7938
▁taxi	-10.7938
▁politikoak	-10.7939
▁digitala	-10.7941
▁Erreferentzia	-10.7941
▁izu	-10.7945
▁konektatuta	-10.7947
▁zentral	-10.7947
urte	-10.795
sare	-10.7951
all	-10.7958
rrean	-10.7959
▁zentzurik	-10.796
laguntza	-10.7961
▁ordenatu	-10.7963
ket	-10.7965
▁hondartza	-10.7965
▁Super	-10.7965
▁janzten	-10.7968
▁handien	-10.7973
▁irabazle	-10.7973
tx	-10.7973
ney	-10.7976
▁ontzia	-10.7977
▁arrakastatsua	-10.7978
nio	-10.7979
▁Louis	-10.798
▁Street	-10.798
▁istorioak	-10.7984
con	-10.7988
tibo	-10.7988
kudeatzailearen	-10.7988
▁botako	-10.7992
izatzen	-10.7993
▁fokua	-10.7996
▁hortzak	-10.7996
▁Ge	-10.7997
▁Mary	-10.7998
▁margotu	-10.7999
▁oztopo	-10.8
tari	-10.8001
adibidez	-10.8003
▁errespetatzen	-10.8003
▁hiritar	-10.8007
▁album	-10.8009
▁URL	-10.801
▁bizitzak	-10.8013
▁zama	-10.8016
▁Alegia	-10.8016
▁ikurra	-10.8017
▁eskertzen	-10.8019
▁BA	-10.8019
▁gainditzen	-10.8019
▁Italia	-10.8019
▁Estatuko	-10.802
tresna	-10.8023
UN	-10.8025
▁bilatzea	-10.8025
▁nekez	-10.8026
mes	-10.8027
▁Poliziak	-10.8029
▁ekoizten	-10.803
▁zareten	-10.8034
▁plater	-10.8035
▁Sareko	-10.8035
▁Bueno	-10.8035
▁Zinema	-10.8036
▁idazlea	-10.8039
▁ederki	-10.8039
▁bale	-10.8048
dore	-10.8048
▁erra	-10.8049
▁izateaz	-10.805
An	-10.8052
▁gaitza	-10.8053
▁Proiektua	-10.8057
23	-10.8058
▁puntua	-10.8059
▁domeinu	-10.8059
▁buruarekin	-10.8061
▁izateagatik	-10.8063
▁marrazki	-10.8064
pp	-10.8064
▁telebistan	-10.8067
▁Sha	-10.8068
▁Adi	-10.8071
▁Gaixotasun	-10.8073
▁Antzinako	-10.8074
▁bonba	-10.8076
▁kontrolatzeko	-10.8079
▁indarrean	-10.8082
gako	-10.8087
▁iragazkia	-10.8088
▁Jarraian	-10.8088
▁zoritxarrez	-10.8089
▁bakarreko	-10.8094
▁Zahar	-10.8098
▁garapena	-10.8099
Erakutsi	-10.8101
▁Terminal	-10.8105
▁Os	-10.8108
17	-10.8111
▁senti	-10.8111
▁txi	-10.8117
▁luzeak	-10.8117
▁dizkizut	-10.8119
RE	-10.8124
▁Autobus	-10.8125
▁pasatzeko	-10.8135
▁lehendabiziko	-10.8137
▁para	-10.8138
▁atzeratu	-10.8139
▁Gizaki	-10.8139
▁EMATEN	-10.8139
▁milioika	-10.8142
▁zeinen	-10.8142
une	-10.8145
▁organo	-10.8145
▁lokala	-10.8147
▁Ederra	-10.8147
▁Ken	-10.8147
▁minbizia	-10.8147
▁pena	-10.8149
ph	-10.815
pur	-10.815
▁hezur	-10.8151
▁hauta	-10.8153
keri	-10.8158
▁Gizonaren	-10.8158
▁gizartean	-10.8164
▁guztiontzat	-10.8164
▁gertatutakoa	-10.8165
▁bezeroei	-10.8167
▁bu	-10.8168
▁r	-10.8169
▁nekatu	-10.8169
▁Jarduera	-10.8169
▁Inc	-10.817
TE	-10.8172
▁epaitu	-10.8178
▁Botoi	-10.8181
▁gobernua	-10.8182
ndo	-10.8185
▁ezarpena	-10.8185
▁Taldeak	-10.8185
▁Sor	-10.8185
▁Tarte	-10.8186
▁erosketak	-10.8187
age	-10.8189
▁Kreditu	-10.819
▁sen	-10.8192
brand	-10.8194
▁Arratsalde	-10.8194
lis	-10.8194
pat	-10.8195
▁arrastatu	-10.8199
▁dezu	-10.8201
eraino	-10.8202
sorta	-10.8203
▁sufritu	-10.8205
▁King	-10.8209
▁azkenengo	-10.8211
▁dakizue	-10.8212
Erre	-10.8213
Editatu	-10.8218
▁Liburutegi	-10.8224
odo	-10.8224
▁hobetzea	-10.8225
ult	-10.8226
ros	-10.8226
▁Iz	-10.8228
▁egokian	-10.823
▁Washington	-10.8231
▁kostu	-10.8232
▁Nazionala	-10.8232
▁am	-10.8234
▁Neuk	-10.8235
ketetan	-10.8236
▁lehendakari	-10.8237
▁Segurtasuna	-10.8238
▁Leihoa	-10.8241
▁faltsua	-10.8244
▁gaitzeko	-10.8245
▁zorrotz	-10.8255
IS	-10.8257
▁auzi	-10.8257
▁hitzik	-10.8258
▁Etorkizuna	-10.8261
▁kantatzen	-10.8261
▁Itzulpen	-10.8265
inak	-10.8267
alaben	-10.8269
▁kargatzean	-10.8273
▁Dis	-10.8273
▁konplexu	-10.8274
▁Col	-10.8275
fu	-10.8277
▁erreakzio	-10.8279
▁hauts	-10.828
▁ohera	-10.828
▁Baldintza	-10.8281
38	-10.8283
▁Frank	-10.8284
▁Android	-10.8286
▁ematera	-10.8286
▁baimenak	-10.8286
ngo	-10.8292
▁Par	-10.8292
▁puntuak	-10.8292
▁pantailaren	-10.8294
▁sinplea	-10.8296
▁onean	-10.83
gizon	-10.8301
▁zinateke	-10.8301
▁Has	-10.8302
▁honakoa	-10.8302
▁esparru	-10.8305
▁1999	-10.8306
▁erreforma	-10.8307
▁ohikoa	-10.8307
-8	-10.8309
▁Izar	-10.8311
▁akatsak	-10.8312
▁Bateria	-10.8312
▁Sch	-10.8313
▁Urteko	-10.8313
▁deskribatzen	-10.8314
07	-10.8317
▁zikin	-10.8318
▁honentzat	-10.8319
▁ohean	-10.8319
▁irabazlea	-10.8319
▁Askok	-10.8321
▁Simon	-10.8324
ep	-10.8324
▁gizartea	-10.8324
▁gazteek	-10.8325
▁Plugin	-10.8325
▁atzerriko	-10.8329
▁medikuak	-10.8329
tso	-10.8334
▁lurperatu	-10.8335
▁Mr	-10.8336
berg	-10.8338
▁heroi	-10.8338
▁Mag	-10.834
▁goiburua	-10.8342
▁aholkuak	-10.8344
▁erasoa	-10.8346
▁Hegoaldeko	-10.835
▁txakurrak	-10.835
▁kidea	-10.835
▁poza	-10.835
▁azalpena	-10.8354
▁hitzordua	-10.8357
▁sustatu	-10.8358
atzaile	-10.8359
▁espainiar	-10.8359
▁aztertzeko	-10.836
▁Paper	-10.8361
▁Zubi	-10.8363
▁sinisten	-10.8363
▁zerbitzariaren	-10.8365
▁bil	-10.8366
▁frantses	-10.8367
▁ditudala	-10.837
▁hartuz	-10.8372
▁etxeak	-10.8372
art	-10.8374
▁Azterketa	-10.8377
To	-10.8379
▁Igo	-10.8381
▁Proiektuaren	-10.8382
▁Merezi	-10.8383
▁aurkezpen	-10.8384
gui	-10.8387
katzeko	-10.839
▁gaituzu	-10.8391
▁Saioa	-10.8391
▁ibil	-10.8393
▁goitik	-10.8394
▁Oh	-10.8395
dian	-10.8396
ant	-10.8399
▁Sir	-10.8401
▁edonor	-10.8402
▁eroso	-10.8402
▁tradizio	-10.8404
ou	-10.8404
▁pozten	-10.8406
▁aparteko	-10.8407
sarrera	-10.8407
erri	-10.8408
▁Guztia	-10.8417
▁zertaz	-10.8419
▁Edonola	-10.8419
▁Pri	-10.8422
▁Mapa	-10.8427
▁gutxira	-10.8428
▁Adibide	-10.8428
▁Val	-10.843
▁gordetzean	-10.8431
▁problema	-10.8434
▁Bir	-10.8438
▁kosta	-10.8438
▁Cu	-10.8439
▁Horretaz	-10.8439
▁Udako	-10.844
nia	-10.844
▁nator	-10.8442
▁argitaratzen	-10.8443
▁bidalitako	-10.8444
▁Bihotz	-10.8449
gia	-10.8449
▁itzulpen	-10.845
▁Gustatu	-10.8453
▁Ordena	-10.8453
▁zikina	-10.8453
ude	-10.8455
BA	-10.8458
▁berrogeita	-10.8458
▁sistemako	-10.8461
▁Unitate	-10.8462
▁(0	-10.8462
Beti	-10.8469
▁Mas	-10.8472
▁Cal	-10.8473
Stock	-10.8474
▁eragindako	-10.848
▁ezkerrean	-10.8481
90	-10.8488
▁ausartu	-10.849
▁Sari	-10.8491
lehen	-10.8493
tarrek	-10.8497
▁Egiptoko	-10.8498
▁egoeran	-10.8499
cc	-10.85
▁baditugu	-10.8501
pal	-10.8502
▁Erakusketa	-10.8502
▁nuenean	-10.8502
▁Win	-10.8504
▁estatua	-10.8505
▁eskailera	-10.8507
▁kokatuta	-10.8508
well	-10.8509
▁nekatuta	-10.8509
Joan	-10.851
▁ikastaro	-10.8511
garritasuna	-10.8511
▁amari	-10.8512
mit	-10.8514
Ber	-10.8514
▁demokratiko	-10.8514
mun	-10.8516
▁Garbi	-10.8516
▁sorpresa	-10.8517
▁hautapen	-10.8519
▁Ate	-10.8521
▁Ekitaldi	-10.8522
▁Sistemaren	-10.8524
rtu	-10.8525
▁erakundeak	-10.8526
posta	-10.8526
▁gustoko	-10.8527
▁faltsu	-10.8528
▁zerrendaren	-10.8528
▁atzerritar	-10.8529
▁Irudiak	-10.853
▁konderrian	-10.8532
▁BESTE	-10.8532
▁herrialdea	-10.8533
▁zinela	-10.8535
▁terminal	-10.8543
rru	-10.8544
▁faktura	-10.8548
▁haragia	-10.8554
▁Aurpegi	-10.8556
▁lodi	-10.8557
▁komunikazioa	-10.8558
▁Bideoa	-10.856
▁Sun	-10.856
▁Jai	-10.8561
▁Eguberri	-10.8564
▁400	-10.8564
textat	-10.8565
▁bukatuko	-10.8566
▁Israelen	-10.8567
▁iritziz	-10.8567
37	-10.8568
▁zoriontasuna	-10.8569
▁Abesti	-10.857
▁Gune	-10.857
▁eskatzea	-10.8575
▁diozue	-10.8575
mendi	-10.858
▁katu	-10.858
▁ecen	-10.8583
▁Bidea	-10.8583
▁75	-10.8584
▁misterio	-10.8584
▁batengatik	-10.8586
▁Aukerak	-10.859
▁gastatu	-10.859
▁nien	-10.859
Sa	-10.8591
▁kodeketa	-10.8591
▁1980	-10.8591
▁desberdinetan	-10.8591
▁osoak	-10.8592
argi	-10.8593
▁Ya	-10.8597
▁jokalariak	-10.86
▁berriketa	-10.86
▁iraunkorra	-10.8601
▁protesta	-10.8603
▁Star	-10.8606
▁erreal	-10.8607
▁hartaz	-10.8608
▁Ibai	-10.861
▁erromatar	-10.8611
▁Jarrai	-10.8612
▁Amazon	-10.8615
▁erakarri	-10.8618
▁Hari	-10.8621
▁espetxe	-10.8622
▁gorako	-10.8623
▁egunera	-10.8624
▁fitxak	-10.8624
▁ger	-10.8627
75	-10.8629
▁areagotu	-10.8633
▁bizitzera	-10.8637
▁goizeko	-10.8638
▁ekarpen	-10.8639
▁izenarekin	-10.864
▁dugulako	-10.8641
▁bazaizu	-10.8643
▁elkartuko	-10.8643
▁Gaztelu	-10.8646
▁gehiagorik	-10.8647
baina	-10.8648
▁dioen	-10.8648
Su	-10.8649
▁Robot	-10.865
▁bisitatzen	-10.865
▁hilabeteetan	-10.865
▁ase	-10.8651
39	-10.8653
nolako	-10.8654
▁halere	-10.8659
▁zitzaigun	-10.866
▁Santua	-10.866
▁Nu	-10.866
▁mugikor	-10.8662
Le	-10.8663
esti	-10.8664
tikoak	-10.8666
argia	-10.8666
ieraz	-10.8666
▁Mantendu	-10.8669
▁paleta	-10.867
▁ezkutuko	-10.8673
▁orduz	-10.8674
▁orok	-10.8674
▁gi	-10.8675
▁hu	-10.8678
▁Poz	-10.8679
▁dezazun	-10.868
▁puntuazioa	-10.8683
▁Pentsatzen	-10.8684
▁errespetua	-10.8686
symbol	-10.8689
▁Odol	-10.8697
▁historikoa	-10.8699
▁Umeak	-10.8703
▁grafiko	-10.8703
▁dudalako	-10.8705
ldia	-10.8709
▁Hol	-10.8709
▁zirkulu	-10.8714
▁definizio	-10.8714
orria	-10.8717
▁bor	-10.8718
▁alabak	-10.8719
▁Negozio	-10.8722
▁irabaziko	-10.8723
▁bihur	-10.8724
burg	-10.8724
cal	-10.8725
ome	-10.8726
▁Iritsi	-10.8727
▁naz	-10.8728
▁gutuna	-10.8728
▁materiala	-10.873
▁sufritzen	-10.873
▁1998	-10.8733
ica	-10.8733
ev	-10.8736
ther	-10.8738
▁sarea	-10.8739
▁Haurren	-10.8739
▁sorrera	-10.8741
▁Baimendu	-10.8746
▁interfaze	-10.8747
▁euroko	-10.8752
▁gehienbat	-10.8753
▁Ed	-10.8754
▁bideoak	-10.8756
▁Eduki	-10.8759
▁izeba	-10.8759
▁idatziko	-10.876
araztea	-10.876
▁Jaunari	-10.876
▁abian	-10.8761
▁Mc	-10.8761
▁Amaiera	-10.8762
▁Donostia	-10.8763
datzen	-10.8763
▁Deskarga	-10.8764
▁Galde	-10.8764
▁eskertu	-10.8765
▁Komunikazio	-10.8765
▁aktibatu	-10.877
mas	-10.877
▁tona	-10.8772
▁iturburua	-10.8773
sis	-10.8775
fil	-10.8775
▁zeinak	-10.8775
▁efektua	-10.8775
▁lortutako	-10.8777
▁berrian	-10.8777
▁amaierako	-10.8778
▁esleitu	-10.8779
—.	-10.8781
ill	-10.8785
int	-10.8789
▁saltzaile	-10.8789
able	-10.879
▁ezabatzea	-10.879
▁lituzke	-10.879
stro	-10.8794
ketaren	-10.8794
▁daukagun	-10.8796
▁aireportu	-10.8797
▁hegoaldeko	-10.8797
▁Bildu	-10.8798
▁Kolorea	-10.8798
09	-10.8803
De	-10.8804
ente	-10.8805
▁isildu	-10.8807
▁bedeinkatu	-10.8809
▁iturria	-10.8809
▁zaintzeko	-10.881
▁Nautilus	-10.8813
atua	-10.8816
▁Harreman	-10.8816
▁Jokoak	-10.8818
▁postu	-10.8821
argazkia	-10.8821
lor	-10.8822
▁bazkaria	-10.8823
lariak	-10.8823
▁garagardo	-10.8825
▁Zo	-10.8826
SI	-10.8826
dea	-10.8827
▁ekintzaile	-10.8827
▁Minutu	-10.8829
▁gaiztoa	-10.8832
▁gitarra	-10.8832
▁eguraldia	-10.8833
▁lehertu	-10.8835
▁segitzen	-10.8835
doa	-10.8836
▁bururatu	-10.8837
▁zoriontsua	-10.8839
▁dokumentazio	-10.8839
▁erantzutea	-10.8839
▁hamabost	-10.8839
▁hitzordu	-10.884
Re	-10.8842
▁elur	-10.8845
▁Gehien	-10.8845
▁42	-10.8848
▁hegazti	-10.8848
ano	-10.8849
▁Biltegi	-10.8852
▁guda	-10.8853
▁Akademia	-10.8856
▁zenidan	-10.8857
▁altxorra	-10.8859
▁liburuaren	-10.886
▁makurtu	-10.8862
US	-10.8862
▁Kanadako	-10.8864
tatzea	-10.8865
▁erabakiko	-10.8865
Lehen	-10.8866
katze	-10.8866
bon	-10.8867
gal	-10.8868
▁arretaz	-10.8871
▁kenduko	-10.8872
▁zinez	-10.8872
▁Zoaz	-10.8875
▁jolasteko	-10.8878
▁kaltetu	-10.8882
▁arrautza	-10.8882
Kon	-10.8883
▁Antonio	-10.8887
▁Hiria	-10.8892
▁publikoaren	-10.8893
▁dizun	-10.8895
▁jarraipen	-10.8896
▁hezi	-10.8897
▁gol	-10.8897
▁Orokorrean	-10.8899
▁hilabeteko	-10.8899
▁matematika	-10.8901
pli	-10.8902
takoan	-10.8903
▁hel	-10.8904
▁Pribatutasun	-10.8906
▁PC	-10.8906
ilu	-10.8908
▁Ag	-10.8914
▁plastiko	-10.8914
tzetik	-10.8914
eman	-10.8916
▁ezkero	-10.8916
tis	-10.8919
▁hutsegite	-10.892
zioak	-10.8923
▁Iparraldeko	-10.8925
▁independente	-10.8926
noa	-10.8927
low	-10.8927
▁bedi	-10.8928
▁Gas	-10.893
formatua	-10.893
▁topatuko	-10.8931
▁kart	-10.8931
▁altua	-10.8932
▁kilo	-10.8933
▁bidalketa	-10.8937
▁Laugarren	-10.8938
▁sumatzen	-10.8938
▁onen	-10.8939
▁Lotura	-10.894
▁My	-10.8945
35	-10.8948
▁ikertzen	-10.895
▁ohartarazi	-10.8953
▁Fo	-10.8954
▁Judu	-10.8958
▁Bra	-10.8959
▁kan	-10.8959
aldian	-10.896
▁inguratu	-10.896
▁erretiratu	-10.8964
tun	-10.897
▁Cl	-10.8971
▁bagara	-10.8972
▁egokitzen	-10.8975
▁lehenengoa	-10.8978
▁zeinek	-10.8979
▁konpromiso	-10.8979
bas	-10.8981
▁grazia	-10.8981
▁aintzat	-10.8982
▁Pas	-10.8987
▁Batuko	-10.8991
▁atributu	-10.8994
behineko	-10.8994
▁Itzul	-10.8996
▁etzan	-10.8996
▁kabuz	-10.8996
▁ardi	-10.8997
▁interesgarriak	-10.8997
TU	-10.8998
▁digun	-10.8999
teke	-10.9
▁beterik	-10.9003
▁bihotzak	-10.9006
▁♪	-10.9007
▁Sarrerako	-10.9009
dei	-10.9009
▁lekurik	-10.901
▁neurriak	-10.9011
▁aingeru	-10.9011
ong	-10.9015
▁igeri	-10.9015
▁dosi	-10.9016
zenbakia	-10.9019
▁gizakien	-10.9019
▁zalantzak	-10.902
▁begiratzea	-10.9021
▁utzita	-10.9025
▁Estrategia	-10.9025
▁baitzuten	-10.9029
▁erregularra	-10.903
▁erreala	-10.9031
▁gaituen	-10.9033
▁Zaindu	-10.904
iturri	-10.9042
04	-10.9044
lua	-10.905
▁Tur	-10.9051
47	-10.9053
▁gordeta	-10.9054
▁Mexiko	-10.9055
Ondo	-10.9055
▁magikoa	-10.9055
Di	-10.9056
▁Sinadura	-10.9057
▁gelaxka	-10.9059
▁nauen	-10.9062
MA	-10.9063
▁aliatu	-10.9064
▁bira	-10.9065
▁ministroa	-10.9065
▁identitatea	-10.9066
▁berezirik	-10.9069
▁pan	-10.9072
▁txarrena	-10.9072
▁(...)	-10.9074
ud	-10.9075
▁izarrak	-10.9076
▁dauzkagu	-10.9077
▁baititu	-10.9078
▁sail	-10.9078
▁korronte	-10.9079
26	-10.9081
▁Open	-10.9083
▁kostua	-10.9083
48	-10.9085
▁biziki	-10.9092
▁pilota	-10.9092
\.	-10.9097
▁Egutegia	-10.9098
keriak	-10.9101
▁zoriona	-10.9103
▁Angel	-10.9103
▁lagunen	-10.9104
▁identifikatzen	-10.9105
ifikatu	-10.9106
▁Hegazkin	-10.9108
▁ederrena	-10.9108
▁Esteka	-10.9108
▁darama	-10.9109
▁okerreko	-10.9109
▁maitatzen	-10.911
▁larunbat	-10.9111
▁kezkatuta	-10.9112
▁balego	-10.9113
▁Poli	-10.9114
▁EH	-10.9115
▁garestia	-10.9116
▁Erabiltzailea	-10.9117
▁Richard	-10.9118
▁Komunitate	-10.9119
▁formatuan	-10.9119
tzar	-10.9119
▁onura	-10.9122
▁gurutzatu	-10.9123
▁Dar	-10.9123
▁oinarriak	-10.9124
▁Geure	-10.9126
Egia	-10.9126
ario	-10.9127
▁ikasleei	-10.9139
▁zaituztegu	-10.9142
▁con	-10.9144
▁segitu	-10.9145
▁futbola	-10.9147
▁Zerbitzuak	-10.9148
eb	-10.915
▁nabari	-10.9151
Do	-10.9152
▁beldurrez	-10.9154
▁Eu	-10.9156
▁Indian	-10.916
▁armatu	-10.916
▁basati	-10.9161
▁Klima	-10.9163
▁Liga	-10.9166
▁herritarrek	-10.9168
kortasun	-10.9169
gura	-10.9169
▁zineten	-10.917
▁Kutxa	-10.917
Ur	-10.9172
▁busti	-10.9172
▁poliki	-10.9174
▁zereginak	-10.9175
▁erlijioso	-10.9175
▁gizartearen	-10.9178
▁Che	-10.9179
GA	-10.9182
▁Ezezaguna	-10.9185
▁liburutegia	-10.9187
▁BEHAR	-10.9189
▁onartzeko	-10.9194
▁euri	-10.9194
▁Indar	-10.9197
▁harrituta	-10.9198
▁argibideak	-10.9199
▁gene	-10.9199
▁iruzur	-10.9201
▁txukun	-10.9201
▁udan	-10.9204
▁Txikia	-10.9205
▁bigarrena	-10.9205
▁eskatutako	-10.9206
mailako	-10.9209
▁hedatzen	-10.9209
▁Men	-10.921
▁aprobetxatu	-10.921
▁bermatu	-10.9211
▁hondatuta	-10.9212
▁lapur	-10.9214
▁erakargarria	-10.9215
puntua	-10.9215
▁Lehenago	-10.9216
▁erlijioa	-10.9216
▁ehunka	-10.9221
txiki	-10.9225
▁co	-10.9225
▁2:	-10.9226
▁satelite	-10.9228
▁ospetsu	-10.9229
▁Jaitsi	-10.9231
▁ezkon	-10.9232
▁klasikoa	-10.9235
idazu	-10.9236
Jo	-10.9237
▁berehalako	-10.9238
▁ausarta	-10.9239
▁atmosfera	-10.9239
▁eraginez	-10.924
uko	-10.924
▁Tekla	-10.9241
▁nekazari	-10.9244
▁betez	-10.9245
atzea	-10.9246
▁hodei	-10.9246
▁prozesuaren	-10.9248
ay	-10.925
▁ukan	-10.9251
▁fruta	-10.9255
▁eragingo	-10.9258
▁ISO	-10.9259
▁Pin	-10.926
▁konfiguratu	-10.9262
▁Turismo	-10.9263
▁saguaren	-10.9263
▁merkatuan	-10.9266
▁Gizonak	-10.9267
▁oreka	-10.9268
▁Pozten	-10.9269
▁opa	-10.927
▁Erabat	-10.9271
▁loreak	-10.9273
▁globala	-10.9281
▁kontatzeko	-10.9282
▁dien	-10.9286
▁Baldin	-10.9288
▁KALTE	-10.929
▁zenbatekoa	-10.929
▁Biratu	-10.929
Po	-10.9292
▁bizimodu	-10.9296
▁World	-10.9298
▁Museo	-10.93
▁hurren	-10.93
zure	-10.9303
part	-10.9305
▁Kale	-10.9308
▁Van	-10.9313
tzaileen	-10.9313
▁aplikazioaren	-10.9313
bro	-10.9315
▁protagonista	-10.9315
ning	-10.9317
▁Medikuntza	-10.9319
retara	-10.932
▁info	-10.9324
▁Zalantza	-10.9325
▁hun	-10.9326
▁37	-10.9327
▁agenda	-10.9329
▁Adin	-10.933
cia	-10.9331
▁judu	-10.9332
▁Joseph	-10.9335
▁kamioi	-10.9336
▁Bulego	-10.934
▁Ikastetxe	-10.9341
▁Uharte	-10.9343
▁didan	-10.9346
▁ziklo	-10.9346
▁enkriptatze	-10.9348
▁ordezko	-10.9348
▁Afrikan	-10.9348
▁presidenteak	-10.9351
▁erabiltzaileen	-10.9351
▁dagokio	-10.9354
▁diozun	-10.9355
▁poliziak	-10.9356
del	-10.9359
tel	-10.936
gua	-10.936
▁frantziar	-10.9361
▁Christ	-10.9367
lus	-10.9368
spe	-10.9368
▁akaso	-10.9369
▁arra	-10.9369
▁tribu	-10.937
▁Erakunde	-10.9371
▁atzerapena	-10.9373
▁Merkatu	-10.9378
Or	-10.9378
▁\	-10.9382
▁desira	-10.9383
▁rock	-10.9383
▁Bikote	-10.9384
▁Ex	-10.9384
▁esnea	-10.9385
▁kostatzen	-10.9385
Bat	-10.9386
▁Tor	-10.9386
▁vi	-10.9386
▁zo	-10.9387
▁Beltza	-10.9387
▁aholkularitza	-10.9387
▁igorri	-10.939
rreko	-10.9391
▁Etxebizitza	-10.9392
▁ito	-10.9393
▁langileen	-10.9394
▁Bio	-10.9397
▁Egipto	-10.9398
▁zuzendaritza	-10.9401
▁Eguraldi	-10.9401
▁aktibatuta	-10.9405
▁mahaigaina	-10.9407
▁erantzule	-10.9409
▁artetik	-10.9409
▁moda	-10.941
▁besteei	-10.9411
▁margo	-10.9413
▁Argazkiak	-10.9413
▁agente	-10.9415
▁her	-10.9417
▁batzu	-10.9419
▁erakartzen	-10.942
▁geltoki	-10.9421
▁Fitxa	-10.9422
nor	-10.9423
Hor	-10.9425
for	-10.9426
▁Erroma	-10.9427
▁gelditzeko	-10.9427
aldatu	-10.9427
▁mal	-10.9428
▁gonbidatzen	-10.9428
inen	-10.9429
▁mai	-10.943
▁dozu	-10.943
▁Puntuazioa	-10.9431
▁pribatutasun	-10.9432
▁puta	-10.9432
▁bidai	-10.9432
▁deabru	-10.9433
▁Futbol	-10.9435
▁1:	-10.9437
▁Erraz	-10.9439
▁gra	-10.944
▁kontraesan	-10.9441
Be	-10.9445
▁dabilen	-10.9446
▁Finantza	-10.9447
▁haundi	-10.9448
▁norberaren	-10.945
▁Azaldu	-10.9451
set	-10.9454
▁Besteak	-10.9455
▁aitari	-10.9455
▁neke	-10.9455
▁dezaketen	-10.9455
iano	-10.9456
olo	-10.9457
▁begien	-10.9459
car	-10.9462
usa	-10.9463
▁alai	-10.9464
▁ardatz	-10.9464
▁gizonaren	-10.9465
▁Im	-10.9469
▁lehendakaria	-10.9474
▁gustu	-10.9475
▁bazina	-10.9475
▁jarduerak	-10.9476
▁ei	-10.9477
▁egiteak	-10.9479
▁maskara	-10.9479
▁kalkulatzen	-10.9486
iza	-10.9486
▁zorrotza	-10.9488
▁iristea	-10.9489
▁karakterea	-10.9491
fin	-10.9493
uts	-10.9494
br	-10.9503
Fi	-10.9503
pet	-10.9505
Orduan	-10.9505
▁Zuzen	-10.9507
36	-10.9509
▁jokalarien	-10.951
▁ordeztu	-10.9514
▁inola	-10.9515
▁patua	-10.9516
▁Istorio	-10.9517
oia	-10.9517
▁IMAP	-10.9517
lekua	-10.9518
▁irizpide	-10.9519
▁eraikitzea	-10.9519
▁batzuetara	-10.9527
mat	-10.953
▁Sol	-10.9531
denbora	-10.9533
▁galdetuko	-10.9534
▁gozoa	-10.9534
▁Ekialde	-10.9535
▁modernoa	-10.9536
ikoak	-10.9539
▁enpresek	-10.9541
▁alemaniar	-10.9541
Pro	-10.9542
▁eraginik	-10.9546
regi	-10.9549
▁Eguraldia	-10.9549
jar	-10.955
▁bikoiztu	-10.9551
▁Ham	-10.9552
hen	-10.9552
▁baitut	-10.9554
▁edukiak	-10.9559
▁orbita	-10.9566
▁irekitzea	-10.9567
▁nabigatzaile	-10.957
▁Zeu	-10.9571
▁w	-10.9575
▁Londresen	-10.9577
▁Pila	-10.9577
tuen	-10.9579
▁propio	-10.9581
▁lanpetuta	-10.9581
▁konponduko	-10.9582
▁salbu	-10.9582
▁bulegoan	-10.9582
▁sozialak	-10.9583
oto	-10.9583
▁gogorrak	-10.9584
▁Gorputz	-10.9584
”-	-10.9585
▁jango	-10.9587
▁mendebaldeko	-10.9588
▁Zerbitzari	-10.959
▁ikuskizuna	-10.9591
▁SSL	-10.9592
▁delitu	-10.9592
▁duzulako	-10.9593
▁il	-10.9597
▁anitzeko	-10.9597
▁sukaldaritza	-10.9599
▁Arreta	-10.9603
▁kapital	-10.9604
▁Filma	-10.9606
▁wa	-10.9607
55	-10.9607
▁sub	-10.9609
▁William	-10.9611
▁hartara	-10.9612
ee	-10.9615
▁Tar	-10.9615
▁tatuaje	-10.9616
▁lukeen	-10.9619
▁Klik	-10.9619
▁Jackson	-10.9621
▁haratago	-10.9621
▁Galdu	-10.9622
ue	-10.9623
▁itzala	-10.9623
<	-10.9625
takoak	-10.9626
rengan	-10.9626
▁Joe	-10.9627
leak	-10.9627
▁saltzeko	-10.9628
▁ilara	-10.9628
45	-10.963
lip	-10.963
alda	-10.9631
▁luzez	-10.9632
▁bizidun	-10.9635
▁araberakoa	-10.9635
▁eraikina	-10.9636
▁Ordeztu	-10.9637
44	-10.9643
dro	-10.9643
▁arkitektura	-10.9644
▁txartelak	-10.9644
▁1,5	-10.9644
nce	-10.9646
▁inguratzen	-10.9647
▁interfazea	-10.9647
▁American	-10.965
▁Ohiko	-10.9652
▁itxaroten	-10.9652
otan	-10.9653
EL	-10.9656
▁santua	-10.9656
Ezabatu	-10.9658
▁erantzunik	-10.9659
▁Vo	-10.9659
▁Beraiek	-10.966
▁urrea	-10.966
ple	-10.9661
▁gogoz	-10.9661
▁10.000	-10.9662
▁harrigarri	-10.9663
▁1960	-10.9663
▁Ingalaterrako	-10.9665
▁Ingelesa	-10.9665
▁doinu	-10.9665
▁produktuen	-10.9667
99	-10.9669
▁isuri	-10.9669
▁pentsatzeko	-10.9672
▁teknikoa	-10.9677
▁neurtu	-10.9678
grafia	-10.9678
▁zaldia	-10.9679
barraren	-10.9679
zuen	-10.968
▁grina	-10.9682
pain	-10.9682
ografia	-10.9683
▁publizitate	-10.9685
▁hiriak	-10.9688
▁airean	-10.9689
mia	-10.9691
▁altuena	-10.9692
TS	-10.9692
▁zeukaten	-10.9692
▁Bila	-10.9692
key	-10.9693
bb	-10.9695
▁alarma	-10.9695
▁jendearekin	-10.9696
▁salbatzeko	-10.9696
▁gor	-10.9697
▁abestu	-10.9697
niko	-10.9699
▁nahasten	-10.9699
oli	-10.9699
▁ilargi	-10.97
▁Gerraren	-10.97
▁gehiagoko	-10.9701
▁prezioak	-10.9702
atzera	-10.9703
▁argitalpen	-10.9705
▁Zati	-10.9707
hil	-10.971
▁Milaka	-10.9714
▁legezko	-10.9716
▁izenburu	-10.9716
Erabili	-10.9716
nie	-10.9717
▁erregai	-10.9717
▁garrantzitsuago	-10.972
▁zio	-10.9722
▁ozeano	-10.9726
hat	-10.9727
▁altxatzen	-10.9727
▁Gan	-10.9729
val	-10.973
▁Museoa	-10.973
▁nahitaez	-10.9731
▁eskuliburu	-10.9731
lina	-10.9732
▁igoera	-10.9732
AP	-10.9732
oaren	-10.9732
▁Posible	-10.9732
▁Agentzia	-10.9733
▁Mont	-10.9739
▁aukeratutako	-10.9742
Hitz	-10.9742
▁esperientziak	-10.9743
▁Yorkeko	-10.9744
▁BERMERIK	-10.9744
▁Soldadu	-10.9745
ps	-10.9746
▁sisteman	-10.9746
▁Oker	-10.9746
▁Red	-10.9748
▁kontutan	-10.9752
▁xedea	-10.9754
▁estudio	-10.9756
▁potentzia	-10.9758
▁un	-10.9759
▁aska	-10.976
▁aproposa	-10.976
▁is	-10.976
leta	-10.9761
▁ikur	-10.9763
▁izotz	-10.9764
patu	-10.9765
▁araua	-10.9765
▁otsailaren	-10.9766
▁It	-10.9767
▁positibo	-10.9768
▁zaiola	-10.9768
aukerak	-10.9768
▁berreskuratzeko	-10.977
▁jainkoa	-10.9771
stru	-10.9772
▁ordurako	-10.9777
Li	-10.978
▁pat	-10.9781
ume	-10.9782
▁ezberdinetan	-10.9786
▁Berr	-10.9786
sion	-10.9789
▁lotan	-10.9789
▁banatuta	-10.979
get	-10.9791
▁erabilita	-10.9792
▁fa	-10.9796
emaile	-10.9797
▁jakintza	-10.9797
▁Egutegi	-10.9797
▁idaztean	-10.9798
▁negatiboa	-10.9798
▁Linux	-10.9798
▁Balioa	-10.9798
▁Banatu	-10.9799
▁horrelakoak	-10.9799
▁Antzeko	-10.98
▁azaltzeko	-10.9801
▁burutik	-10.9808
gula	-10.9809
▁pobrezia	-10.981
▁egotzi	-10.981
▁lantegi	-10.9811
▁zerbitzatu	-10.9813
▁ondotik	-10.9814
▁erakustea	-10.9814
▁herrialdeko	-10.9814
▁URI	-10.9815
▁bainu	-10.9819
▁ukitzen	-10.9819
▁nori	-10.982
▁Ser	-10.9824
zona	-10.9825
???	-10.9831
▁gehiegizko	-10.9831
▁txoko	-10.9832
▁Japonia	-10.9833
ice	-10.9834
▁Baliabide	-10.9834
▁Onena	-10.9835
▁senar	-10.9836
▁eginkizun	-10.9837
▁Eraiki	-10.9839
▁historiaren	-10.984
▁Aplikazioak	-10.9841
▁Bertako	-10.9842
▁iritziak	-10.9842
▁geunden	-10.9845
▁Zaharra	-10.9845
▁Eusko	-10.9846
karia	-10.9846
▁aukeratzea	-10.9847
▁URIa	-10.985
gunea	-10.9854
▁britainiar	-10.9859
▁ordubete	-10.986
zel	-10.9862
▁gordetzea	-10.9863
The	-10.9863
logo	-10.9864
TZEN	-10.9867
▁abesten	-10.9869
▁indarrak	-10.9869
▁zuhaitza	-10.9869
▁geni	-10.987
▁lasaitu	-10.987
▁zelai	-10.9871
▁Webgune	-10.9871
▁Bota	-10.9872
rrikatu	-10.9873
▁Play	-10.9875
▁Bihurtu	-10.9876
▁Alt	-10.988
▁Nortzuk	-10.988
▁murrizteko	-10.988
▁Alabaina	-10.9882
torio	-10.9882
42	-10.9882
▁jakinarazpen	-10.9883
urri	-10.9891
▁izenik	-10.9891
▁eskertuko	-10.9891
▁zaituen	-10.9892
▁LDAP	-10.9892
inek	-10.9894
ón	-10.9895
▁Gida	-10.9895
▁Pixka	-10.9896
▁duzuela	-10.9898
▁txanpon	-10.9898
▁informazioaren	-10.9899
SD	-10.99
ditu	-10.9902
▁betidanik	-10.9902
▁telefonoz	-10.9906
kate	-10.9906
▁astiro	-10.9911
pia	-10.9916
▁izenaren	-10.9916
pide	-10.9917
▁Erosi	-10.9917
▁ikuspuntu	-10.992
▁Herrian	-10.9922
▁edertasun	-10.9927
▁auzitegi	-10.9928
kodea	-10.9928
▁Txori	-10.9929
▁ezagutzera	-10.9931
▁elikagaiak	-10.9932
▁astindu	-10.9934
▁gertaerak	-10.9935
▁Lehiaketa	-10.9936
▁faltsuak	-10.9936
▁Jaso	-10.9936
▁paregabea	-10.9937
▁gauzen	-10.9937
▁mintza	-10.9938
▁Puzzle	-10.994
▁gastu	-10.9945
ight	-10.9945
▁Mexikoko	-10.9945
▁Digital	-10.9946
▁Bre	-10.9946
▁pal	-10.9949
batu	-10.9949
▁Pat	-10.995
▁urri	-10.995
▁auzoko	-10.9955
▁testurik	-10.9957
▁bezeroen	-10.9957
▁¿	-10.9957
▁kanpotik	-10.9961
▁Batzordea	-10.9962
▁fruitu	-10.9962
▁argumentu	-10.9962
▁Mus	-10.9964
▁suposatzen	-10.9965
▁eraztun	-10.9968
bana	-10.9968
▁zale	-10.9969
▁hiriburu	-10.9969
bea	-10.9969
▁Eskaera	-10.997
▁Bakea	-10.9972
▁argitaratuko	-10.9972
▁zuenez	-10.9973
razio	-10.9974
▁gertatzea	-10.9975
▁Zabaldu	-10.9976
▁Eraikuntza	-10.9976
▁Gatazka	-10.9976
▁Nori	-10.9977
▁Inbertsio	-10.9977
▁badakite	-10.998
▁Komun	-10.9983
▁tratu	-10.9983
▁[1]	-10.9983
▁sarean	-10.9985
▁komunikabide	-10.9985
dentzia	-10.9986
▁MIME	-10.9986
▁Esportatu	-10.9987
▁atzerrian	-10.9989
arrek	-10.999
▁aztertuko	-10.9994
field	-10.9995
▁jokatzea	-10.9998
▁uretan	-11.0004
▁GIMP	-11.0006
▁Aplikatu	-11.0006
▁zorion	-11.0006
▁leun	-11.0007
▁erantzukizun	-11.0007
van	-11.0008
▁orriak	-11.0009
▁konektatzen	-11.0009
So	-11.0012
▁Taldearen	-11.0012
▁Inter	-11.0014
▁Maiz	-11.0016
▁51	-11.0018
▁gezi	-11.0018
espen	-11.0018
▁mugimenduak	-11.0018
▁zereginen	-11.0019
▁hoberik	-11.0019
SA	-11.0021
▁karpetan	-11.0022
▁defendatu	-11.0023
▁urteurrena	-11.0023
▁murrizten	-11.0025
▁erakargarri	-11.0026
▁44	-11.0027
menu	-11.0028
zteko	-11.0029
▁Errusiar	-11.003
▁ca	-11.0032
▁badakizue	-11.0033
▁Esango	-11.0034
▁aberastasuna	-11.0035
▁baitziren	-11.0038
▁Aldaketak	-11.0039
ete	-11.0043
▁kondenatu	-11.0044
▁ERE	-11.0045
▁gogokoena	-11.0046
▁Eskualde	-11.0048
▁Oscar	-11.0049
▁transferentzia	-11.005
azala	-11.005
ula	-11.0051
▁Mende	-11.0052
▁txarto	-11.0053
▁Behera	-11.0053
EK	-11.0057
▁blogean	-11.0057
▁Gain	-11.0058
▁HAU	-11.006
▁INOLAKO	-11.0061
▁Next	-11.0061
▁Goizean	-11.0062
ys	-11.0063
kal	-11.0064
▁Las	-11.0064
▁familiarekin	-11.0064
eli	-11.0068
▁espazioan	-11.0068
▁KDE	-11.0068
▁Urrezko	-11.0069
▁dia	-11.007
▁iragazki	-11.007
▁kexatzen	-11.0071
▁Euskaldun	-11.0072
tipoaren	-11.0075
▁kopiatzen	-11.0075
▁lekutan	-11.0076
▁ikasleen	-11.0081
way	-11.0082
▁salaketa	-11.0084
▁mekanismo	-11.0084
▁Aktibatu	-11.0085
lot	-11.0088
▁Emaitzak	-11.0089
▁Jerusalem	-11.009
34	-11.0092
▁zilegi	-11.0093
ó	-11.0093
▁igandean	-11.0093
▁pla	-11.0094
▁absolutua	-11.0095
▁gehiengoa	-11.0095
▁ohorea	-11.0097
▁zuzenak	-11.0097
▁garaiz	-11.0099
▁Beldurra	-11.0099
▁Itsasoa	-11.01
▁Jantzi	-11.01
OL	-11.01
▁Gabon	-11.0102
▁hondakin	-11.0103
ante	-11.0103
▁urtebetetze	-11.0106
elako	-11.0106
▁ilunpea	-11.0112
▁handienak	-11.0112
▁MERKATURATZEKO	-11.0115
rt	-11.0115
barrako	-11.0116
▁Mur	-11.0117
▁ilargia	-11.0117
▁garbitzeko	-11.0119
▁nazionala	-11.012
▁ordenagailuan	-11.012
zip	-11.0122
▁inportantea	-11.0122
▁aktorea	-11.0124
help	-11.0124
▁aplikatuko	-11.0126
▁egoeraren	-11.0128
botoia	-11.0129
kontu	-11.0134
▁ahalbidetzen	-11.0137
▁itsasoan	-11.0139
▁areara	-11.0139
gas	-11.0139
▁arkitekto	-11.014
▁nobela	-11.014
▁balute	-11.0143
▁Eraso	-11.0146
▁bezeroa	-11.0148
▁sailkatu	-11.015
▁jantziak	-11.0152
▁irudikatu	-11.0154
ap	-11.0155
rezko	-11.0155
torea	-11.0156
▁berdintasuna	-11.0156
ibo	-11.0158
▁urratu	-11.0162
▁litezke	-11.0165
▁fe	-11.0165
▁beraiekin	-11.0165
▁zakarrontzira	-11.0165
zioaren	-11.0165
▁Oin	-11.0167
▁Dr	-11.0169
Utzi	-11.017
▁batzen	-11.0172
▁Probatu	-11.0174
▁berberak	-11.0175
▁serioa	-11.0175
▁eguin	-11.0176
▁Maroko	-11.0178
dis	-11.0179
out	-11.0179
Ama	-11.018
▁banaka	-11.0181
[4]	-11.0186
▁planak	-11.0187
▁1995	-11.0187
▁gorpua	-11.0195
▁dezatela	-11.0195
AT	-11.0196
tiba	-11.0197
▁diola	-11.0198
▁inora	-11.0202
▁Artxibo	-11.0204
▁Nafarroako	-11.0204
tero	-11.0205
▁Deskargatu	-11.0206
los	-11.0206
▁sortzaile	-11.0208
▁maiztasuna	-11.0208
▁finkatu	-11.0209
day	-11.0211
▁zeruko	-11.0212
SE	-11.0213
ire	-11.0214
▁erreinua	-11.0215
▁Auzo	-11.0216
▁gerran	-11.0218
▁Boston	-11.0219
▁prozesuak	-11.0221
▁okerragoa	-11.0222
▁mon	-11.0226
▁zailtasunak	-11.0228
▁Maius	-11.0229
▁hobeki	-11.0231
▁Eragiketa	-11.0232
▁agortu	-11.0233
Bere	-11.0234
▁areto	-11.0237
▁Handi	-11.0237
▁zeharkatzen	-11.0238
▁abiarazteko	-11.0238
▁multzoa	-11.0241
▁Taula	-11.0241
▁Austria	-11.0241
▁orokorrak	-11.0241
▁ospatuko	-11.0242
▁Kristau	-11.0242
▁filmaren	-11.0243
▁oporretan	-11.0245
▁Eguneratu	-11.0246
▁doktorea	-11.0246
03	-11.0248
izenak	-11.0248
▁Beheko	-11.0249
ikustailea	-11.0254
▁Taularen	-11.0255
▁kargatzeko	-11.0255
▁bazekien	-11.0257
▁Tiro	-11.0257
▁ERABILTZEKO	-11.0257
▁Ezkerreko	-11.0258
▁Black	-11.026
▁esaldia	-11.0262
▁proteina	-11.0263
▁fiskal	-11.0264
▁proposamenak	-11.0264
▁Aitor	-11.0266
▁Ekarri	-11.0266
▁azoka	-11.0267
▁ginela	-11.0268
text	-11.0272
▁Atsegin	-11.0272
degi	-11.0273
▁Argia	-11.0274
▁deskarga	-11.0274
toi	-11.0278
▁gobernuaren	-11.0281
ifikazioa	-11.0281
taula	-11.0282
leihoa	-11.0283
▁zenik	-11.0285
orra	-11.0287
▁libera	-11.0288
▁zapaldu	-11.0288
▁bizkorra	-11.029
▁Marte	-11.0292
▁puska	-11.0292
▁opariak	-11.0293
▁xarma	-11.0294
▁gen	-11.0299
▁norbaiten	-11.0299
▁Fede	-11.03
▁abertzale	-11.03
arren	-11.0302
▁usaina	-11.0303
▁lizentziaren	-11.0307
06	-11.0307
▁analisi	-11.0307
▁sakona	-11.0309
▁ingeniari	-11.0309
▁sexua	-11.031
▁traba	-11.0314
▁denborarik	-11.0319
▁estra	-11.0319
▁mendia	-11.032
▁erosoa	-11.0324
▁Britainia	-11.0324
▁IN	-11.0325
66	-11.033
IL	-11.033
▁Sozial	-11.0331
▁materialak	-11.0331
▁lehenbailehen	-11.0331
▁bereizteko	-11.0332
▁Ban	-11.0333
▁langileek	-11.0333
▁kultural	-11.0334
▁Opari	-11.0337
korrak	-11.0337
Ha	-11.034
▁Opera	-11.034
▁harpidetza	-11.0342
▁Betiko	-11.0343
▁ospea	-11.0345
lle	-11.0345
▁pri	-11.0348
▁Adiskide	-11.0348
▁murriztea	-11.0351
▁defendatzen	-11.0352
▁lurrak	-11.0353
▁Ordenagailua	-11.0355
AS	-11.0358
form	-11.0359
▁astirik	-11.036
▁Independentzia	-11.0364
▁hedabide	-11.037
49	-11.037
▁samar	-11.0371
▁hilik	-11.0371
▁idazkari	-11.0371
▁Kartak	-11.0372
▁grafikoa	-11.0372
▁zehatzak	-11.0374
▁sentimenduak	-11.0374
▁arriskuak	-11.0375
▁kotxea	-11.0375
▁indartu	-11.0376
▁zuretzako	-11.0378
95	-11.0379
▁ideal	-11.0382
▁zabaltzeko	-11.0383
▁solairu	-11.0383
date	-11.0388
Zuk	-11.0388
▁Bereziki	-11.0389
ral	-11.039
▁Makina	-11.0392
▁igande	-11.0393
▁abiaraztean	-11.0394
▁ostera	-11.0397
▁egilea	-11.04
▁bosgarren	-11.04
tzai	-11.0401
▁1997	-11.0401
27	-11.0403
▁ahalegina	-11.0403
▁Yorken	-11.0406
▁Teklatua	-11.0407
▁zientifikoa	-11.0409
▁nagoen	-11.041
tila	-11.0411
diko	-11.0411
▁Gose	-11.0412
enez	-11.0412
▁sustatzeko	-11.0413
▁geratzea	-11.0414
▁pizten	-11.0414
more	-11.0419
▁babestea	-11.0421
posizio	-11.0422
▁paketeak	-11.0422
▁Hitzak	-11.0424
▁pribatuak	-11.0424
ema	-11.0425
▁seguruenik	-11.0426
▁She	-11.0426
▁Bon	-11.0428
eus	-11.0428
▁zerbitzuen	-11.0432
▁borrokatzen	-11.0433
▁One	-11.0434
nder	-11.0434
▁1.000	-11.0434
▁Shell	-11.0435
▁alfa	-11.0435
▁geuk	-11.0435
▁gogoratuko	-11.0437
▁didazue	-11.0441
▁kontura	-11.0442
▁May	-11.0443
▁Ari	-11.0443
▁gehigarriak	-11.0446
\@	-11.0446
▁Denda	-11.0447
▁Haurra	-11.0447
▁erabiltzaileari	-11.0449
▁entrenamendu	-11.0451
▁Apaiz	-11.0451
▁soineko	-11.0452
▁Sorgin	-11.0455
▁iparraldeko	-11.0457
▁Azal	-11.0457
▁garenean	-11.0458
▁atsekabe	-11.046
▁sentitzea	-11.0461
▁adineko	-11.0461
▁zezan	-11.0466
▁Duzu	-11.0469
pt	-11.047
mate	-11.0472
▁laurden	-11.0472
▁Korea	-11.0473
▁hartatik	-11.0474
▁menuan	-11.0475
▁Bestelako	-11.0478
▁inter	-11.0479
Emakume	-11.0479
toak	-11.048
▁belarriak	-11.0482
▁laborategi	-11.0484
▁erlatiboa	-11.0486
▁botoiak	-11.0487
onek	-11.0487
▁garbiketa	-11.0487
▁Literatura	-11.0487
▁estatuko	-11.0492
▁Bil	-11.0493
▁ikertu	-11.0493
▁@{	-11.0495
▁formal	-11.0496
▁Gorria	-11.0497
▁hurrengoan	-11.05
etxea	-11.05
pad	-11.0508
▁çuen	-11.0508
▁bereizita	-11.0509
▁Aseguru	-11.051
hitz	-11.051
▁jokabide	-11.0511
▁nezake	-11.0514
64	-11.0514
ation	-11.0516
▁aukeratuko	-11.0516
▁Sorta	-11.0517
joko	-11.052
▁ekipo	-11.0521
▁Anti	-11.0522
▁jaisten	-11.0522
▁modelo	-11.0525
éc	-11.0526
tio	-11.0527
▁Maitasun	-11.053
▁Argazkia	-11.0531
bak	-11.0531
▁Ordainketa	-11.0531
▁blokeatuta	-11.0532
▁Erra	-11.0534
Ze	-11.0536
▁estaltzen	-11.0537
gabeko	-11.0549
▁Erreproduzitu	-11.055
▁jatorra	-11.0556
stu	-11.0556
▁Marka	-11.0556
▁boto	-11.0558
▁amaituta	-11.056
izatzeko	-11.0561
▁soluzio	-11.0561
▁Ziurtagiri	-11.0562
Mi	-11.0562
▁iruzkin	-11.0563
43	-11.0564
▁akordioa	-11.0565
▁Mahjongg	-11.0565
▁iezaiozu	-11.0565
politika	-11.0565
▁nu	-11.0567
▁altu	-11.0567
▁41	-11.0573
▁ten	-11.0573
▁errusiar	-11.0573
bli	-11.0574
▁etengabeko	-11.0576
▁Gerran	-11.0577
▁Muhammad	-11.0578
nez	-11.0579
▁bali	-11.058
▁lider	-11.0581
▁abestiak	-11.0581
kiak	-11.0582
▁gris	-11.0583
ñe	-11.0584
▁ergel	-11.0587
oan	-11.0588
▁Aspaldi	-11.0592
▁dezakezun	-11.0593
▁zelarik	-11.0594
▁Ci	-11.0594
▁oinaze	-11.0594
▁Edozer	-11.0596
side	-11.0596
oni	-11.0596
box	-11.0597
▁gaiaren	-11.0597
▁ziran	-11.0598
▁EB	-11.0599
▁fun	-11.0599
▁Madril	-11.06
oren	-11.0602
▁́	-11.0604
IC	-11.0604
nea	-11.0604
▁Geldi	-11.0605
▁Gustuko	-11.0605
▁Ir	-11.0607
▁ele	-11.0607
▁egonez	-11.0609
▁hobespen	-11.061
▁Kanal	-11.0613
▁militarra	-11.0613
Zin	-11.0614
▁delakoan	-11.0614
mis	-11.0615
▁mailak	-11.0616
-_	-11.0618
▁Bob	-11.0619
▁handiegia	-11.0621
65	-11.0622
▁norbaiti	-11.0623
▁mirari	-11.0623
▁nortasuna	-11.0623
▁Elkartea	-11.0623
▁identifikatzeko	-11.0625
▁ekonomikoak	-11.0626
▁Bandera	-11.0629
▁Fin	-11.063
nala	-11.063
Gizon	-11.0633
▁Gogo	-11.0635
▁abandonatu	-11.0635
▁ekainean	-11.0635
▁Euskadi	-11.0638
▁ordezkatzen	-11.0638
▁Iturburu	-11.0639
NE	-11.0641
▁EAJ	-11.0642
▁harritzekoa	-11.0642
▁jatorri	-11.0647
▁nabarmentzen	-11.0649
por	-11.0652
▁Neskak	-11.0654
dir	-11.0655
▁oi	-11.0656
▁badituzte	-11.0656
▁Tele	-11.0657
▁bertute	-11.0658
▁ekialdeko	-11.066
▁entitate	-11.0661
▁tortura	-11.0662
▁produkzio	-11.0664
▁Va	-11.0665
▁zeina	-11.0666
▁boluntario	-11.0667
▁interesak	-11.0668
titu	-11.0668
illo	-11.0669
▁Jadanik	-11.0669
▁Marra	-11.0669
▁dotore	-11.0671
▁bar	-11.0673
▁gaiztoak	-11.0673
kete	-11.0676
Me	-11.0677
▁bermatzeko	-11.068
lik	-11.0682
▁altxor	-11.0685
▁1992	-11.0687
ale	-11.0688
▁umore	-11.0688
▁beharrekoa	-11.0691
▁Kanta	-11.0692
darrak	-11.0693
▁konbinatu	-11.0693
▁berreraiki	-11.0693
▁demontre	-11.0693
▁ebatzi	-11.0694
▁sentsazio	-11.0694
▁bestetik	-11.0695
behera	-11.0695
▁Eskaintza	-11.0695
▁adierazpena	-11.0697
▁Telefonoa	-11.0698
▁joka	-11.0699
▁pasatzea	-11.0701
▁herrira	-11.0701
▁Ezinezkoa	-11.0703
▁Ordua	-11.0705
▁Egunean	-11.0706
▁65	-11.0707
▁Berandu	-11.0711
▁zedin	-11.0716
▁Dia	-11.0718
▁gelara	-11.0719
iaren	-11.072
▁Datuen	-11.0721
▁Iker	-11.0722
▁egiaztatzeko	-11.0723
▁bestelakoa	-11.0723
▁43	-11.0726
▁Maiatzaren	-11.0727
▁abisu	-11.073
retatik	-11.0731
▁Adam	-11.0731
▁estutu	-11.0735
▁City	-11.0737
▁Gozatu	-11.0738
ub	-11.0738
▁harresi	-11.0741
▁Lotsa	-11.0743
▁Konektatu	-11.0747
▁potentzial	-11.075
▁aintza	-11.0752
▁ager	-11.0752
▁1996	-11.0752
▁Mediku	-11.0754
▁kimiko	-11.0755
▁pixkanaka	-11.0755
raz	-11.0757
▁biluzik	-11.0759
▁erraiten	-11.076
non	-11.0763
▁berarentzat	-11.0768
▁argitzen	-11.0772
pol	-11.0772
▁Yo	-11.0774
▁uzta	-11.0776
▁Batzorde	-11.0776
▁aintzira	-11.0778
▁aurkezteko	-11.0778
▁PGP	-11.0778
▁konfiguratzeko	-11.0781
▁Bestetik	-11.0781
▁Albiste	-11.0782
barreak	-11.0783
▁iaz	-11.0783
▁hilobi	-11.0784
▁lerroan	-11.0785
▁ofizialki	-11.0786
án	-11.0788
▁dutenez	-11.0788
eg	-11.0789
▁Profesional	-11.0791
▁presioa	-11.0794
▁kont	-11.0796
▁Erregeak	-11.0797
▁mendian	-11.0801
▁editore	-11.0802
▁trena	-11.0803
▁berretsi	-11.0805
▁nukeen	-11.0807
Go	-11.0808
▁urratsa	-11.0812
keyboard	-11.0817
▁dizue	-11.0818
▁sekuentzia	-11.0819
▁ogi	-11.082
IP	-11.082
▁ek	-11.0821
▁op	-11.0821
▁AL	-11.0822
▁lurraldean	-11.0823
tem	-11.0824
oo	-11.0824
▁Plaza	-11.0825
cen	-11.0825
▁Animalia	-11.0826
▁hurrengoa	-11.0827
▁blokea	-11.0828
▁angelu	-11.0832
hartzaile	-11.0834
▁Gabonetako	-11.0836
▁primeran	-11.0837
▁esatera	-11.0839
▁Abu	-11.0841
▁irtenbidea	-11.0841
▁dizkiot	-11.0842
▁ospetsua	-11.0843
▁Festa	-11.0846
▁Batasuneko	-11.085
▁gailuak	-11.085
▁arduraduna	-11.0852
▁emanaldi	-11.0853
31	-11.0854
▁inperio	-11.0856
▁funtzionamendua	-11.0857
▁Txo	-11.0858
▁kritikoa	-11.0858
▁aspaldiko	-11.0859
▁sortua	-11.086
&	-11.0861
vel	-11.0863
▁Konpainia	-11.0863
▁errenta	-11.0863
[1	-11.0867
▁gaitasunak	-11.0867
Mu	-11.0869
▁izarra	-11.0871
▁Zuretzat	-11.0872
zuzen	-11.0873
▁oneko	-11.0873
▁dizkigu	-11.0874
▁Big	-11.0874
▁garaile	-11.0876
▁Konferentzia	-11.0876
▁atari	-11.0877
tean	-11.0878
▁modulua	-11.0878
▁Smith	-11.0883
▁esnatzen	-11.0883
▁teknologiko	-11.0884
▁bizilagun	-11.0885
▁besteen	-11.0887
▁agentzia	-11.0888
▁epai	-11.0888
▁soka	-11.0889
rria	-11.089
▁aireportua	-11.0892
▁bidetik	-11.0893
▁afaria	-11.0895
▁Buelta	-11.0903
▁egintza	-11.0903
▁kalkulatu	-11.0903
tzaileek	-11.0904
▁Askoz	-11.0905
▁eranskin	-11.0905
▁baimentzen	-11.0905
▁sukaldean	-11.0906
▁Urtean	-11.0908
lana	-11.0908
▁Hurrengoa	-11.0908
▁aurpegian	-11.0908
46	-11.0908
▁erakuslea	-11.0911
▁laguntzailea	-11.0911
▁konponbide	-11.0913
▁Grezia	-11.0914
▁Irlanda	-11.0914
▁izugarrizko	-11.0922
▁Lagunak	-11.0923
▁Autoa	-11.0923
▁39	-11.0924
CC	-11.0924
▁Ziurtagiria	-11.093
▁Marko	-11.0932
Zenbat	-11.0933
▁zubia	-11.0934
▁gauden	-11.0935
▁Eraikin	-11.0935
▁eskaintzea	-11.0936
▁haizea	-11.0938
▁gertuago	-11.0939
ture	-11.094
▁tratatzeko	-11.0945
karga	-11.0945
zon	-11.0947
▁iragarki	-11.0947
uke	-11.0948
▁hautatuta	-11.0951
arre	-11.0952
▁dutenei	-11.0954
▁harrapa	-11.0954
▁pribatutasuna	-11.0954
▁Ingalaterra	-11.0956
abe	-11.0957
▁Leon	-11.096
▁dutxa	-11.0961
kontrola	-11.0961
▁Athletic	-11.0962
▁Iñaki	-11.0962
style	-11.0962
▁gastuak	-11.0962
▁1)	-11.0965
lore	-11.0965
▁ordenagailuaren	-11.0966
fr	-11.0967
oro	-11.0969
▁interneten	-11.0973
▁:)	-11.0973
▁harago	-11.0973
hala	-11.0974
▁Herritar	-11.0974
▁zuentzat	-11.0974
ö	-11.0975
▁Australiako	-11.0975
▁protokolo	-11.0976
▁off	-11.098
▁herrialdetan	-11.0981
▁aldatzean	-11.0983
berdin	-11.0986
▁gutxien	-11.0987
▁bizkar	-11.0988
▁alkate	-11.0989
▁berrabiarazi	-11.0989
▁aparta	-11.0989
▁behi	-11.0992
▁ibaiaren	-11.0994
▁digitu	-11.0995
▁kexu	-11.0996
ifikazio	-11.0997
▁arrosa	-11.0997
▁grabatzeko	-11.0998
▁Gakoa	-11.0998
▁lurreko	-11.1
▁larru	-11.1
leiho	-11.1001
▁bien	-11.1001
▁hilerri	-11.1002
▁Gailu	-11.1002
▁musulman	-11.1006
▁bidaiatzea	-11.1006
▁Irribarre	-11.1006
▁momentua	-11.1008
▁Osasuna	-11.1009
▁1970	-11.101
irudi	-11.1013
Hautatu	-11.1016
▁begietan	-11.1016
="	-11.1018
▁Lar	-11.1019
▁garaiko	-11.1019
▁ikastola	-11.1021
▁kapitulu	-11.1025
▁jotzea	-11.1026
▁mugarik	-11.1029
tha	-11.1031
razten	-11.1035
▁gazteen	-11.1036
▁Bilbo	-11.1036
▁esentzia	-11.1036
▁laguntzarekin	-11.1038
▁asteko	-11.1038
▁azpitik	-11.1039
▁darabil	-11.104
▁Tour	-11.1041
▁Estatuaren	-11.1041
▁Parisko	-11.1042
▁Zain	-11.1043
▁aldendu	-11.1044
▁erregistroa	-11.1045
▁belar	-11.1045
zkoak	-11.1048
▁tradizional	-11.1049
▁lehor	-11.1049
▁antzeman	-11.1049
▁Pena	-11.1051
▁kideek	-11.1052
UA	-11.1056
▁pobre	-11.1061
▁motatako	-11.1061
▁euskarazko	-11.1062
▁ahoan	-11.1062
▁Desegin	-11.1064
iru	-11.1065
05	-11.1065
▁deskargatzen	-11.1066
lla	-11.1067
▁izpi	-11.1068
▁sindikatu	-11.1069
▁eleberri	-11.1069
▁programaren	-11.1069
▁konbentzitu	-11.1071
▁zortea	-11.1072
ding	-11.1072
▁erizain	-11.1073
▁aberastasun	-11.1073
▁Neurri	-11.1073
▁medikua	-11.1074
▁kudeatzea	-11.1074
▁ordutegia	-11.1074
▁j	-11.1076
▁ekitaldia	-11.1078
▁herritarrak	-11.1079
85	-11.1082
▁Elikadura	-11.1082
▁pintura	-11.1083
▁trafikoa	-11.1083
▁Pasahitz	-11.1085
barran	-11.1086
▁1991	-11.1086
▁badio	-11.1087
▁kontsultatu	-11.1089
▁dieta	-11.11
▁noble	-11.1101
▁gar	-11.1102
▁eskubiderik	-11.1102
▁korritze	-11.1104
▁guztiarekin	-11.1105
▁zerbitzarian	-11.1106
▁itzela	-11.1108
▁palestinar	-11.1109
▁Eskuineko	-11.1109
▁aztertzea	-11.1115
▁zertxobait	-11.1116
▁Giro	-11.1117
sy	-11.1117
98	-11.1118
▁Txinan	-11.1121
txar	-11.1125
mor	-11.1126
EA	-11.1127
▁Asiako	-11.1128
▁nolabaiteko	-11.1128
▁haserrea	-11.113
▁Zeuk	-11.1131
▁Ostalari	-11.1132
▁lortzean	-11.1134
▁ete	-11.1139
Nahi	-11.1143
▁jolasean	-11.1147
▁profesionalak	-11.1148
▁Gazteak	-11.1149
▁opera	-11.1149
▁klasiko	-11.1149
▁bakarrean	-11.115
▁Txandakatu	-11.115
▁zizun	-11.1151
▁lapurreta	-11.1154
▁egoerak	-11.1154
▁badaukazu	-11.1155
▁zaintzea	-11.1156
▁oihal	-11.1158
▁bilakaera	-11.1159
▁espiritu	-11.1159
▁gehiena	-11.1161
▁espiritua	-11.1162
://	-11.1163
▁atzeman	-11.1164
▁erosiko	-11.1164
▁gurpil	-11.1167
▁kontsola	-11.1171
▁kap	-11.1171
▁guztietara	-11.1172
ahal	-11.1172
lau	-11.1173
ias	-11.1173
▁alkohol	-11.1175
▁erabakitzeko	-11.1176
▁dizkie	-11.1177
▁barruti	-11.1177
tasunari	-11.1179
▁prozesuan	-11.1179
▁erreka	-11.118
▁Ere	-11.118
▁aurreratua	-11.1184
▁Panel	-11.1185
▁elkarlanean	-11.1187
▁zuzendariak	-11.1189
▁zetorren	-11.119
76	-11.1193
▁biharko	-11.1194
the	-11.1194
▁epean	-11.1194
▁Zentroa	-11.1195
▁deitzea	-11.1197
▁zendu	-11.1197
▁buruko	-11.1197
▁ekipamendu	-11.1197
▁bizkarra	-11.1197
▁email	-11.1198
adi	-11.12
89	-11.1202
▁Badakizue	-11.1203
2)	-11.1208
▁Azkeneko	-11.1211
Laguntza	-11.1211
▁%1	-11.1212
▁irain	-11.1212
▁ondorioa	-11.1214
▁daudenak	-11.1214
▁animalien	-11.1216
gra	-11.1217
▁anderea	-11.1222
hori	-11.1222
▁Garraio	-11.1225
▁etab	-11.1225
▁kapitaina	-11.1228
▁Bol	-11.1228
▁aritzea	-11.123
▁neurtzen	-11.1232
▁Liburuak	-11.1234
.–	-11.1234
▁partidu	-11.1235
02	-11.1236
▁sakrifizio	-11.1238
▁poli	-11.124
▁arloan	-11.1244
▁Erdialdeko	-11.1246
▁arrautzak	-11.1246
▁GDM	-11.1246
▁ohiturak	-11.1248
▁Interes	-11.1251
▁Gurasoak	-11.1252
▁luzeagoa	-11.1252
txin	-11.1253
[1]	-11.1253
ls	-11.1256
▁antolatzeko	-11.1256
▁rol	-11.1256
iatu	-11.1257
▁komentario	-11.1257
mil	-11.1257
▁aurrerantzean	-11.1258
▁sentipen	-11.1258
▁Istripu	-11.1259
▁Samuel	-11.1259
▁animatzen	-11.1265
▁Bilbao	-11.1265
▁zituenean	-11.1266
▁Harro	-11.1266
lly	-11.1267
▁nioke	-11.1267
«	-11.127
▁arnas	-11.127
▁informa	-11.1271
▁konp	-11.1272
▁Defentsa	-11.1272
uro	-11.1274
▁Eskala	-11.1274
▁lib	-11.1275
▁Sudoku	-11.1276
▁nabarmena	-11.1277
SS	-11.1279
▁Bertsio	-11.1279
▁imajinatu	-11.1284
▁fidagarria	-11.1284
▁Idazle	-11.1285
iarrak	-11.1288
▁estandar	-11.1288
▁lanari	-11.1291
▁IV	-11.1292
matu	-11.1292
▁gintuen	-11.1293
zte	-11.1297
KA	-11.13
iatzen	-11.1305
Kopiatu	-11.1306
▁segundu	-11.1307
proba	-11.1308
tiak	-11.1308
▁Automatikoki	-11.1309
▁55	-11.1314
zalea	-11.1315
▁dizudan	-11.1317
aten	-11.1317
ora	-11.1318
pan	-11.1321
41	-11.1321
▁abiarazten	-11.1321
presio	-11.1321
▁ausart	-11.1326
▁editatzeko	-11.1331
▁bikainak	-11.1333
DO	-11.1334
▁islatzen	-11.1335
▁Bloke	-11.1335
▁komunikatzeko	-11.1336
▁Garaipen	-11.1338
igu	-11.1339
▁Anaia	-11.1339
▁Dio	-11.1341
▁jokalaria	-11.1341
▁partikular	-11.1342
▁zakur	-11.1343
mus	-11.1347
68	-11.1347
...)	-11.1348
▁biko	-11.1349
▁120	-11.1353
aste	-11.1355
▁zorionez	-11.1355
▁Albert	-11.1358
▁banandu	-11.1359
tiz	-11.1363
▁begiratzeko	-11.1367
▁izenekoa	-11.1367
?".	-11.1369
▁Estatua	-11.1369
▁kalterik	-11.1371
lf	-11.1371
▁klaseak	-11.1374
▁amerikar	-11.1376
▁Ederki	-11.1379
can	-11.138
▁Ozeano	-11.1383
▁hegal	-11.1384
▁Un	-11.1384
ntea	-11.1387
▁dohain	-11.1387
▁belaun	-11.1387
kume	-11.1388
▁gainezka	-11.1391
▁hobekuntza	-11.1393
▁konexioak	-11.1393
▁eremuak	-11.1396
▁Franklin	-11.1397
▁mineral	-11.1399
▁segituan	-11.1399
▁estreinatu	-11.14
▁Bri	-11.14
▁zeozer	-11.1403
▁gin	-11.1404
▁topatzen	-11.1404
arro	-11.1404
▁ezkonduta	-11.1405
▁pasarte	-11.1406
▁epaia	-11.1409
▁nengoela	-11.141
▁gorena	-11.1415
▁xume	-11.1418
ikusi	-11.142
ring	-11.1421
▁Kopa	-11.1423
▁Tomek	-11.1423
▁Iran	-11.1425
▁eh	-11.1426
▁nagusietako	-11.1427
▁gorrotatzen	-11.1427
▁ohartzen	-11.1428
koadroaren	-11.1429
▁deabrua	-11.1431
▁fresko	-11.1431
▁jarriz	-11.1435
▁Kanada	-11.1436
▁Kantu	-11.1437
▁zentroa	-11.1438
▁sute	-11.1438
▁madarikatu	-11.1439
▁Bata	-11.144
▁Tradizio	-11.1445
▁goren	-11.1445
▁ezein	-11.1447
hots	-11.1449
▁Ordutik	-11.145
▁Islandia	-11.1452
▁erne	-11.1452
▁nolanahi	-11.1453
view	-11.1453
▁harrapatuta	-11.1454
▁hankak	-11.1454
▁teknikoak	-11.1457
gr	-11.1457
▁Kal	-11.1458
▁gehiagorako	-11.1458
▁funtsean	-11.1459
▁gaiztakeria	-11.1459
▁entregatu	-11.146
▁lagunok	-11.1462
▁diguten	-11.1464
▁egiazkoa	-11.1466
▁MOTA	-11.1466
▁oihuka	-11.1467
▁Urtebete	-11.1468
▁oraino	-11.1469
▁testigantza	-11.1471
▁arituko	-11.1471
▁Pare	-11.1472
▁zeuzkan	-11.1473
▁Aktore	-11.1474
▁txanka	-11.1474
▁XX	-11.1475
▁pasaesaldia	-11.1476
▁Jn	-11.1478
▁Kultur	-11.1484
▁giroa	-11.1485
use	-11.1485
itzul	-11.1486
▁fidatzen	-11.1487
▁aginte	-11.1487
gue	-11.1488
▁borondatea	-11.1489
banan	-11.1493
▁Top	-11.1494
-20	-11.1495
▁idatz	-11.1496
etorri	-11.1497
▁autonomia	-11.1497
▁Arrazoia	-11.1497
▁haurrei	-11.1498
Aita	-11.1499
sc	-11.1501
▁Egilea	-11.1501
▁pentsamenduak	-11.151
▁Momentuz	-11.151
ote	-11.1513
▁jaialdi	-11.1515
GI	-11.1516
▁dantzatu	-11.1517
sku	-11.1517
chess	-11.1518
sur	-11.1518
▁lagunik	-11.1519
poli	-11.1521
▁aurreztu	-11.1521
EC	-11.1524
▁saioak	-11.1524
▁mamu	-11.1525
▁taulan	-11.1525
▁1994	-11.1526
▁teilatu	-11.1528
▁kal	-11.1528
▁hondar	-11.1529
▁CDa	-11.1529
▁bihotzeko	-11.153
▁Esnatu	-11.1532
▁berekin	-11.1533
▁geu	-11.1534
▁Udalak	-11.1534
▁interpretazio	-11.1534
▁zabalduko	-11.1534
▁sustatzea	-11.1536
ug	-11.1538
▁Para	-11.154
▁geltokia	-11.154
▁karpetaren	-11.1541
▁luzatzen	-11.1542
▁arakatzailea	-11.1542
▁komandoak	-11.1543
▁dimentsio	-11.1543
▁sines	-11.1544
iarra	-11.1545
Ro	-11.1546
lei	-11.1547
▁grabatzen	-11.1547
▁Stephen	-11.1547
▁sutan	-11.1549
▁lekura	-11.1549
▁baitzi	-11.1553
▁nahasketa	-11.1556
▁fabrikazio	-11.1562
ces	-11.1563
Aurreko	-11.1564
▁Konta	-11.1564
▁bolumen	-11.1564
▁Arrain	-11.1565
▁barka	-11.1566
▁gehitzea	-11.1569
▁pausu	-11.1571
▁London	-11.1571
▁arazketa	-11.1572
▁hamarreko	-11.1572
▁gudu	-11.1574
▁Legeak	-11.1575
▁hesi	-11.1575
OA	-11.1577
▁Ter	-11.1578
▁prentsa	-11.1578
▁edateko	-11.1578
▁erreparatu	-11.1578
▁ahalegindu	-11.1581
▁daukazue	-11.1582
gres	-11.1584
▁PERTSONA	-11.1586
▁heltzeko	-11.1587
▁gosea	-11.1587
▁iraunkor	-11.1588
▁Demokrazia	-11.1588
▁Polonia	-11.1589
▁Kafe	-11.1591
▁Gobernuaren	-11.1594
nde	-11.1594
▁Kim	-11.1597
▁ikara	-11.1597
▁frantsesa	-11.1603
▁marko	-11.1605
CO	-11.1605
▁marketing	-11.1607
▁akatsen	-11.1608
▁okerrena	-11.1612
▁nigan	-11.1613
Azken	-11.1617
▁greziar	-11.1618
ndar	-11.1619
▁hortz	-11.162
▁abuztuaren	-11.1621
urra	-11.1621
▁jarraiki	-11.1622
▁teklatua	-11.1624
▁irakurriko	-11.1628
▁nintzan	-11.1628
▁Hildako	-11.163
▁blokeak	-11.1633
file	-11.1634
▁Erroman	-11.1634
▁konplexua	-11.1636
▁Ara	-11.1637
▁ospitalera	-11.1641
Gazte	-11.1642
▁HARTU	-11.1643
▁behatz	-11.1647
▁Euria	-11.1648
▁Pelikula	-11.1649
▁jostailu	-11.165
▁laguntzarik	-11.1651
▁Irteera	-11.1651
▁ebaki	-11.1651
TP	-11.1652
▁naturalak	-11.1653
pai	-11.1656
Na	-11.1659
▁minututan	-11.1661
ille	-11.1662
▁Askatasuna	-11.1665
▁zenioke	-11.1665
Hala	-11.1666
▁Argentina	-11.1671
soa	-11.1672
▁tonu	-11.1673
ARI	-11.1675
▁biderik	-11.1675
▁Igande	-11.1677
▁com	-11.1677
balioa	-11.1678
▁zabor	-11.1679
▁handitzeko	-11.1682
▁neurrian	-11.1683
▁indarrez	-11.1683
▁bizitzari	-11.1684
administratzaile	-11.1685
▁zenituzke	-11.1685
▁you	-11.1685
33	-11.1688
▁bukatzeko	-11.1688
▁fo	-11.1689
tzo	-11.1689
▁Partida	-11.1691
▁edukitzeko	-11.1693
bes	-11.1693
▁hegaldi	-11.1694
▁askatasunaren	-11.1695
▁etiketak	-11.1695
Da	-11.1695
arioa	-11.1696
▁diagu	-11.1696
▁parametro	-11.1698
▁Gizonezko	-11.17
▁Gaixo	-11.17
▁zerbitzura	-11.1702
▁salba	-11.1705
▁ikasketa	-11.1705
▁Soinu	-11.1707
darra	-11.1707
▁kasuetan	-11.1707
▁azaroan	-11.1707
▁Itzal	-11.1709
▁Doitu	-11.1709
▁zukeen	-11.1711
▁Lam	-11.1712
▁Prestatu	-11.1712
▁sakratua	-11.1714
▁parlamentu	-11.1714
▁gotorleku	-11.1714
▁txo	-11.1715
▁elektronikoak	-11.1717
▁aurreikusi	-11.1718
RO	-11.1719
▁(3	-11.172
uch	-11.1722
▁ziurtatzeko	-11.1723
▁VPN	-11.1723
▁Zentro	-11.1723
▁onerako	-11.1726
▁izate	-11.1727
▁Sen	-11.1728
▁irteerako	-11.1729
▁uhartea	-11.1729
▁Gipuzkoako	-11.1731
▁marjina	-11.1731
▁Tan	-11.1731
▁asteburuan	-11.1732
zerbitzu	-11.1732
▁Ingeniaritza	-11.1733
▁justu	-11.1734
alabek	-11.1738
ted	-11.1738
▁Kokalekua	-11.1739
▁HTTP	-11.1739
▁aitzin	-11.1741
wood	-11.1744
▁erretiroa	-11.1746
▁idazleak	-11.1749
Hil	-11.175
▁jabeak	-11.175
▁bedeinka	-11.1753
▁gaixotasunak	-11.1754
game	-11.1754
bait	-11.1754
mai	-11.1755
▁Segur	-11.1756
▁eskualdeko	-11.1757
▁izutu	-11.1758
▁Sobietar	-11.1759
var	-11.176
▁3:	-11.1762
▁Ekainaren	-11.1765
▁tele	-11.1765
▁botika	-11.1766
▁Kanpoan	-11.1766
▁bitan	-11.1767
▁Haurrek	-11.1768
▁Del	-11.1768
Eskerrik	-11.1771
cio	-11.1771
▁zoro	-11.1771
▁alkohola	-11.1773
▁betebeharra	-11.1775
▁Prop	-11.1776
▁Zor	-11.1777
card	-11.1777
▁juridiko	-11.1778
onen	-11.1779
▁eliz	-11.1781
▁batzorde	-11.1782
▁eskolako	-11.1782
▁existitu	-11.1782
▁laburpena	-11.1785
▁ergela	-11.1786
▁urrundu	-11.1787
▁erlazio	-11.179
▁Gehienetan	-11.179
gilea	-11.1791
▁nizuke	-11.1793
▁Kas	-11.1793
▁eban	-11.1794
▁domina	-11.1794
▁behartsu	-11.1796
▁instituzio	-11.1796
▁hementxe	-11.1797
▁eskolak	-11.1797
▁izateari	-11.1802
▁aspalditik	-11.1804
▁gomendagarria	-11.1804
▁lagungarria	-11.1805
▁indibidual	-11.1807
▁Arakatu	-11.1808
▁esanguratsu	-11.1808
aldiak	-11.1809
direktorioa	-11.1809
▁Erromako	-11.181
▁Ivan	-11.1812
▁2.0	-11.1812
▁Aditu	-11.1813
▁Oraingo	-11.1813
tibitate	-11.1813
▁eme	-11.1815
▁laino	-11.1815
▁ti	-11.1816
▁Labur	-11.1818
▁zerbitzatzen	-11.1818
▁umeek	-11.1824
▁nekazaritza	-11.1824
Er	-11.1824
▁konparatu	-11.1824
..."	-11.1827
laren	-11.1828
▁Copyright	-11.1829
▁Proxy	-11.1829
▁BATEK	-11.183
▁Abokatu	-11.183
penak	-11.1832
▁behartzen	-11.1837
88	-11.1838
▁argumentua	-11.1841
97	-11.1843
Ongi	-11.1843
▁metroko	-11.1843
▁lerroak	-11.1845
▁pantailan	-11.1845
▁argazkilari	-11.1846
▁hondo	-11.1847
posi	-11.1851
▁piztia	-11.1851
Gai	-11.1852
▁dakien	-11.1852
▁argudio	-11.1852
▁pilotu	-11.1853
▁ekarpena	-11.1855
▁Ale	-11.1856
▁ailegatu	-11.1858
▁Gre	-11.1859
bot	-11.186
gene	-11.186
▁jakintsu	-11.1861
▁Eguneko	-11.1861
▁ezarriko	-11.1865
▁biratu	-11.1867
▁bideratu	-11.1867
▁urterako	-11.1868
▁historiako	-11.1869
eremu	-11.1869
▁ontziak	-11.1872
litate	-11.1872
▁emakumearen	-11.1875
▁leinu	-11.1876
▁Eskubideen	-11.1876
▁autentifikazio	-11.1877
▁eu	-11.1878
▁Ten	-11.1879
èn	-11.1881
▁Lokal	-11.1882
▁abere	-11.1886
▁Geroztik	-11.1888
eraz	-11.1889
▁protokoloa	-11.189
▁eskaerak	-11.1891
▁maiuskulaz	-11.1891
▁West	-11.1893
▁ginateke	-11.1894
▁mas	-11.1899
itario	-11.1901
▁guziak	-11.1901
▁BALDIN	-11.1902
▁GFDL	-11.1902
▁unibertsala	-11.1902
Esan	-11.1903
▁eguneratzen	-11.1903
sse	-11.1903
bakarrik	-11.1904
▁krimen	-11.1904
▁familian	-11.1905
96	-11.1906
▁koroa	-11.1907
▁zatiak	-11.1908
:18	-11.1911
▁dezakegun	-11.1912
▁kontrolpean	-11.1912
▁Sc	-11.1914
▁diziplina	-11.1916
▁gintuzten	-11.1916
▁ditzakeen	-11.1917
▁onartutako	-11.1919
▁zaldiak	-11.1921
▁zerrendatik	-11.1924
▁linea	-11.1926
▁Kazetari	-11.1927
▁ingeniaritza	-11.1928
▁egutegiaren	-11.1929
▁museoa	-11.193
lab	-11.193
▁asteroide	-11.1931
▁aholkulari	-11.1933
▁handienetako	-11.1934
kara	-11.1936
▁Noizbait	-11.1939
▁Sexu	-11.1941
▁higi	-11.1944
▁erreproduzitze	-11.1944
▁adierazitako	-11.1945
▁Droga	-11.1946
▁Artea	-11.1946
▁antzerkia	-11.1947
▁eztanda	-11.1948
▁aukeran	-11.1948
▁tokira	-11.1954
▁biribil	-11.1956
▁sagua	-11.1957
▁parametroak	-11.196
▁Pazifikoa	-11.196
lli	-11.196
▁izpiritu	-11.1963
▁bazi	-11.1963
▁esandako	-11.1966
▁Zuzendari	-11.1966
sle	-11.1966
▁Gurasoek	-11.1969
errorea	-11.197
▁hitzarmen	-11.1971
▁fitxara	-11.1972
▁Ram	-11.1972
62	-11.1973
▁Bederatzi	-11.1974
▁ALDERDI	-11.1975
bero	-11.1975
▁mendiak	-11.1979
Te	-11.1979
▁sinistu	-11.1981
▁Aski	-11.1981
▁freskoa	-11.1982
▁bahitu	-11.1982
▁bataila	-11.1987
▁minik	-11.1988
▁termino	-11.1988
▁Eskailera	-11.1989
arakatzailea	-11.199
▁Gtk	-11.199
▁logikoa	-11.1991
▁egindakoa	-11.1994
seguruak	-11.1998
▁YAHUSHUA	-11.2
▁baxu	-11.2001
▁Ertz	-11.2001
our	-11.2004
▁Osaba	-11.2005
▁Kudeatu	-11.2006
▁Normala	-11.201
▁eragiketak	-11.201
▁segida	-11.2011
▁1989	-11.2012
▁autoak	-11.2012
▁Arrantza	-11.2014
▁betebehar	-11.2014
DE	-11.2014
kutxa	-11.2015
▁urratsak	-11.2015
▁Jakob	-11.2018
jabe	-11.2018
sky	-11.2018
▁kanporatu	-11.2019
▁ekuazio	-11.2019
▁BATEN	-11.2019
▁iruzkina	-11.2021
uan	-11.2021
▁ihesi	-11.2023
▁64	-11.2026
▁asmatzen	-11.2026
▁Lehenengoa	-11.2027
▁bidegabe	-11.2028
▁dezakeela	-11.2029
▁2)	-11.2031
▁hilabetez	-11.2033
▁Teoria	-11.2033
▁HONEN	-11.2034
▁oinordeko	-11.2034
▁Bertso	-11.2034
▁Emakumeek	-11.2034
bizitza	-11.2035
▁AA	-11.2037
▁hilean	-11.2041
▁atomo	-11.2041
▁Diseinu	-11.2042
▁ezabatuko	-11.2045
▁Grafiko	-11.2045
rama	-11.2046
bateko	-11.2048
▁Berarekin	-11.2048
▁aitzitik	-11.2049
tzari	-11.2052
rina	-11.2055
▁sustatzen	-11.2056
▁ekaitz	-11.2057
behar	-11.2057
▁byte	-11.2058
▁animali	-11.2058
▁zintzilik	-11.206
▁hornitu	-11.2062
goi	-11.2063
▁Aitona	-11.2066
▁''	-11.2067
erantz	-11.2072
▁Saul	-11.2072
garritasun	-11.2074
dazu	-11.2075
▁map	-11.2075
oen	-11.2076
zta	-11.2076
▁AKATS	-11.2078
▁krisia	-11.2082
iek	-11.2083
▁leihotik	-11.2084
▁zaigun	-11.2084
▁Zabal	-11.2084
▁iristean	-11.2085
▁kontzertua	-11.2085
indu	-11.2085
yk	-11.2087
Gauza	-11.2089
▁Barruan	-11.2089
▁hiruko	-11.2091
▁munduak	-11.2093
tok	-11.2093
zerbitzari	-11.2095
▁International	-11.2096
59	-11.2096
▁Ilargia	-11.2096
oiak	-11.2097
▁47	-11.2098
▁amaitzea	-11.2099
▁jaiotze	-11.21
pasa	-11.21
▁zitzaiola	-11.2101
▁naturaren	-11.2101
▁agertzea	-11.2101
▁Guztiek	-11.2102
▁lasterka	-11.2104
▁denboraren	-11.2105
▁ERANTZUKIZUN	-11.2108
▁vkan	-11.2108
▁Lore	-11.2108
▁markatzen	-11.2109
▁galeria	-11.2109
▁gidoi	-11.2111
▁BERME	-11.2111
▁dizkizugu	-11.2111
▁Eskoziako	-11.2112
area	-11.2113
zti	-11.2115
▁%100	-11.2116
▁auzoan	-11.2116
▁adiskidetasuna	-11.2116
Tx	-11.212
▁Ostiral	-11.2122
▁luzaroan	-11.2122
of	-11.2123
▁Gehienak	-11.2124
▁hitzetan	-11.2124
▁ertzean	-11.2126
▁estua	-11.2127
formatu	-11.2128
▁eraldaketa	-11.2128
▁46	-11.2128
tru	-11.2133
▁eranskina	-11.2134
FS	-11.2134
▁abiatzen	-11.2134
▁erail	-11.2139
▁ospakizun	-11.214
ST	-11.2141
▁ahula	-11.2141
▁txapeldun	-11.2142
urre	-11.2142
▁erdiak	-11.2143
turiko	-11.2146
▁oinarritua	-11.2146
▁Angeles	-11.2146
▁Egunkari	-11.2146
▁webgunearen	-11.2147
uzte	-11.2147
▁Bilboko	-11.2147
▁elementuen	-11.2151
▁erri	-11.2151
zati	-11.2153
arteko	-11.2153
▁ikusgarria	-11.2156
▁galdua	-11.2157
▁txikiagoak	-11.2158
▁EGILEA	-11.216
▁Gaua	-11.2163
▁Batzar	-11.2163
▁Cap	-11.2163
▁aldaketarik	-11.2164
▁astebete	-11.2165
▁izoztu	-11.2166
▁banako	-11.2169
iozu	-11.2171
56	-11.2171
beltz	-11.2172
▁Dokumentua	-11.2173
▁Liburutegia	-11.2175
▁Eguzkiaren	-11.2179
▁sinesmen	-11.2179
▁Zoriontsu	-11.2179
▁nabaritzen	-11.218
▁garrasi	-11.2182
▁autoan	-11.2183
programa	-11.2186
▁Nirekin	-11.2188
▁jauregi	-11.2189
▁LIZENTZIA	-11.219
▁dizkit	-11.2191
▁herriari	-11.2192
▁aurkitutako	-11.2193
CA	-11.2195
▁gaztelua	-11.2196
▁gutxitu	-11.2197
▁Lehengo	-11.2197
▁maiatzean	-11.2198
▁kokapen	-11.2198
▁herrialdean	-11.22
▁dokumentazioa	-11.22
▁Ikasleek	-11.22
()	-11.22
▁jaunaren	-11.22
▁POP	-11.2201
’.	-11.2201
▁Horrekin	-11.2205
▁Erronka	-11.2205
▁Mel	-11.2207
▁bezeroek	-11.2207
▁Mad	-11.2207
Co	-11.221
▁bitarte	-11.2211
pul	-11.2212
▁alboko	-11.2213
kunde	-11.2216
▁atzitu	-11.2216
▁epel	-11.2219
▁irakaskuntza	-11.222
▁gorpu	-11.2221
▁hizkuntzaren	-11.2223
▁Latin	-11.2224
▁Batasuna	-11.2224
▁bilduko	-11.2225
▁azukre	-11.2225
▁diferente	-11.2228
▁omenez	-11.2228
▁harik	-11.2228
▁1993	-11.2228
▁engainatu	-11.2231
▁Blokeatu	-11.2233
▁emaitz	-11.2235
▁KOLABORATZAILE	-11.2235
▁Hel	-11.2237
▁eraginkortasuna	-11.2237
▁definituta	-11.2239
▁aspertzen	-11.2241
Ho	-11.2242
UKATZE	-11.2243
▁delarik	-11.2243
▁Alaba	-11.2243
▁inguratuta	-11.2246
29	-11.225
yl	-11.2251
ifika	-11.2252
elek	-11.2252
:14	-11.2253
€	-11.2253
gur	-11.2254
▁pluginak	-11.2254
:11	-11.2255
▁daitezkeela	-11.2256
▁modeloa	-11.2258
smo	-11.2258
▁din	-11.2259
▁zenez	-11.2265
▁kristal	-11.2265
▁DENIK	-11.2266
NONGO	-11.2266
▁untzi	-11.2267
▁frantsesez	-11.2267
▁eraldatu	-11.227
▁Ibilbide	-11.2271
▁Beltz	-11.2271
▁txarrik	-11.2272
▁Antza	-11.2274
▁tunel	-11.2274
▁trenbide	-11.2274
Noiz	-11.2276
▁italiar	-11.2276
▁aktibatzen	-11.2277
▁aholkua	-11.2281
▁aldagai	-11.2281
▁erregimen	-11.2281
▁(1)	-11.2281
▁estimatzen	-11.2283
77	-11.2287
▁moneta	-11.2289
▁erreklamazio	-11.229
▁zintuen	-11.229
lerroa	-11.2293
▁cen	-11.2293
▁liberal	-11.2294
▁aldaera	-11.2295
TX	-11.2297
▁txalo	-11.2297
▁pertsonaren	-11.2302
▁Saudi	-11.2305
modua	-11.2306
▁Eskuratu	-11.2307
▁nagusian	-11.2308
▁magiko	-11.231
▁IBILTZEA	-11.2311
▁goitibeherako	-11.2311
▁BURUZKORIK	-11.2311
▁iri	-11.2312
▁Konexioa	-11.2312
dina	-11.2313
▁Just	-11.2314
▁Paulo	-11.2314
IZ	-11.2316
▁Chicago	-11.2319
▁Epe	-11.2322
▁daudenean	-11.2324
▁Bien	-11.2326
▁sufrimendua	-11.2326
barrak	-11.2328
▁Trump	-11.2328
alak	-11.233
lock	-11.233
▁inprimagailu	-11.2331
▁badauka	-11.2332
▁ospitalean	-11.2333
▁gustukoa	-11.2333
▁gaituzten	-11.2336
▁euskararen	-11.2337
El	-11.2338
▁panelaren	-11.2339
▁geratzeko	-11.2339
put	-11.234
kula	-11.2344
▁Urtea	-11.2346
▁dabe	-11.2347
▁egiterik	-11.2347
▁ezartzean	-11.2348
▁pasatuko	-11.2349
azpi	-11.235
▁Rosa	-11.235
▁sozialista	-11.235
▁besoak	-11.235
▁arku	-11.235
▁%.1	-11.2353
▁Batua	-11.2354
▁komunikatu	-11.2354
▁lantzeko	-11.2355
▁adierazita	-11.2355
▁dado	-11.2356
▁jarduten	-11.2357
▁sala	-11.2359
▁dokumentuaren	-11.236
▁oparia	-11.2361
▁Amerikan	-11.2362
▁YouTube	-11.2364
▁Sy	-11.2366
rm	-11.2367
▁osoz	-11.2367
ibil	-11.237
▁Anjuta	-11.2372
nar	-11.2374
▁zaharren	-11.2376
▁bezeroaren	-11.2378
▁funtzionatu	-11.2379
▁jakinduria	-11.238
▁solasaldi	-11.2385
ds	-11.2386
▁bereizketa	-11.2388
▁jakiten	-11.2391
▁goxoa	-11.2392
▁Xehetasunak	-11.2394
▁trikimailu	-11.2395
▁Zooma	-11.2396
▁alternatiba	-11.2398
▁bozka	-11.2401
▁Sp	-11.2401
Izan	-11.2403
[8]	-11.2404
▁geldiarazi	-11.2404
tazio	-11.2405
▁gazteena	-11.2406
▁salbatuko	-11.2407
▁eskualdean	-11.2407
▁nauzue	-11.2408
▁liga	-11.2409
▁kopa	-11.241
▁ostiral	-11.2411
53	-11.2411
▁umeen	-11.2413
▁barkatzen	-11.2414
IO	-11.2415
▁benetakoa	-11.2416
▁bol	-11.2418
▁dorre	-11.2418
▁Ofizial	-11.2418
ath	-11.242
▁egokitzeko	-11.2421
mezu	-11.2423
▁Erantsi	-11.2423
▁eskualdea	-11.2424
ust	-11.2424
▁nerabe	-11.2426
▁Suedia	-11.2426
▁partizioa	-11.2426
▁koloretako	-11.2427
▁Jane	-11.2427
rom	-11.243
▁litekeena	-11.2432
▁ingurumen	-11.2432
▁Itzali	-11.2433
▁zizkioten	-11.2434
▁ekoiztu	-11.2434
▁Aingeru	-11.2436
▁Ordenatu	-11.2439
▁zabaltzea	-11.244
▁Matematika	-11.244
▁zelula	-11.2441
▁ZEHAZT	-11.2441
▁bitamina	-11.2441
▁egunkariak	-11.2442
izatzea	-11.2443
▁tenplu	-11.2444
▁politikak	-11.2444
▁japoniar	-11.2444
▁egiteagatik	-11.2445
▁seguruan	-11.2446
▁kontsumitzaile	-11.2447
▁ir	-11.2448
▁Brasero	-11.2449
▁iPhone	-11.2449
▁bortxa	-11.245
fri	-11.2452
:16	-11.2453
▁Fundazioa	-11.2454
azken	-11.2454
▁Tre	-11.2454
▁egiaztatzen	-11.2457
▁ezkutuan	-11.2457
▁●	-11.2458
▁itsasora	-11.246
▁maiteminduta	-11.2461
▁naizelako	-11.2462
mel	-11.2465
riaren	-11.2466
▁liderra	-11.2466
▁famili	-11.2469
kode	-11.2472
▁uharteak	-11.2472
▁filme	-11.2472
▁maitasunaren	-11.2472
▁matematiko	-11.2472
berti	-11.2473
▁Gold	-11.2476
▁daukaten	-11.2478
▁abisua	-11.2479
kapen	-11.2479
▁Instagram	-11.248
▁zailak	-11.248
win	-11.2481
▁modutan	-11.2484
▁eguneraketa	-11.2485
ure	-11.2486
ej	-11.2486
▁jendetza	-11.2487
▁lehenbizi	-11.2489
▁motak	-11.2489
▁biltegiratze	-11.2492
▁Qui	-11.2492
69	-11.2493
▁kantari	-11.2494
▁osagaiak	-11.2494
▁Palestina	-11.2495
▁esklabu	-11.2495
cus	-11.2495
▁minutuz	-11.2497
▁berre	-11.2497
▁Elizabeth	-11.2497
▁drama	-11.2499
▁Geruza	-11.2499
▁Guretzat	-11.25
▁Zorte	-11.2501
''	-11.2505
▁Ahots	-11.2505
loa	-11.2505
iti	-11.2506
▁2,8	-11.2507
▁Atea	-11.2508
asi	-11.2508
▁Gara	-11.2508
▁Name	-11.2509
▁HASIERAK	-11.251
▁auzia	-11.251
▁Metro	-11.2512
ET	-11.2512
▁Animaliak	-11.2513
zulo	-11.2517
emakume	-11.2518
▁aurpegiak	-11.2519
▁fidatu	-11.252
▁exekutatzeko	-11.252
5;	-11.252
▁hegoaldean	-11.2522
▁babestuta	-11.2524
▁jakinarazpena	-11.2524
▁Gri	-11.2525
▁Urrats	-11.2526
tzetan	-11.2533
▁litzaizuke	-11.2534
▁juridikoa	-11.2535
▁Sarea	-11.2537
-10	-11.2538
▁Goian	-11.2543
▁hizkuntzan	-11.2544
▁feminista	-11.2547
▁heziketa	-11.2549
▁zurrumurru	-11.255
▁Erabiltzen	-11.255
▁Azaroaren	-11.255
▁ezertarako	-11.2554
▁Ane	-11.2554
▁zerizan	-11.2555
▁animazio	-11.2556
▁49	-11.2557
▁Propietate	-11.2557
▁egiteari	-11.2557
▁katoliko	-11.2559
▁saltzea	-11.256
▁Bukatu	-11.2561
▁atributua	-11.2562
▁zatitu	-11.2562
auto	-11.2565
▁Bluetooth	-11.2565
▁Far	-11.2566
▁Zergaitik	-11.2567
gaiak	-11.2568
mini	-11.2568
▁frogatzen	-11.2569
tuan	-11.2571
▁Mike	-11.2573
▁medio	-11.2574
▁Baduzu	-11.2576
▁Halaxe	-11.2577
aurre	-11.2578
▁Mezuaren	-11.258
▁itzazue	-11.258
▁lehenetsiak	-11.2582
▁Koloreak	-11.2583
▁Arabiar	-11.2584
▁aldizkaria	-11.2585
▁larunbatean	-11.2587
▁osatua	-11.2589
▁ezpain	-11.2591
▁antolatuta	-11.2592
▁txantxa	-11.2593
▁Mat	-11.2593
▁urtekoa	-11.2596
08	-11.2597
geno	-11.2598
▁Tru	-11.2598
▁Hobeto	-11.2599
sha	-11.26
▁hileko	-11.26
▁erla	-11.2601
tegiko	-11.2603
▁Arratsaldean	-11.2604
▁Dirudienez	-11.2604
▁autobusa	-11.2605
▁ondare	-11.2605
▁Betidanik	-11.2606
▁mito	-11.2606
▁fabrikatzaile	-11.2606
58	-11.2607
sai	-11.2611
▁guztiari	-11.2612
▁War	-11.2612
▁iloba	-11.2612
rarazi	-11.2612
▁pausoa	-11.2613
92	-11.2614
▁utziz	-11.2618
▁Abiadura	-11.262
▁Baliogabeko	-11.2621
▁Nazional	-11.2625
ye	-11.2625
▁zaudenean	-11.2626
▁You	-11.2626
▁orriaren	-11.2627
▁Frantzisko	-11.2628
▁egidazu	-11.2628
▁Lasterketa	-11.2628
▁Berrikuntza	-11.2629
tiar	-11.263
▁Lurrean	-11.2631
▁izendatzen	-11.2631
ontzia	-11.2632
ance	-11.2632
▁jiratu	-11.2636
zea	-11.2637
iñ	-11.2639
▁Sarritan	-11.264
▁bistan	-11.264
▁ekoizpena	-11.2641
▁zortziko	-11.2642
my	-11.2642
▁onenaren	-11.2643
▁jeloskor	-11.2643
▁imajina	-11.2644
▁litzatekeela	-11.2645
▁misteriotsu	-11.2645
izki	-11.2647
▁herrialdeetan	-11.2647
▁Agindu	-11.2648
51	-11.2649
▁mundura	-11.2649
▁itzulpena	-11.2649
TIK	-11.2649
No	-11.2651
▁aspertu	-11.2651
ordea	-11.2652
marken	-11.2653
▁Gizona	-11.2653
asko	-11.2653
▁dioenez	-11.2654
▁Andrea	-11.2656
▁dabiltzan	-11.2657
▁Arazoak	-11.2657
▁asegurua	-11.2658
bek	-11.2659
▁Eg	-11.2659
▁Ola	-11.2659
▁aldentze	-11.2661
▁behartuta	-11.2662
▁irudien	-11.2663
▁Hitzaldia	-11.2666
▁ken	-11.2666
▁iparraldean	-11.2669
▁oinarritu	-11.2671
zketa	-11.2671
▁hildakoak	-11.2672
▁arduratuko	-11.2675
▁Plazer	-11.2675
▁baloia	-11.2676
-2	-11.2678
▁Pol	-11.2678
▁ezkutatzeko	-11.2678
▁karbono	-11.2679
▁Cam	-11.2682
ets	-11.2686
▁Gobernua	-11.2687
ME	-11.2692
▁itun	-11.2697
▁Media	-11.2698
beharrezkoa	-11.2699
▁ziurtasun	-11.27
aw	-11.27
▁PDF	-11.27
▁kontsumitzen	-11.2702
▁karaktereak	-11.2702
▁aspergarria	-11.2703
Etxe	-11.2704
▁damutu	-11.2705
▁pilo	-11.2706
arengatik	-11.2706
▁zenbatu	-11.2707
▁irlandar	-11.2707
▁ahaleginak	-11.2712
TZA	-11.2712
▁irentsi	-11.2714
▁esportatu	-11.2715
▁birtual	-11.2716
ms	-11.2716
ick	-11.2721
▁iradokitzen	-11.2722
▁Ingalaterran	-11.2722
▁etza	-11.2723
biko	-11.2723
oin	-11.2723
▁bosteko	-11.2724
▁irtengo	-11.2725
▁Konfiantza	-11.2726
▁uka	-11.2728
▁Utz	-11.273
▁cedin	-11.273
▁erruz	-11.2732
▁gunean	-11.2732
▁autentifikazioa	-11.2734
▁daturik	-11.2735
▁diodan	-11.2737
▁bidaiatzeko	-11.2737
▁Amaren	-11.2738
▁Kontseiluak	-11.2738
uzka	-11.2739
▁puntuazioak	-11.274
tazioa	-11.2741
▁zir	-11.2743
▁latza	-11.2745
▁ça	-11.2745
▁Fla	-11.2746
▁asi	-11.2746
▁Kir	-11.2746
kun	-11.2746
nta	-11.2748
uten	-11.2749
▁Etengabe	-11.2751
▁600	-11.2751
▁irudimena	-11.2751
▁zaindari	-11.2755
▁hunkitu	-11.2756
▁gelditzea	-11.2756
▁heze	-11.2757
▁Joxe	-11.2759
▁partez	-11.276
▁mezurik	-11.276
▁inolaz	-11.2761
▁sagar	-11.2761
▁Berlin	-11.2761
▁onar	-11.2765
katua	-11.2766
▁Ibilgailu	-11.2767
▁ekartzea	-11.2767
▁onez	-11.2768
▁Salomon	-11.277
▁konpainiak	-11.2771
▁gehituko	-11.2771
▁PA	-11.2772
67	-11.2772
▁bur	-11.2773
▁bortxatu	-11.2773
▁Londres	-11.2774
▁antolatzaile	-11.2776
▁hiztun	-11.2778
ske	-11.2779
sch	-11.278
▁bal	-11.278
lerro	-11.278
▁irribarrea	-11.2784
▁merkatari	-11.2784
▁nabaritu	-11.2784
▁saiatzea	-11.2785
▁testuinguru	-11.2785
▁kontuaren	-11.2786
▁elefante	-11.2786
▁hai	-11.2786
▁jaki	-11.2788
▁afari	-11.2789
▁Glade	-11.279
Bizitza	-11.279
▁Marx	-11.2797
▁oparitu	-11.2798
▁Bank	-11.28
▁ezar	-11.2801
▁eskas	-11.2802
▁Hamabi	-11.2802
▁ohia	-11.2803
▁kantatu	-11.2804
ui	-11.2805
▁Krisi	-11.2806
100	-11.2808
▁errealean	-11.2809
▁ceçan	-11.281
▁entrenatzen	-11.281
▁organismo	-11.281
▁hondarrera	-11.281
bako	-11.2812
▁muntatze	-11.2812
▁Ekaitz	-11.2813
▁deitzeko	-11.2814
▁bultza	-11.2814
▁gurea	-11.2817
▁zirkuitu	-11.2818
▁bertikal	-11.2818
▁Animatu	-11.2819
▁zeinaren	-11.2822
▁Jim	-11.2823
▁zerura	-11.2825
He	-11.2826
▁federal	-11.2827
esi	-11.2827
▁USB	-11.283
▁gorriak	-11.283
eguna	-11.2831
bideak	-11.2833
▁Demagun	-11.2834
▁daitezela	-11.2834
▁Negu	-11.2835
▁Xehetasun	-11.2835
▁sakonago	-11.2839
▁itsaskor	-11.284
▁ahoskatzen	-11.2842
▁apustu	-11.2843
▁SEO	-11.2844
▁ilusio	-11.2845
▁saia	-11.2847
▁pen	-11.2849
▁Larunbat	-11.285
duk	-11.2852
Ai	-11.2852
▁erabiltzaileei	-11.2852
▁adostu	-11.2854
▁bisitatzeko	-11.2855
▁finko	-11.2856
▁gauz	-11.2857
ali	-11.2857
▁Empathy	-11.2858
▁Madrilen	-11.2859
▁1000	-11.2859
▁chat	-11.2861
!".	-11.2861
▁Apur	-11.2861
tuaren	-11.2861
▁itzultzaile	-11.2863
▁media	-11.2863
▁txinatar	-11.2865
▁zaretela	-11.2866
▁Napoleon	-11.2866
▁konkretu	-11.2866
▁Gizakia	-11.2867
▁nota	-11.2868
▁SE	-11.2869
▁anonimo	-11.2869
▁Gutun	-11.287
ulu	-11.287
▁betaurrekoak	-11.2871
▁hormona	-11.2877
BE	-11.2881
▁Otoitz	-11.2882
has	-11.2883
▁Azoka	-11.2883
▁jazo	-11.2885
▁nano	-11.2885
▁mugatua	-11.2887
▁estrategiko	-11.289
▁desberdintasuna	-11.2891
▁Kalitate	-11.2892
▁gidatzeko	-11.2893
▁Britainiar	-11.2893
▁moduak	-11.2894
▁gezia	-11.2894
▁bereiz	-11.2895
▁egarri	-11.2895
▁kom	-11.2896
▁Gustura	-11.2896
ium	-11.2897
▁Mozilla	-11.2898
▁talka	-11.2898
▁Korritze	-11.2898
è	-11.29
▁kritiko	-11.2901
▁Tali	-11.2905
▁txikietan	-11.2905
▁subirano	-11.2906
▁test	-11.2908
▁andreak	-11.2908
▁Jonathan	-11.2909
mezua	-11.291
▁abantailak	-11.291
▁egunetik	-11.2912
-3	-11.2914
kizu	-11.2914
▁genituzke	-11.2914
▁irabazleak	-11.2914
▁munduari	-11.2914
▁derrigorrezkoa	-11.2918
▁akzio	-11.2921
▁instrumentu	-11.2922
▁dauzkazu	-11.2926
▁adierazle	-11.2927
▁elkartea	-11.2927
▁lokalak	-11.2927
yn	-11.2932
▁markoa	-11.2933
▁Erreserba	-11.2933
▁besteko	-11.2937
GO	-11.294
▁aukeraketa	-11.294
mundu	-11.2943
▁Txerri	-11.2943
▁Ib	-11.2944
▁ezinezko	-11.2944
▁sumatu	-11.2947
▁Etorkizun	-11.2947
▁Londresko	-11.2947
52	-11.2949
▁Lady	-11.295
▁independentea	-11.2951
▁batzutan	-11.2955
▁morala	-11.2955
▁operazio	-11.2956
▁onuragarria	-11.2957
▁zuriune	-11.2958
▁atzi	-11.2963
▁jardunaldi	-11.2964
▁Ac	-11.2964
▁Moises	-11.2965
▁murgildu	-11.2967
▁lehentasun	-11.2967
▁zutelako	-11.2969
▁beldurtu	-11.2971
▁barri	-11.2971
▁zintudan	-11.2971
rum	-11.2972
▁funtzionario	-11.2973
▁askorentzat	-11.2974
▁pasahitzak	-11.2974
▁Zen	-11.2977
▁pertsonei	-11.2978
▁Pablo	-11.2979
▁atentatu	-11.2979
pos	-11.2979
▁zakar	-11.2981
▁Johnson	-11.2983
▁Will	-11.2984
Tira	-11.2986
▁deialdia	-11.2986
▁Taxi	-11.2987
▁misterioa	-11.2987
▁Totem	-11.2988
▁praktiko	-11.2989
▁luzaro	-11.2989
▁komertzialak	-11.299
▁Jokatu	-11.2991
▁Batuek	-11.2994
▁eratzen	-11.2994
▁Wikimedia	-11.2995
▁nun	-11.2996
▁nabigatzailea	-11.2996
▁Erakundea	-11.2998
rin	-11.2999
▁isla	-11.3003
▁irteteko	-11.3003
▁por	-11.3004
▁zirraragarria	-11.3005
▁AS	-11.3006
▁Karl	-11.3008
63	-11.301
▁estrategikoa	-11.3011
rraren	-11.3012
doi	-11.3013
satu	-11.3015
▁probak	-11.3016
razioa	-11.3017
gailuak	-11.3019
▁igogailu	-11.3021
▁Diskoa	-11.3022
itzak	-11.3023
▁Kong	-11.3025
dela	-11.3025
▁albuma	-11.3026
▁Horien	-11.3027
▁oposizio	-11.3029
▁Altuera	-11.3032
AZ	-11.3033
▁ikastaroa	-11.3034
▁Gil	-11.3036
▁Akats	-11.3036
▁Katalunia	-11.3037
▁hadi	-11.304
arki	-11.304
ach	-11.3042
▁aipamen	-11.3042
▁biztanleria	-11.3045
▁Errepide	-11.3046
▁jaioa	-11.3046
▁jaramonik	-11.3046
proiektua	-11.3048
izenaren	-11.3048
ele	-11.3049
rrez	-11.305
▁dituk	-11.3052
▁Salvador	-11.3052
▁nukleo	-11.3052
▁jakinaraziko	-11.3053
▁Club	-11.3054
▁Carl	-11.3056
▁Kritika	-11.3063
izan	-11.3063
ontzat	-11.3063
azal	-11.3064
[5]	-11.3064
▁itxuraz	-11.3065
▁Ecen	-11.3066
▁garesti	-11.3067
ldu	-11.3067
ä	-11.3068
natzen	-11.3068
▁Gaztea	-11.3068
marra	-11.3072
lov	-11.3074
▁denaren	-11.3076
▁Ikasleak	-11.3077
▁tristura	-11.3077
▁Proposamen	-11.3077
▁↑	-11.3077
jin	-11.3077
61	-11.3082
print	-11.3082
▁zerbaiten	-11.3083
▁ori	-11.3085
▁Beharrezko	-11.3085
▁Bizikleta	-11.3085
▁gantz	-11.3086
▁Japoniar	-11.3087
▁Ehun	-11.3088
▁Aipatu	-11.3088
▁aditzen	-11.3088
▁aspektu	-11.3093
...”	-11.3094
▁National	-11.3094
▁Iturri	-11.3095
▁errugabe	-11.3096
▁gainazal	-11.3098
▁tristea	-11.3099
Pi	-11.3101
▁Ospitale	-11.3102
ác	-11.3103
Kaixo	-11.3105
84	-11.3106
▁hilabetean	-11.3107
▁Poesia	-11.311
hartzea	-11.3115
▁interesatu	-11.3118
▁planteatu	-11.3118
▁zeraman	-11.312
▁gaixorik	-11.3121
▁aurrekontua	-11.3121
kulu	-11.3123
▁hitzen	-11.3124
▁mendekua	-11.3124
link	-11.3124
▁multzoak	-11.313
▁Goiburu	-11.3131
▁semearen	-11.3133
▁ezinbesteko	-11.3134
▁ateratako	-11.3134
▁Obama	-11.3135
▁desgaituta	-11.3136
▁nagusien	-11.3137
▁demokratikoa	-11.3138
mutil	-11.3138
tzain	-11.3141
▁horrelakoa	-11.3141
▁Mikro	-11.3143
▁trebetasun	-11.3144
book	-11.3146
▁autore	-11.3148
▁batzuentzat	-11.3151
▁Filipina	-11.3151
▁Arrastatu	-11.3151
▁betiere	-11.3152
hy	-11.3152
Ju	-11.3152
▁Ematen	-11.3153
▁sobera	-11.3154
▁Gorri	-11.3155
sistemaren	-11.3156
Dena	-11.3158
▁dutenentzat	-11.3159
▁jolastea	-11.3159
gari	-11.3159
▁Prestakuntza	-11.316
ish	-11.3163
▁Pra	-11.3165
▁Bizirik	-11.3165
▁misio	-11.3166
▁paragrafo	-11.3166
rte	-11.3167
Uste	-11.3168
▁Lenin	-11.3168
▁Tamalez	-11.3168
▁miresten	-11.3168
▁bederen	-11.3168
▁Berrezarri	-11.3168
▁nituela	-11.3168
ED	-11.3171
▁aitzinean	-11.3171
▁Shi	-11.3172
mur	-11.3172
▁gauzatzen	-11.3173
▁analisia	-11.3174
▁Luze	-11.3175
▁Odola	-11.3175
200	-11.3177
▁marrazteko	-11.3177
▁apaindu	-11.3178
93	-11.3179
▁handitzea	-11.3181
▁intelektual	-11.3182
GE	-11.3183
mba	-11.3183
▁ikusirik	-11.3184
▁dutenen	-11.3184
▁gomendio	-11.3184
▁drogak	-11.3184
▁kuota	-11.3186
eran	-11.3188
▁Hiriko	-11.3189
▁Ukraina	-11.319
▁erlojua	-11.3192
▁agintea	-11.3193
▁itz	-11.3193
mark	-11.3193
▁mono	-11.3195
▁Hortxe	-11.3199
beti	-11.3199
▁arruntak	-11.32
▁finantzaketa	-11.32
▁Gainontzeko	-11.3201
▁osa	-11.3201
▁ban	-11.3202
▁baliatzen	-11.3202
irudia	-11.3202
▁Gizakiak	-11.3206
▁zuzenduta	-11.3207
▁egitasmo	-11.3208
▁Ch	-11.3209
forma	-11.3209
▁kapitulua	-11.3212
▁konferentzia	-11.3214
▁seinalea	-11.3214
▁Italian	-11.3216
▁sintomak	-11.3217
onia	-11.3222
▁ema	-11.3224
ima	-11.3226
▁edalontzi	-11.3226
▁Distantzia	-11.3226
▁zorro	-11.3227
▁konpon	-11.3228
▁etorrera	-11.3229
▁jarritako	-11.3229
▁Emakumea	-11.323
▁lanerako	-11.3231
▁damu	-11.3232
▁gobernatu	-11.3232
En	-11.3234
▁inauguratu	-11.3234
desktop	-11.3234
▁praktikoa	-11.3235
zela	-11.3235
▁panelean	-11.3235
▁hazkunde	-11.3237
▁Aho	-11.324
▁Kro	-11.3241
▁bertsolari	-11.3243
AD	-11.3244
LO	-11.3245
▁bigun	-11.3245
izko	-11.3245
zin	-11.3248
▁estatistikak	-11.325
kien	-11.3251
etiketa	-11.3251
IR	-11.3252
▁monumentu	-11.3254
ssa	-11.3255
▁webguneak	-11.3258
1)	-11.3259
▁Atenas	-11.3259
▁betebeharrak	-11.3265
▁norabidea	-11.3268
ction	-11.327
lanak	-11.327
▁astun	-11.3271
▁linean	-11.3272
▁harrapatuko	-11.3273
▁Sta	-11.3274
.[3]	-11.3275
▁direnez	-11.3276
▁ohituta	-11.3276
▁aritzeko	-11.3277
▁Mintza	-11.3277
▁zian	-11.3278
▁Aro	-11.3279
▁Apirilaren	-11.3279
▁Arropa	-11.328
▁indiar	-11.3282
▁eginkizuna	-11.3282
▁Vol	-11.3284
denak	-11.3285
▁auzoa	-11.3285
57	-11.3288
▁zur	-11.3288
▁inportatzea	-11.329
tto	-11.3291
ord	-11.3292
▁ordaintzea	-11.3293
▁Erreprodukzio	-11.3293
▁ci	-11.3294
gaitza	-11.3295
Ca	-11.3296
editorea	-11.3297
display	-11.3298
ssi	-11.3298
▁tro	-11.33
terik	-11.33
▁Erregina	-11.3301
roko	-11.3302
▁1984	-11.3302
▁sareta	-11.3302
▁inprimagailua	-11.3303
ergi	-11.3304
▁topaketa	-11.3305
▁deiak	-11.3306
▁badiozu	-11.3306
ive	-11.3306
siboa	-11.3307
▁dizkigute	-11.3307
▁atean	-11.3307
▁BI	-11.3307
▁arriskutsu	-11.3308
▁paisaia	-11.3311
gora	-11.3311
ikuspegia	-11.3312
modu	-11.3312
▁kolektibo	-11.3314
▁Lee	-11.3317
▁Aitzitik	-11.3318
▁mutu	-11.3318
▁Legearen	-11.3318
▁MI	-11.332
▁agiri	-11.332
▁Motor	-11.332
▁Bulegoa	-11.332
▁Arri	-11.3323
▁erasotzea	-11.3323
basea	-11.3326
▁Iesus	-11.3326
zatu	-11.3326
▁Gonbidatu	-11.3326
▁pasioa	-11.3326
▁Siriako	-11.3326
▁Carlos	-11.3329
▁12,3	-11.3329
Hobespenak	-11.333
▁dantzatzen	-11.3331
orrek	-11.3331
▁diagrama	-11.3332
▁eki	-11.3332
via	-11.3335
zula	-11.3336
▁apartamentu	-11.3337
psi	-11.3338
arazo	-11.334
▁erasoak	-11.3341
▁eros	-11.3342
▁amaierara	-11.3343
▁sp	-11.3347
▁Berriak	-11.3347
ratze	-11.3347
dade	-11.3348
▁okupatu	-11.3348
▁banatzeko	-11.3349
liz	-11.335
▁erreproduzitu	-11.3351
▁zihoazen	-11.3352
top	-11.3352
▁zazpigarren	-11.3354
▁modulu	-11.3357
▁ezti	-11.3358
anoa	-11.3358
▁andre	-11.3359
ous	-11.336
TO	-11.336
▁litzatekeen	-11.3361
▁Karlos	-11.3362
▁beha	-11.3365
Ab	-11.3366
▁doktrina	-11.3369
▁gudaroste	-11.3369
▁Kurtsorea	-11.3369
▁konektatzean	-11.3371
▁Ingurumen	-11.3377
▁agurtu	-11.3377
▁zizkidan	-11.3378
diz	-11.3379
▁batekoa	-11.3381
▁Bale	-11.3382
rian	-11.3383
▁Edan	-11.3383
▁irudian	-11.3384
▁tarteko	-11.3385
▁matrikula	-11.3385
▁Aireportu	-11.3386
▁Kartzela	-11.3386
ezinak	-11.3386
▁laga	-11.339
▁margotzen	-11.3391
▁Hall	-11.3393
toz	-11.3393
▁Aka	-11.3394
▁Kontatu	-11.3394
▁tranpa	-11.3395
ound	-11.3396
▁errealista	-11.3397
▁Sil	-11.3398
▁PP	-11.34
▁auker	-11.3402
mul	-11.3402
▁teknologiak	-11.3403
▁hedapena	-11.3404
▁Ant	-11.3405
▁ikuspegian	-11.3405
▁Bezeroak	-11.3408
over	-11.3409
▁XIX	-11.3412
▁brotxa	-11.3412
▁gaitzen	-11.3415
▁lagungarri	-11.3415
Se	-11.3415
▁hildakoen	-11.3416
▁Emozio	-11.3419
▁Gutxieneko	-11.3419
▁harra	-11.342
ness	-11.3421
▁elementuaren	-11.3421
▁larrua	-11.3422
▁emanda	-11.3422
▁sortatik	-11.3424
▁Erru	-11.3425
▁aditua	-11.3425
mos	-11.3427
▁gomendatu	-11.3427
▁apustua	-11.3428
▁Ipuin	-11.3428
▁Ezker	-11.3428
▁zerrendako	-11.3429
▁igoko	-11.3431
Inoiz	-11.3432
handi	-11.3432
▁soila	-11.3433
tern	-11.3435
▁ixteko	-11.3437
▁marrazten	-11.3438
▁Ema	-11.3438
▁eroriko	-11.3441
▁Ford	-11.3442
▁kolonia	-11.3442
▁bekatuak	-11.3443
▁uhin	-11.3444
▁Juda	-11.3444
▁matxinada	-11.3445
▁enbaxadore	-11.3445
▁baliogabeko	-11.3445
▁betegarria	-11.3446
▁Portugal	-11.3446
CE	-11.3447
▁erakundearen	-11.3447
▁agure	-11.3448
▁Lake	-11.3448
udi	-11.3449
▁erakundea	-11.3449
▁erru	-11.345
▁haurraren	-11.345
▁epi	-11.3451
▁Gogora	-11.3451
▁zeinu	-11.3452
▁hardware	-11.3453
Ne	-11.3454
▁kutsatu	-11.3454
▁Eskolan	-11.3456
zuri	-11.3459
Gailu	-11.346
▁unibertsal	-11.3462
▁Jatetxe	-11.3462
▁hiper	-11.3462
▁bihotzaren	-11.3463
karri	-11.3463
▁batzuetako	-11.3463
▁kurtsorea	-11.3464
iv	-11.3465
▁adimena	-11.3465
▁esp	-11.3465
▁komiki	-11.3466
▁Fred	-11.3466
▁lasaia	-11.3467
▁kaxa	-11.3467
haz	-11.3469
▁zenukete	-11.3469
▁bateratu	-11.347
▁poztu	-11.347
▁konfiguratuta	-11.3471
▁metodologia	-11.3471
▁direnik	-11.3471
▁eraikinak	-11.3473
▁ezkutu	-11.3473
menderatu	-11.3474
▁zai	-11.3475
tta	-11.3478
▁neurria	-11.3478
▁besoa	-11.3479
▁arbelean	-11.3479
▁Osatu	-11.3479
▁proportzio	-11.3481
▁beherako	-11.3483
▁amodioa	-11.3484
▁idatziz	-11.3489
:6	-11.3489
▁Gertu	-11.349
▁motibo	-11.349
▁kable	-11.3491
▁ahantzi	-11.3491
▁Jaungoikoa	-11.3492
:8	-11.3493
▁Nick	-11.3493
▁Ilargi	-11.3495
oinarri	-11.35
▁Landare	-11.3501
▁irla	-11.3503
▁zuhaitzak	-11.3504
▁txandaka	-11.3504
▁hirira	-11.3504
▁bazegoen	-11.3505
▁doako	-11.3505
roi	-11.3507
▁Barka	-11.3507
▁Kol	-11.3509
▁parean	-11.3509
▁beldurrak	-11.351
tzek	-11.351
▁musikaren	-11.3512
▁Disney	-11.3514
ret	-11.3514
▁sorkuntza	-11.3516
▁Itun	-11.3516
pera	-11.3519
▁eri	-11.352
▁Hondartza	-11.3522
▁askatzeko	-11.3523
▁larritu	-11.3525
▁misioa	-11.3525
▁jantzia	-11.3528
▁hon	-11.3528
▁bereganatu	-11.3528
▁Amerikar	-11.3529
▁ikasgai	-11.353
▁apirilean	-11.353
▁errez	-11.353
▁Japonian	-11.3531
▁Agenda	-11.3531
▁ondasunak	-11.3531
tter	-11.3531
▁saihesten	-11.3531
grad	-11.3534
▁lotsatu	-11.3536
▁ezertxo	-11.3538
▁Kide	-11.354
▁errespetu	-11.354
▁konponketa	-11.3541
kortasuna	-11.3543
EE	-11.3544
▁promozio	-11.3548
▁Master	-11.3548
▁tarifa	-11.3548
euskaraz	-11.355
▁segidan	-11.3553
garra	-11.3553
▁askatzen	-11.3553
nahiago	-11.3554
▁garagardoa	-11.3554
▁Bay	-11.3554
▁nuklearra	-11.3555
#1,	-11.3556
▁dagozkion	-11.3556
:13	-11.3557
▁Island	-11.3558
▁beranduegi	-11.356
▁250	-11.356
▁txirrindulari	-11.3561
▁solas	-11.3562
▁saioan	-11.3565
▁galdezka	-11.3566
▁ezkontzeko	-11.3566
▁jabetzen	-11.3567
▁Entzuten	-11.357
▁id	-11.357
▁;)	-11.3571
▁bakan	-11.3573
▁osagarriak	-11.3575
▁Laura	-11.3576
▁turista	-11.3578
▁aurreratuak	-11.3578
▁zerk	-11.3578
▁guzia	-11.358
▁kontsumoa	-11.3582
▁8,12	-11.3582
▁bekatari	-11.3582
▁3,19	-11.3582
▁muino	-11.3583
▁bidezkoa	-11.3585
▁desplazamendua	-11.3585
mann	-11.3586
▁gizonezkoen	-11.3587
ette	-11.3589
▁igotzeko	-11.3589
▁noizean	-11.359
▁eskuko	-11.359
▁erregistratuta	-11.3591
▁Klotski	-11.3591
▁Jakinarazpen	-11.3591
▁martxoan	-11.3591
▁arrazoimen	-11.3593
▁lurretik	-11.3594
▁ik	-11.3597
▁mugatzen	-11.3598
▁Gabriel	-11.3599
▁Anna	-11.36
▁elikagaien	-11.3606
sonek	-11.3606
▁erlazioa	-11.3606
▁ahaztuta	-11.3608
▁analizatzean	-11.3608
Hurrengo	-11.3608
▁geo	-11.3611
▁asteetan	-11.3611
▁Belgika	-11.3611
▁maisua	-11.3611
▁ezertaz	-11.3612
▁bukatzea	-11.3612
▁birus	-11.3612
▁Prezioa	-11.3613
▁denboraldia	-11.3615
goiburu	-11.3615
▁kalea	-11.3615
star	-11.3615
▁turismo	-11.3616
▁malgu	-11.3616
▁berpiztu	-11.3617
..#	-11.3617
lki	-11.3617
▁objektuaren	-11.3617
▁Ve	-11.3617
▁Janaria	-11.3619
bir	-11.3619
▁urrunago	-11.3619
quot	-11.3621
▁Pop	-11.3622
▁iraganeko	-11.3622
▁gidaria	-11.3623
▁Erregea	-11.3624
Gaitu	-11.3624
▁multimedia	-11.3625
▁gurutze	-11.3627
▁Bell	-11.363
lera	-11.3631
▁daukazun	-11.3631
▁sektorea	-11.3633
▁burdin	-11.3633
▁Tim	-11.3639
▁tur	-11.3639
▁ekaitza	-11.3641
▁gogoratzeko	-11.3643
▁inkesta	-11.3643
▁alderatuta	-11.3644
panela	-11.3646
▁katolikoa	-11.3649
eztatu	-11.365
▁Berez	-11.365
▁Senarra	-11.3651
▁CVS	-11.3653
▁Gorroto	-11.3654
▁berotu	-11.3656
ordu	-11.3658
▁kurba	-11.3661
▁denontzat	-11.3661
▁Diseinua	-11.3662
▁Espainiar	-11.3662
▁ginenean	-11.3662
▁trafiko	-11.3663
▁Maisu	-11.3663
▁burutzen	-11.3664
▁Frantziak	-11.3664
▁Jerusalemen	-11.3666
Nork	-11.3667
▁elkarteak	-11.3668
▁maitale	-11.3669
▁akabatu	-11.3669
reak	-11.367
▁Barruti	-11.3672
▁gaixoa	-11.3674
▁galdutako	-11.3676
▁zekiten	-11.3677
▁bazkari	-11.3678
▁ziurtatzen	-11.3681
txartela	-11.3682
▁aurrezteko	-11.3683
▁Zelako	-11.3683
meri	-11.3683
▁Santuak	-11.3684
▁daramatza	-11.3685
▁kimika	-11.3686
▁Klub	-11.3687
▁Bizkaiko	-11.3688
▁defendatzeko	-11.3688
▁Gipuzkoa	-11.3692
▁berdineko	-11.3692
▁ikusgarri	-11.3693
▁aurrerago	-11.3695
▁SA	-11.3696
▁Scott	-11.3696
▁maleta	-11.3696
▁jaregin	-11.3697
▁Gorputza	-11.3698
▁amodio	-11.3698
ever	-11.3702
RC	-11.3703
▁detektatu	-11.3704
lib	-11.3708
▁garatzea	-11.3709
▁prestatzea	-11.371
▁Errenkada	-11.371
gatu	-11.371
▁Liburuaren	-11.3711
▁espedizio	-11.3711
▁sendatzen	-11.3712
keen	-11.3713
▁Zerbitzariaren	-11.3713
▁Abiarazi	-11.3717
▁eskainitako	-11.3718
▁Israelek	-11.3718
▁errepidean	-11.3718
skripzio	-11.3719
behe	-11.372
▁Eguneroko	-11.372
amaiera	-11.3721
lic	-11.3721
▁legoke	-11.3721
▁ostia	-11.3722
▁merkeagoa	-11.3723
▁multi	-11.3724
▁eski	-11.3725
▁kalitatezko	-11.3725
▁gudari	-11.3725
▁(10	-11.3726
▁Baten	-11.3727
▁aipatzea	-11.3728
▁ikuspegitik	-11.373
▁baitugu	-11.373
txak	-11.3732
▁Greziako	-11.3733
gak	-11.374
▁audioa	-11.374
▁Turkia	-11.3742
▁elikatzen	-11.3743
▁Nabarmendu	-11.3744
ef	-11.3746
▁bola	-11.3747
▁kriminal	-11.3748
▁prestatuta	-11.3748
esek	-11.3748
▁neba	-11.3748
▁mail	-11.375
▁inprimaki	-11.3753
▁talentu	-11.3753
▁interpretatu	-11.3753
▁berdintasun	-11.3754
▁"{0}"	-11.3755
▁berreskuratzea	-11.376
▁hurbilago	-11.376
▁Planeta	-11.3761
▁geroz	-11.3761
▁antz	-11.3762
▁Futbola	-11.3764
▁ikaslea	-11.3764
▁Bart	-11.3765
▁munstro	-11.3765
▁jaialdia	-11.3768
▁akatsa	-11.3769
▁Ezarpenak	-11.3769
▁Times	-11.3769
▁abenduan	-11.3771
dom	-11.3772
▁Libia	-11.3772
▁maitatzea	-11.3772
▁bizian	-11.3773
▁Green	-11.3774
▁txa	-11.3774
▁harpidetu	-11.3774
▁mendearen	-11.3774
▁Komunikazioa	-11.3775
git	-11.378
▁harrapatzeko	-11.3782
▁eragozten	-11.3783
▁Bisitatu	-11.3784
▁arras	-11.3784
▁sorbalda	-11.3785
tratu	-11.3785
duta	-11.3786
▁hik	-11.3787
▁Ap	-11.3788
▁inbertitu	-11.3791
▁bidaltzean	-11.3792
CH	-11.3792
▁lokaleko	-11.3792
▁Good	-11.3794
tasunaz	-11.3796
▁Wo	-11.3797
▁ordenagailuak	-11.3798
▁arraina	-11.3799
▁jakitun	-11.38
▁komedia	-11.3801
▁bisitan	-11.3802
▁Arro	-11.3806
▁eskumen	-11.3808
▁ebakuntza	-11.3809
▁ge	-11.3811
▁alor	-11.3811
▁gabezia	-11.3811
▁erabakigarria	-11.3811
▁aberatsak	-11.3813
▁etorriak	-11.3813
▁gnome	-11.3813
▁Astean	-11.3815
kel	-11.3817
▁Youtube	-11.3818
▁Guardia	-11.3818
▁daukadan	-11.382
▁Interesa	-11.382
▁sailkapen	-11.3821
▁istripua	-11.3823
▁molde	-11.3823
▁ongietorria	-11.3824
▁makila	-11.3824
▁Harrapatu	-11.3825
▁baziren	-11.3825
▁helbideak	-11.3826
▁positiboak	-11.3829
▁Aran	-11.3831
▁entzule	-11.3833
▁ausaz	-11.3835
▁orduetan	-11.3835
▁SSH	-11.3836
pixeletan	-11.3836
▁tradizioa	-11.3837
▁desagertuko	-11.3839
▁bazkaldu	-11.384
Erantzun	-11.384
▁UTF	-11.384
hartze	-11.3841
▁lapurtzen	-11.3842
▁holako	-11.3843
▁Dasher	-11.3844
iola	-11.3845
▁dagizut	-11.3847
iturburu	-11.3851
nos	-11.3853
▁bideratzen	-11.3854
IE	-11.3854
▁atzoko	-11.3854
▁Tolosa	-11.3855
▁Aurki	-11.3856
time	-11.3857
▁merke	-11.386
▁Hotz	-11.386
▁zira	-11.386
▁eskari	-11.3862
▁epaitegi	-11.3862
▁Eseri	-11.3862
▁Berba	-11.3862
▁Zeru	-11.3866
▁Abuztua	-11.3871
▁program	-11.3873
▁Kap	-11.3873
▁harridura	-11.3876
▁Ikastaro	-11.3876
ella	-11.3877
cher	-11.3878
▁Errepublikako	-11.3879
▁beka	-11.388
hol	-11.388
▁aurreikusten	-11.388
▁araberako	-11.3881
▁zaituzten	-11.3882
oma	-11.3882
▁barrez	-11.3884
▁distiratsu	-11.3885
▁arearen	-11.3885
prozesua	-11.3885
▁Manuel	-11.3886
▁seiko	-11.3889
▁libratu	-11.3889
▁aitarekin	-11.389
▁Erran	-11.3893
▁Euskararen	-11.3893
▁gerraren	-11.3894
▁terapia	-11.3895
▁topa	-11.3895
▁Mina	-11.3895
ATU	-11.3896
▁galaxia	-11.3898
▁behingoz	-11.3898
mber	-11.3898
▁Zibila	-11.3898
▁Les	-11.3899
emate	-11.39
▁Ang	-11.39
tegian	-11.3901
gure	-11.3901
▁pol	-11.3902
▁cein	-11.3902
▁diogun	-11.3906
▁besarkatu	-11.3906
▁mugitzea	-11.3906
▁artikuluan	-11.3907
▁lar	-11.3908
▁negatibo	-11.3909
▁Pierre	-11.3911
▁orientazioa	-11.3911
loi	-11.3911
▁entzutean	-11.3913
▁Gezurra	-11.3913
▁bidera	-11.3913
▁taldekide	-11.3914
▁gatazkak	-11.3914
etaric	-11.3915
▁postua	-11.3917
▁jokabidea	-11.3917
▁zaborra	-11.3919
▁Ondorio	-11.392
▁Aldiz	-11.3921
atuko	-11.3921
▁neskato	-11.3926
▁Ministerio	-11.3927
menta	-11.3928
▁isolatu	-11.393
ikono	-11.393
▁hone	-11.393
etaraino	-11.3931
▁Elurra	-11.3931
▁cer	-11.3931
MP	-11.3933
▁pertsonalki	-11.3934
jen	-11.3936
▁afaldu	-11.3936
▁instalatzeko	-11.3937
▁iragazkiak	-11.3939
▁bidaiak	-11.3943
▁olioa	-11.3947
▁Donostiako	-11.3947
▁sudur	-11.3948
▁ordutegi	-11.3949
▁Dun	-11.3951
▁gordin	-11.3952
▁gaixotu	-11.3952
:17	-11.3952
▁Kanpo	-11.3953
▁artistak	-11.3954
gina	-11.3954
▁estekak	-11.3955
▁Baietz	-11.3956
▁goza	-11.3957
▁artistiko	-11.3959
▁Plana	-11.3961
manek	-11.3962
▁euskaldunak	-11.3963
▁makinak	-11.3964
▁etxearen	-11.3964
▁baze	-11.3966
83	-11.3967
Barkatu	-11.3967
▁sendagai	-11.3968
▁senarrak	-11.3968
▁Bihotza	-11.3969
▁iruzkinak	-11.397
vis	-11.3972
▁egunotan	-11.3973
86	-11.3974
pla	-11.3975
▁Suediako	-11.3977
▁Kontra	-11.3977
Argi	-11.3977
▁kliniko	-11.3978
ast	-11.3983
▁argibide	-11.3985
▁egokitzea	-11.3985
▁tradizionala	-11.3987
▁baditut	-11.3988
▁Et	-11.3989
▁gorrotoa	-11.399
Bost	-11.3991
duko	-11.3992
▁abioan	-11.3992
gnome	-11.3992
▁momentuan	-11.3993
:12	-11.3994
▁goratu	-11.3994
▁Pista	-11.3994
herri	-11.3995
:19	-11.3996
▁enpresen	-11.3997
tte	-11.3999
▁neur	-11.4
▁Finlandia	-11.4
▁Zesar	-11.4003
▁zerrendak	-11.4004
▁Lor	-11.4004
▁azkenaldian	-11.4004
▁hegaldia	-11.4006
▁1979	-11.4006
▁koska	-11.4006
asti	-11.4007
▁zuzenketa	-11.4009
ETA	-11.401
▁Tab	-11.4011
▁Aztertu	-11.4012
▁Af	-11.4012
▁Sub	-11.4012
▁Ezkondu	-11.4013
▁arro	-11.4014
▁Alexander	-11.4014
▁est	-11.4014
▁garbitzea	-11.4015
▁Sahara	-11.4015
kideak	-11.4016
▁Santiago	-11.4017
:9	-11.4017
▁Irak	-11.4018
llo	-11.4021
zke	-11.4021
▁Global	-11.4022
▁dokumental	-11.4023
▁GroupWise	-11.4023
▁bainaiz	-11.4023
▁Mahaigaineko	-11.4023
[6]	-11.4024
On	-11.4024
▁Por	-11.4025
gaitz	-11.4025
▁guztietarako	-11.403
ekoak	-11.4031
▁kamiseta	-11.4032
▁igotzea	-11.4034
ins	-11.4034
▁Day	-11.4035
▁kolorearen	-11.4036
▁bikotea	-11.4036
▁hitzez	-11.4037
goan	-11.4037
▁Biek	-11.4037
▁Titulua	-11.4038
▁hitzaren	-11.4038
▁ikaratu	-11.4039
▁zazpiko	-11.4043
▁ok	-11.4043
▁ekologikoa	-11.4043
xen	-11.4046
▁Jesu	-11.4046
▁Hurbil	-11.4051
detan	-11.4052
kaitz	-11.4053
tsuen	-11.4056
▁hilobia	-11.4056
▁Izugarri	-11.4057
▁salbuespen	-11.4058
ztea	-11.4059
▁Texas	-11.4059
▁mahaia	-11.406
▁Logela	-11.4064
prozesu	-11.4064
izio	-11.4066
▁exekutagarri	-11.4067
▁komunitatea	-11.4068
▁Andre	-11.4068
▁prozesatu	-11.4068
▁likido	-11.4068
▁hartz	-11.4069
▁seigarren	-11.4071
▁link	-11.4072
▁berrogei	-11.4072
▁horizontal	-11.4072
▁\\	-11.4073
▁Aldizkari	-11.4073
▁Java	-11.4073
▁banekien	-11.4077
▁Mutiko	-11.4079
▁bakun	-11.408
tail	-11.4081
▁lagunei	-11.4081
▁Lurreko	-11.4081
▁Hantxe	-11.4084
▁fasea	-11.4084
▁deklaratu	-11.4087
▁entrega	-11.4088
▁Mexikon	-11.4089
▁nortasun	-11.4089
▁goibel	-11.4089
▁iradokizunak	-11.4089
▁ukatzen	-11.409
▁Zuzenbide	-11.409
▁Ol	-11.4093
▁osasuntsua	-11.4093
Benetan	-11.4094
▁XXI	-11.4094
▁esta	-11.4094
▁metodoak	-11.4095
▁nazkagarri	-11.4095
▁gan	-11.4096
▁Txinatar	-11.4097
▁Horietatik	-11.4098
▁karratu	-11.41
▁Pertsonak	-11.4101
▁gaztetxo	-11.4102
▁Harrigarria	-11.4103
▁Horrexegatik	-11.4105
▁zebiltzan	-11.4105
▁Saguaren	-11.4107
▁gainditzeko	-11.4109
▁askorekin	-11.4111
▁Luc	-11.4112
▁Metal	-11.4113
▁Aur	-11.4114
▁OS	-11.4114
▁presente	-11.4115
▁US	-11.4115
▁Ander	-11.4117
▁galdetzea	-11.4118
▁Bakoitza	-11.4118
▁izpiritua	-11.4119
▁Laburpena	-11.4119
AC	-11.4122
▁Air	-11.4122
▁minak	-11.4122
▁eraztuna	-11.4122
▁gogorik	-11.4126
aurreko	-11.4127
▁momentuz	-11.4128
▁im	-11.4129
▁haurtxo	-11.4129
78	-11.413
▁Rose	-11.413
OP	-11.413
▁MP	-11.4131
▁Indonesia	-11.4132
▁Ulertu	-11.4132
▁unibertsitatean	-11.4132
▁tarteka	-11.4133
▁harritzen	-11.4133
▁berriarekin	-11.4133
▁biltzea	-11.4133
▁final	-11.4133
▁Inperio	-11.4135
ear	-11.4135
▁Hogeita	-11.4136
▁emanaldia	-11.4136
▁Pentsamendu	-11.4137
▁(15	-11.4138
▁Batasunaren	-11.4139
▁egite	-11.414
▁muskulu	-11.4144
▁bala	-11.4144
nan	-11.4145
▁Gelaxka	-11.4146
▁Barneko	-11.4147
▁garatzaile	-11.4147
▁areago	-11.4148
▁murrizketa	-11.4149
▁efektuak	-11.4151
▁konektatzeko	-11.4153
▁bildutako	-11.4156
adib	-11.4157
▁ikasturte	-11.4157
▁Dick	-11.4159
▁Mil	-11.4161
▁segundotan	-11.4162
uel	-11.4163
▁batzar	-11.4163
▁Bizitzaren	-11.4163
▁geldirik	-11.4164
▁erabilerraz	-11.4165
mehatz	-11.4166
▁Hementxe	-11.4166
seme	-11.4167
zenbaki	-11.4168
-18	-11.4168
▁edatea	-11.4169
▁ekintzen	-11.417
▁instalazioak	-11.417
▁bederatziko	-11.4171
▁gurasoei	-11.4172
bela	-11.4172
▁Espe	-11.4173
▁Script	-11.4173
▁adore	-11.4175
▁Olinpiar	-11.4178
▁Errepikatu	-11.4179
▁baztertzen	-11.4179
▁bista	-11.4179
▁lepo	-11.418
nis	-11.4183
▁Pen	-11.4183
▁egonkorra	-11.4186
▁Negar	-11.4186
▁diputatu	-11.4187
▁argitaratzea	-11.4188
▁negu	-11.4188
▁sekretuak	-11.4189
▁Inperioa	-11.419
Begira	-11.4192
ase	-11.4193
▁berreskuratzen	-11.4194
▁informaziorik	-11.4195
▁errolda	-11.4196
▁hizkuntzatan	-11.4198
▁ezagunena	-11.4198
▁proiektuan	-11.4198
▁{\	-11.4198
diak	-11.4199
94	-11.4201
▁arriskurik	-11.4203
Hasiera	-11.4203
▁ertain	-11.4204
amon	-11.4205
Asko	-11.4205
▁Bazter	-11.4205
▁Katu	-11.4206
▁hastean	-11.4207
82	-11.4207
▁deskribapena	-11.4209
▁foto	-11.4209
gabeak	-11.4209
▁masibo	-11.421
▁dieten	-11.421
▁Batek	-11.4211
tipoak	-11.4211
▁daitekeena	-11.4212
UT	-11.4213
▁haz	-11.4214
-12	-11.4214
▁Mediterraneo	-11.4214
ilak	-11.4215
▁sendagile	-11.4215
▁loturak	-11.4215
▁kontaktuen	-11.4216
▁Ul	-11.4217
sexual	-11.4218
zuk	-11.4218
mutur	-11.4219
cl	-11.422
Guk	-11.4223
87	-11.4224
▁zitekeela	-11.4224
▁txapelduna	-11.4224
▁Epaiketa	-11.4224
▁betiereko	-11.4224
▁katalogo	-11.4226
▁programazio	-11.4232
▁saindu	-11.4233
▁Zaldun	-11.4235
lim	-11.4235
arengana	-11.4237
▁suge	-11.4238
▁pareko	-11.4238
▁Oli	-11.4238
metodo	-11.424
▁Euskadiko	-11.4242
▁Sektore	-11.4242
▁zooma	-11.4243
▁tor	-11.4243
▁Siria	-11.4243
zerbitzaria	-11.4247
ajea	-11.4247
▁luzeko	-11.4247
▁oihukatu	-11.4248
▁kostatu	-11.4248
▁iraganean	-11.4254
▁irrika	-11.4255
▁motibazioa	-11.4255
▁luzeegia	-11.4259
tzekoa	-11.426
▁haurrekin	-11.4261
▁Teknika	-11.4261
▁zezaten	-11.4261
▁ehiztari	-11.4263
▁Elikagai	-11.4263
▁Patxi	-11.4263
▁Erregearen	-11.4263
:20	-11.4264
map	-11.4264
▁lehiatu	-11.4264
▁leial	-11.4265
▁Herriaren	-11.4265
eh	-11.4266
hautatzailea	-11.4267
▁zenion	-11.4268
▁leiala	-11.4271
▁funtzionatuko	-11.4271
▁Amona	-11.4271
▁mus	-11.4272
ismoak	-11.4273
▁ezeztatu	-11.4274
▁inportatzeko	-11.4274
▁propioak	-11.4276
▁futbolari	-11.4278
Lu	-11.4279
▁zitzaizkidan	-11.4279
▁Kopuru	-11.4279
▁Indarra	-11.428
▁Sala	-11.4281
▁Taldeko	-11.4282
Herri	-11.4282
▁diamante	-11.4283
▁mutur	-11.4283
▁dituzuen	-11.4283
▁Elkarte	-11.4286
▁Kontraste	-11.4286
enetakoa	-11.4287
▁duzuena	-11.4288
▁irailean	-11.4288
▁sabel	-11.429
▁Errusian	-11.429
▁akademiko	-11.4291
▁Autentifikazioa	-11.4292
▁okertu	-11.4294
▁hila	-11.4294
▁nahas	-11.4295
▁asma	-11.4295
▁ikusitako	-11.4296
▁Erromatar	-11.4298
▁oinarrian	-11.4298
▁alokatu	-11.4298
yer	-11.43
mbo	-11.4301
doak	-11.4302
mode	-11.4302
▁txikiko	-11.4302
Ene	-11.4303
▁etorkizunari	-11.4304
rioa	-11.4306
▁legal	-11.4306
▁Doktore	-11.4307
▁zirenak	-11.4307
▁1950	-11.431
▁espezifiko	-11.4311
▁abiatuta	-11.4311
▁Garrantzitsuena	-11.4311
▁Kongresu	-11.4312
▁askotariko	-11.4315
▁babesle	-11.4316
mek	-11.4316
▁Banekien	-11.4316
▁antzematen	-11.4316
logiko	-11.4322
▁hobeago	-11.4322
▁aktiboak	-11.4322
▁mor	-11.4322
▁infekzio	-11.4324
tira	-11.4324
▁doazen	-11.4324
taile	-11.4328
▁diezaioke	-11.4328
72	-11.4328
▁talentua	-11.4328
▁Jaiki	-11.4331
▁Jordan	-11.4331
▁Batasunak	-11.4334
▁Elizaren	-11.4334
▁1945	-11.4336
▁Ph	-11.4337
▁libra	-11.4337
▁olatu	-11.4338
▁zaharragoa	-11.4339
▁lehendabizi	-11.4339
▁eurek	-11.4341
▁gauzatzeko	-11.4342
▁Marie	-11.4344
▁liskar	-11.4344
mentua	-11.4346
ade	-11.4347
▁adibideak	-11.4348
▁korrontea	-11.4349
▁adiskidea	-11.4349
gentzia	-11.4349
Esku	-11.435
▁out	-11.435
▁helburuko	-11.435
▁Sekulako	-11.4352
▁hizkuntz	-11.4352
sol	-11.4352
▁Praktika	-11.4352
▁gehiengo	-11.4353
▁ditzaten	-11.4353
Hara	-11.4357
▁amor	-11.436
Guzti	-11.4361
▁erregu	-11.4363
▁arimaren	-11.4364
biltza	-11.4365
▁Meta	-11.4365
▁bel	-11.4365
botoi	-11.4367
5.000	-11.4368
harreman	-11.4369
babeslea	-11.4369
▁udaberri	-11.437
▁kontziente	-11.437
▁hitzarmena	-11.4372
▁56	-11.4373
HE	-11.4373
▁ziurtagiriak	-11.4375
▁ongizatea	-11.4376
▁eguzkiaren	-11.4377
▁mg	-11.4377
▁Nolatan	-11.4378
▁sasi	-11.4378
▁originala	-11.4379
▁Hogei	-11.4381
▁Estilo	-11.4381
omi	-11.4381
▁nerbio	-11.4381
▁gizakume	-11.4383
▁egitaraua	-11.4383
▁ikertzaileek	-11.4384
Izena	-11.4386
▁Erabil	-11.4386
▁horre	-11.4386
▁neurtzeko	-11.4388
▁Dor	-11.4389
elu	-11.439
▁Lab	-11.439
▁galderari	-11.4391
▁taldeari	-11.4391
pus	-11.4392
▁Hitzordu	-11.4396
▁ezerez	-11.4397
▁alergia	-11.4397
▁Zerbitzaria	-11.4398
▁partikula	-11.4399
▁Antartika	-11.44
zuek	-11.44
gara	-11.4401
▁Mun	-11.4405
▁emozioak	-11.4406
▁Gro	-11.4407
lean	-11.4408
▁andereñoa	-11.4409
▁HELBURU	-11.4409
▁Esaterako	-11.441
▁1985	-11.441
▁litzake	-11.4411
denda	-11.4411
▁kontatzea	-11.4411
▁Eibar	-11.4412
▁Ikuskizun	-11.4413
▁Bern	-11.4414
▁Hai	-11.4415
°	-11.4416
▁Kalitatea	-11.4417
▁txalupa	-11.4419
▁oroitu	-11.4419
UL	-11.4421
▁txertatu	-11.4421
▁argiago	-11.4421
▁Ordurako	-11.4423
SP	-11.4423
▁Dom	-11.4425
▁Sand	-11.4426
ob	-11.4427
▁Ton	-11.4427
▁PUZ	-11.4428
▁GConf	-11.4428
▁Eric	-11.4429
▁beza	-11.4432
garriena	-11.4434
▁Bidean	-11.4435
▁Live	-11.4436
▁hegazkina	-11.4436
▁Hitzordua	-11.4436
▁kulturaren	-11.4438
nok	-11.4438
▁merkea	-11.4441
▁Qu	-11.4442
▁tinko	-11.4444
▁dibertigarri	-11.4445
▁barregarria	-11.4446
▁kasutan	-11.4446
▁Institutu	-11.4448
▁igerileku	-11.4449
▁Royal	-11.4453
▁nuklear	-11.4454
▁bultzada	-11.4455
▁6:	-11.4456
ú	-11.4456
▁Charlotte	-11.4456
▁idi	-11.4457
▁(4	-11.4457
▁ro	-11.4459
▁Iaincoaren	-11.446
▁hamasei	-11.4462
▁handikoa	-11.4463
▁Printze	-11.4464
▁KA	-11.4465
▁Gaurkoan	-11.4466
▁paralelo	-11.4466
og	-11.4466
▁Estatuak	-11.4466
dai	-11.4467
▁Australian	-11.4469
lismo	-11.4469
elementua	-11.4471
▁airea	-11.4472
▁ofizialak	-11.4475
tarte	-11.4476
▁sariak	-11.4477
▁unibertsitateko	-11.4479
▁aditz	-11.4481
▁garraioa	-11.4482
▁Erlijio	-11.4484
▁idazketa	-11.4485
▁Eutsi	-11.4488
▁Peru	-11.4488
▁Azkena	-11.4489
▁onenetako	-11.449
▁negoziazio	-11.4491
pertsona	-11.4491
Gar	-11.4492
▁Ele	-11.4492
▁Lanbide	-11.4494
▁berriei	-11.4497
▁errazak	-11.4497
▁eskaria	-11.4499
▁tea	-11.4499
▁lineako	-11.45
ratua	-11.4501
▁gonbidapena	-11.4502
▁kirola	-11.4503
▁klikatu	-11.4504
▁Urrun	-11.4505
▁emaztearen	-11.4508
▁irakaspen	-11.4509
▁posibleak	-11.4509
iki	-11.451
▁herrixka	-11.4511
tino	-11.4511
egite	-11.4512
▁Hong	-11.4512
▁erabiltzean	-11.4512
usi	-11.4513
▁zitezkeen	-11.4513
▁figura	-11.4514
▁taldearekin	-11.4514
▁ahotsak	-11.4514
▁otoitza	-11.4514
▁Cas	-11.4515
▁barneratu	-11.4517
danik	-11.4522
▁anima	-11.4523
▁borrokatzeko	-11.4524
▁Leheneratu	-11.4525
▁Egoki	-11.4525
▁VI	-11.4526
▁Gehiegi	-11.4526
▁etsaien	-11.4526
Lau	-11.4529
▁gobernatzen	-11.4531
▁kargatzea	-11.4532
▁osagarria	-11.4533
▁errenkad	-11.4534
▁Lanean	-11.4534
-(	-11.4536
▁Mah	-11.4537
▁pertsonaiak	-11.4538
▁hauteskundeetan	-11.4539
▁interpretazioa	-11.4539
bola	-11.454
▁homosexual	-11.454
rerako	-11.4541
▁estimatu	-11.4541
▁itsusi	-11.4541
▁All	-11.4542
▁martxa	-11.4545
▁antzeztu	-11.4546
▁hiltzailea	-11.4547
▁Kontseiluaren	-11.4547
▁zibila	-11.4547
ordain	-11.4548
▁guci	-11.4548
▁Son	-11.4549
fitxategietan	-11.4549
ezkoa	-11.4549
▁publikoan	-11.455
▁gaurkoan	-11.4551
▁Urruti	-11.4551
▁deskargatzeko	-11.4551
▁alihi	-11.4551
▁guztiaz	-11.4552
▁helmuga	-11.4552
▁Senatua	-11.4553
▁mozorro	-11.4555
▁zuan	-11.4556
Hai	-11.4558
▁zirku	-11.4559
▁hipoteka	-11.4561
▁aldarrikatzen	-11.4561
▁don	-11.4561
▁gustukoena	-11.4561
▁irauli	-11.4561
▁dagokien	-11.4562
ili	-11.4562
▁Adierazi	-11.4564
▁Gakoaren	-11.4566
▁Bezeroaren	-11.4567
iste	-11.4567
▁Sho	-11.4568
Salla	-11.4569
▁HEMEN	-11.457
▁sallam	-11.457
▁ozen	-11.4571
koadroko	-11.4572
▁antolaketa	-11.4572
▁Facebooken	-11.4572
▁zorian	-11.4573
▁gibel	-11.4574
▁Gene	-11.4574
▁iraultzen	-11.4576
▁orrialdeak	-11.4577
▁urteetako	-11.4578
▁susmagarri	-11.458
▁Metodo	-11.458
▁izerdi	-11.458
▁1969	-11.4581
▁Julia	-11.4582
:5	-11.4584
lai	-11.4584
dic	-11.4584
▁landatu	-11.4584
▁Zerga	-11.4585
▁gorago	-11.4586
▁kontaktuan	-11.4586
▁Jaungoikoaren	-11.4586
▁Ezetz	-11.459
aldera	-11.4595
sun	-11.4595
▁kontsumo	-11.4597
▁ES	-11.4597
Hi	-11.4597
▁Final	-11.4597
▁Dokumentuaren	-11.4597
▁Publikoa	-11.4598
▁Azpeiti	-11.4599
▁sentiarazten	-11.4599
▁muturreko	-11.46
▁gezurrak	-11.46
▁adierazpenak	-11.46
▁Wal	-11.4601
▁zorigaitz	-11.4601
▁fina	-11.4604
raldi	-11.4607
▁rola	-11.461
▁3.000	-11.461
▁infernua	-11.461
▁Gogor	-11.461
kh	-11.4614
▁daemon	-11.4616
▁marketin	-11.4617
▁Egipton	-11.4618
▁Astelehen	-11.4619
izioa	-11.462
bista	-11.462
▁propietatea	-11.4621
▁laburpen	-11.4622
▁bagina	-11.4622
grafikoa	-11.4624
79	-11.4624
iro	-11.4624
▁eragilea	-11.4625
▁jolasa	-11.4626
▁Institutua	-11.4627
▁guiçon	-11.4627
▁Ikas	-11.4628
▁iduri	-11.4628
▁1977	-11.4628
San	-11.4629
▁arbaso	-11.463
▁seinaleak	-11.4631
▁dituelako	-11.4632
▁aplikatzea	-11.4633
▁komunista	-11.4633
▁badaukat	-11.4634
▁Irakasleak	-11.4634
▁leher	-11.4636
▁gutxik	-11.4637
▁Company	-11.4637
▁didaten	-11.4637
▁eseki	-11.4638
▁gastatzen	-11.4639
▁automatiko	-11.464
▁Chan	-11.4641
cker	-11.4642
▁esna	-11.4644
rg	-11.4645
▁publizitatea	-11.4647
▁espainol	-11.4647
▁borobil	-11.4647
▁duenaren	-11.4647
▁partidak	-11.4648
▁harria	-11.465
▁Preso	-11.4651
▁sakatuta	-11.4653
▁pausoak	-11.4653
▁Hun	-11.4654
▁etorkizunerako	-11.4654
▁Allahu	-11.4654
▁bekatua	-11.4654
▁IM	-11.4656
▁ekoizteko	-11.4656
▁subjektu	-11.4656
▁Tekniko	-11.4656
▁ahoz	-11.4656
▁Janari	-11.4657
▁Babestu	-11.4657
▁www	-11.4658
▁erreferenduma	-11.466
▁AR	-11.4662
▁Serbia	-11.4662
ematea	-11.4662
▁pixkat	-11.4663
itzeko	-11.4664
▁Erakundeak	-11.4664
maskara	-11.4664
▁etzanda	-11.4665
true	-11.4665
▁erreproduzitzen	-11.4665
▁institutu	-11.4666
▁Itsatsi	-11.4666
▁Tomboy	-11.4666
▁zitzaizun	-11.4666
▁1981	-11.4666
zien	-11.4668
color	-11.4669
▁niregana	-11.467
▁Botere	-11.467
▁milia	-11.4672
▁Urteak	-11.4672
▁mozkor	-11.4672
▁(20	-11.4674
▁AN	-11.4676
▁foro	-11.4676
▁Gehienezko	-11.4676
▁Urdina	-11.4676
▁berrikusi	-11.4676
▁Marraztu	-11.4676
luze	-11.4677
▁kapela	-11.4678
▁animazioa	-11.4679
▁Life	-11.4679
stre	-11.468
eskubide	-11.4683
ics	-11.4686
▁Op	-11.4686
▁promesa	-11.4686
▁bulegoa	-11.4689
▁olio	-11.469
▁konponbidea	-11.469
▁finkoa	-11.469
▁daukala	-11.4691
▁koaderno	-11.4692
▁Ezarpen	-11.4692
▁Victoria	-11.4692
▁dituzunean	-11.4695
▁Arthur	-11.4695
▁BESTEAK	-11.4696
▁Elkarteak	-11.4696
▁identitate	-11.4698
▁Bakearen	-11.4698
▁gurdi	-11.4703
▁Txin	-11.4705
▁transakzio	-11.4705
esteko	-11.4707
▁Lehenetsia	-11.4707
mahai	-11.4708
▁margolan	-11.4708
▁Bit	-11.4709
EX	-11.471
▁Galderak	-11.471
▁Errealitate	-11.4711
antzia	-11.4712
▁hiltzaile	-11.4713
▁Hamaika	-11.4714
▁astelehenean	-11.4714
▁epaimahai	-11.4714
▁EGIA	-11.4714
▁hegoaldera	-11.4716
▁eskultura	-11.4716
▁gizonezkoak	-11.4716
edit	-11.472
▁Irakurketa	-11.4721
▁aldare	-11.4723
▁baloratu	-11.4724
xeago	-11.4725
▁beretzat	-11.4728
yan	-11.473
▁Senda	-11.473
proiektu	-11.4733
tim	-11.4733
▁konfidentzial	-11.4733
▁psiko	-11.4733
▁sustrai	-11.4733
▁sartutako	-11.4734
▁fisikoak	-11.4735
▁gogorarazten	-11.4736
▁Bilduma	-11.4737
▁zeharka	-11.4738
▁oldar	-11.4739
▁ekimena	-11.4739
▁Erregistro	-11.4742
▁populazio	-11.4743
balio	-11.4743
▁Python	-11.4743
▁Panela	-11.4745
▁Lin	-11.4745
▁ministroak	-11.4746
gogor	-11.4746
▁Gailua	-11.4747
▁kantua	-11.4748
profila	-11.4751
▁Fabrice	-11.4751
Oraindik	-11.4752
datuak	-11.4752
▁Fort	-11.4752
▁aur	-11.4753
▁Kontzientzia	-11.4753
▁Zero	-11.4754
▁aiz	-11.4755
▁sektorean	-11.4756
▁hileta	-11.4756
mont	-11.4758
▁Ingelesez	-11.4758
▁it	-11.476
Erabiltzaile	-11.476
▁pertson	-11.4761
▁badoa	-11.4762
▁Behean	-11.4762
gna	-11.4763
▁ondorengoak	-11.4763
▁arabiar	-11.4764
▁menpeko	-11.4764
▁segmentu	-11.4764
▁Time	-11.4764
▁egongela	-11.4766
▁bihurri	-11.4766
▁salbazioa	-11.4766
▁ehunekoa	-11.4767
mila	-11.4768
▁okerrak	-11.4769
▁momentutan	-11.4769
rarte	-11.477
▁txu	-11.4771
▁norekin	-11.4771
▁desafio	-11.4772
▁Ministro	-11.4772
▁begiratuko	-11.4774
▁ordutik	-11.4777
mir	-11.4777
▁Bibliak	-11.4777
▁mehe	-11.4779
▁espetxean	-11.4779
▁dakigun	-11.478
▁Sel	-11.4781
▁Miguel	-11.4782
▁neutral	-11.4782
▁1986	-11.4783
▁opor	-11.4783
▁errendimendua	-11.4785
▁hizketa	-11.4787
▁kalteak	-11.4787
▁borondate	-11.4788
▁dardara	-11.4788
▁Kafea	-11.479
seina	-11.4791
▁inbertsioa	-11.4791
▁abeslari	-11.4791
▁migratzaile	-11.4791
▁antzoki	-11.4792
▁Long	-11.4792
▁eraginkortasun	-11.4793
▁espiritual	-11.4793
▁nahaste	-11.4794
▁amaitzean	-11.4796
▁Miss	-11.4798
▁dituenak	-11.48
▁soldaduak	-11.4805
▁Konfigurazio	-11.4805
▁play	-11.4809
▁irekitako	-11.4809
zorro	-11.481
ert	-11.4812
▁erreserbatu	-11.4812
▁Jarrera	-11.4813
▁medikuari	-11.4814
▁eskuzabal	-11.4814
▁erritmo	-11.4815
▁180	-11.4815
▁ezabatzean	-11.4816
tain	-11.4817
laguna	-11.4818
barre	-11.4818
▁aurrena	-11.4818
▁maximoa	-11.4819
gaitik	-11.4819
araziko	-11.482
▁Mario	-11.482
▁Bizkaia	-11.4821
▁Brown	-11.4821
▁beteriko	-11.4822
▁ostiralean	-11.4824
▁motz	-11.4825
▁zutabearen	-11.4825
▁GA	-11.4826
▁Alfa	-11.4827
▁Indi	-11.4827
oste	-11.4829
▁letrak	-11.4829
▁Txosten	-11.483
▁Georgia	-11.4831
ndik	-11.4832
▁produktuaren	-11.4833
▁laguntzaz	-11.4835
▁jakinarazpenak	-11.4836
▁Galilea	-11.4836
▁dek	-11.4836
▁esne	-11.4836
▁perfektu	-11.484
▁App	-11.484
▁Joseba	-11.4842
▁patata	-11.4842
▁Poema	-11.4843
▁Bolumen	-11.4843
▁zuhur	-11.4845
▁abokatua	-11.4846
▁doi	-11.4846
▁biztanleak	-11.4846
kudeatzaileak	-11.4848
▁Inporta	-11.4848
▁Aplikazioa	-11.4848
▁norbaitekin	-11.4848
ekintza	-11.4849
GB	-11.485
▁alargun	-11.485
▁taldeek	-11.485
Urte	-11.4851
ketan	-11.4851
PS	-11.4853
rikoa	-11.4855
▁Ok	-11.4856
gio	-11.486
▁itxoin	-11.486
▁san	-11.4861
▁idei	-11.4861
▁probatzeko	-11.4861
▁Filosofia	-11.4862
▁Estra	-11.4864
statu	-11.4864
▁tenis	-11.4865
▁Ardoa	-11.4866
54	-11.4868
▁Steve	-11.4869
▁Zehazki	-11.487
▁sarreran	-11.4871
▁dizkiogu	-11.4872
lum	-11.4872
▁fu	-11.4872
▁ordezkaritza	-11.4872
▁Natural	-11.4876
▁instalatzea	-11.4876
▁Eder	-11.4878
▁antolatzea	-11.4879
disabled	-11.488
▁Saturno	-11.488
▁Epaile	-11.4882
▁jotzeko	-11.4882
▁gogorrena	-11.4882
▁eguneratzea	-11.4883
gaia	-11.4884
durak	-11.4886
off	-11.4888
▁neskatxa	-11.4889
▁Previous	-11.489
▁badidazu	-11.489
▁ikerketak	-11.489
▁Aaron	-11.489
▁Erreinua	-11.4891
TZEKO	-11.4891
▁Foro	-11.4892
NI	-11.4893
▁basoan	-11.4893
Ra	-11.4896
▁1.0	-11.4896
▁Fre	-11.4897
ident	-11.4897
▁morroia	-11.4898
▁erara	-11.4898
borra	-11.4899
▁eskuratzea	-11.49
▁errukia	-11.49
zahar	-11.4902
▁txikitu	-11.4903
▁gerturatu	-11.4905
berritu	-11.4908
▁Abisua	-11.4909
▁txiste	-11.491
atze	-11.4913
▁DNA	-11.4914
▁Txakurra	-11.4916
▁Honda	-11.4916
▁ibilaldi	-11.4916
CD	-11.4917
▁Eragin	-11.4918
▁hedatua	-11.4919
▁800	-11.4919
▁#1	-11.492
▁Altxa	-11.4921
▁astelehen	-11.4922
▁txokolatea	-11.4924
▁galtza	-11.4925
▁norbera	-11.4926
▁ikusteak	-11.4926
▁ofizio	-11.4926
Tresna	-11.4927
▁pertsonalizatze	-11.4927
▁Lauko	-11.4928
▁perspektiba	-11.4929
▁gogoratzea	-11.493
▁pasako	-11.493
▁Xabier	-11.493
▁errai	-11.4933
ram	-11.4934
▁erreza	-11.4934
▁autoritate	-11.4935
artzen	-11.4935
▁lanarekin	-11.4935
▁Umea	-11.4935
urrun	-11.4937
normal	-11.4937
▁ereduak	-11.4937
▁etorkin	-11.4938
▁Hautapena	-11.4939
▁Txapeldun	-11.4939
▁baitzegoen	-11.4939
ehun	-11.494
▁52	-11.4941
▁hosto	-11.4941
▁ipintzen	-11.4949
▁Love	-11.4949
▁2.000	-11.495
▁noren	-11.495
user	-11.4951
▁TX	-11.4953
▁dakidan	-11.4954
fal	-11.4956
▁zoragarriak	-11.4956
▁Irrati	-11.4957
▁Yahoo	-11.4959
▁hartzaileak	-11.4959
boa	-11.496
▁uraren	-11.496
▁bidaltzailea	-11.496
▁Onartz	-11.4961
▁Hazi	-11.4965
▁eragotzi	-11.4969
▁Cho	-11.497
ango	-11.4971
▁Eskuak	-11.4973
▁(11	-11.4976
▁beldurgarria	-11.4976
zaleak	-11.4977
▁Espiritua	-11.4977
▁Game	-11.4978
▁pop	-11.4978
▁bizkarrean	-11.498
▁Irakurle	-11.498
▁zitzai	-11.498
▁Erantzunak	-11.4982
▁sinbolo	-11.4983
▁aku	-11.4984
Edukia	-11.4987
▁zaitudan	-11.4987
▁deseroso	-11.4988
▁Power	-11.4989
▁luzapena	-11.4991
▁God	-11.4992
▁gehiagorekin	-11.4993
entea	-11.4995
ort	-11.4995
▁Kh	-11.4996
▁59	-11.4997
▁edukitzen	-11.4999
▁Center	-11.4999
▁ostegun	-11.4999
▁Jabetza	-11.5001
▁pres	-11.5001
▁Nagusiak	-11.5002
▁Gaituta	-11.5002
PM	-11.5003
▁enplegu	-11.5004
▁dinamika	-11.5005
keriaren	-11.5006
▁formazio	-11.5006
▁arrastorik	-11.5006
nista	-11.5007
▁dastatu	-11.5009
▁ospe	-11.501
▁egitasmoa	-11.501
▁osatzea	-11.5011
eak	-11.5012
▁Giltza	-11.5012
▁Zerbitzariak	-11.5014
▁kateak	-11.5014
▁eroa	-11.5015
▁Ohore	-11.5015
▁Gizartea	-11.5016
Ingelesez	-11.5016
▁motibazio	-11.5017
▁osatuko	-11.5017
▁Txartel	-11.5017
▁Etor	-11.5018
▁Hiztegia	-11.5019
▁franko	-11.502
▁zerbitzuaren	-11.5021
▁sendatzeko	-11.5021
▁zaitudala	-11.5021
▁salbatzen	-11.5022
error	-11.5022
▁erakus	-11.5025
▁Konstituzioa	-11.5025
▁(2)	-11.5026
▁zirelako	-11.5027
▁instrukzio	-11.5029
▁gezurretan	-11.503
▁eztabaidatzen	-11.5034
▁matrize	-11.5035
▁Kos	-11.5035
▁iluntasuna	-11.5036
▁ditzakezun	-11.5036
▁laguntzak	-11.5038
▁aurreikuspen	-11.5038
▁greko	-11.504
▁piezak	-11.504
PO	-11.5041
▁aldaketaren	-11.5042
▁Erabilgarri	-11.5042
ular	-11.5043
nario	-11.5045
71	-11.5046
▁bonus	-11.5048
▁Gandhi	-11.5048
▁nortzuk	-11.5048
▁mespre	-11.5048
▁solido	-11.5049
▁Gogorra	-11.5049
▁saritu	-11.5049
▁galderei	-11.505
▁osasungarria	-11.5051
Har	-11.5051
▁eginbide	-11.5052
▁Cre	-11.5053
▁Egindako	-11.5054
▁Irun	-11.5055
▁kostuak	-11.5056
▁zirkularra	-11.5057
▁erromantikoa	-11.5058
▁Ubuntu	-11.5058
▁Ziurrenik	-11.5059
▁(17	-11.5059
▁bisual	-11.5059
▁azpimarra	-11.506
▁teknikari	-11.5062
▁Etorkizuneko	-11.5063
▁Uzta	-11.5063
▁patente	-11.5064
▁Eredu	-11.5064
▁Txe	-11.5065
errore	-11.5068
▁Seinale	-11.5068
▁hastapen	-11.5068
▁Arrasate	-11.5068
▁Partidu	-11.5071
▁gomendatuko	-11.5071
▁mami	-11.5074
▁barren	-11.5074
▁Behe	-11.5075
▁ustekabeko	-11.5075
▁artifizial	-11.5076
▁Hautatzen	-11.5076
harri	-11.5079
Bar	-11.5079
▁adierazgarri	-11.5079
Hasi	-11.5079
▁azkarragoa	-11.508
▁Uni	-11.5081
▁Denboraldi	-11.5081
▁85	-11.5081
▁goberna	-11.5082
▁Goizeko	-11.5083
▁desegiten	-11.5084
▁Euskaraz	-11.5086
aldatze	-11.5087
Ex	-11.5088
▁iradoki	-11.5089
▁trebea	-11.509
cor	-11.509
ketek	-11.509
kina	-11.5093
▁osagaia	-11.5093
▁zit	-11.5094
wo	-11.5096
▁dosia	-11.5096
Sal	-11.5097
▁Multimedia	-11.5098
▁arloko	-11.5099
▁sintoma	-11.5099
▁osorako	-11.51
▁GPS	-11.51
▁ON	-11.5101
▁sakonera	-11.5101
▁esaera	-11.5104
▁idaz	-11.5104
▁ahizpak	-11.5105
▁kooperatib	-11.5108
uma	-11.5108
▁podcast	-11.5108
▁Ustekabeko	-11.5108
fs	-11.5113
▁digitalak	-11.5113
▁deitua	-11.5114
▁aldizkariak	-11.5115
▁fidel	-11.5115
▁mutikoa	-11.5116
elementu	-11.5116
▁ahotik	-11.5116
▁dauzkate	-11.5117
▁deritzo	-11.5117
▁Serie	-11.5117
tive	-11.5119
▁historialari	-11.512
▁Zigor	-11.5121
▁ikustailea	-11.5121
▁Goza	-11.5121
▁Ros	-11.5122
AREN	-11.5122
▁pot	-11.5122
FA	-11.5123
▁Donostian	-11.5123
▁maitasunez	-11.5125
Bide	-11.5127
▁iragartzen	-11.5129
Zerbait	-11.5129
▁oztopatzea	-11.513
ezta	-11.5131
▁bikoitz	-11.5131
▁Ikertzaile	-11.5132
dialog	-11.5134
rist	-11.5138
▁printzea	-11.5138
▁apostolu	-11.5139
▁fitxategitik	-11.514
▁txostenak	-11.5141
▁gainbehera	-11.5142
▁Bakar	-11.5142
ía	-11.5143
med	-11.5144
gram	-11.5144
▁ara	-11.5145
▁Mill	-11.5146
▁ezagut	-11.5146
▁begirune	-11.5146
▁zakarrontzia	-11.5147
[...]
