<s>
<pad>
</s>
<unk>
de
▁e
▁de
▁l
os
▁p
▁c
▁a
en
er
ar
▁s
ue
as
on
es
ci
or
an
▁m
que
ad
▁t
▁que
un
st
▁la
▁en
al
re
in
▁y
▁el
ent
▁n
▁un
▁h
▁con
do
ón
di
om
ti
ra
ro
▁v
▁se
▁es
▁f
am
▁los
ic
▁est
ción
▁par
▁E
▁o
te
▁su
le
▁re
ab
▁in
ri
▁com
to
ado
▁por
▁al
ta
▁del
id
ec
▁las
res
▁b
ol
▁para
▁no
▁g
mp
▁una
ente
ía
▁d
▁di
▁C
ui
▁A
▁S
ás
▁P
▁si
▁L
▁ha
ación
lo
▁per
is
▁cu
▁pro
cion
▁lo
cu
bi
▁me
la
ch
tu
▁M
ien
da
ada
▁mu
ter
il
▁des
tr
ma
go
▁más
▁i
ando
ist
qui
ari
▁to
ce
▁como
cia
ran
us
▁D
mi
mos
tos
aj
vi
ento
▁ex
mo
tiv
se
ca
el
uest
idad
▁T
▁"
iz
▁po
ales
▁ac
gu
ciones
▁ser
era
▁pue
co
▁j
bre
án
pa
ados
si
tar
dad
▁1
ie
▁El
▁N
tor
ica
▁tra
den
ero
▁2
▁so
des
▁te
tes
▁an
ten
ul
▁ten
▁(
▁ap
ras
..
▁res
▁R
ir
▁B
▁le
ambi
én
ida
ia
▁La
▁En
ici
dos
io
ru
cer
▁comp
amos
du
▁G
qu
▁sus
▁hab
▁pre
ores
▁pero
ante
mente
▁F
po
▁añ
▁H
tra
ez
per
ico
der
▁ma
gun
▁I
tro
amente
it
los
▁este
▁pa
orm
▁U
▁tien
iv
▁pr
ara
gar
▁as
ión
▁imp
▁man
▁Est
tre
con
ib
▁mi
▁ca
▁much
ora
son
ga
▁cas
▁tu
lar
pe
▁son
▁sin
▁ar
ún
les
ces
...
tas
ambién
▁pas
ones
▁ver
▁lle
▁esta
um
entes
rim
és
▁J
▁¿
▁qui
▁muy
▁person
encia
baj
li
das
▁Es
aba
uer
▁20
▁nos
▁mis
▁ya
▁V
▁ob
ac
▁Y
ver
emos
ros
uev
▁pres
las
▁sobre
▁mo
▁todo
fer
ort
▁emp
adas
aliz
min
ust
eces
▁cre
▁sol
oy
▁Un
ario
▁inter
▁ci
za
▁dis
▁también
▁entre
gui
je
▁nuest
▁mej
lic
▁fue
▁r
cio
endo
▁trabaj
▁O
lan
▁pos
tros
ech
▁está
enta
ens
▁sal
▁tan
ido
mb
▁hay
▁deb
▁co
entos
▁medi
jo
dr
duc
▁prim
ana
cias
mas
▁vi
▁or
me
cl
▁hacer
▁inf
uen
almente
▁puede
able
pañ
ías
ina
▁años
▁nuev
▁du
no
▁cuando
pon
fic
car
▁qu
▁Se
▁fin
ador
▁pe
▁ni
▁lu
▁car
▁gran
▁cor
ren
iemp
▁ti
ami
par
▁No
tal
gra
ín
▁tiene
ig
cas
asta
ño
orma
▁Con
▁parti
ve
ub
▁ab
▁mejor
tivo
▁desde
miento
▁cos
ur
▁deci
fici
▁todos
▁men
▁tiemp
▁op
▁neces
na
arios
▁In
▁prop
udi
im
▁é
ano
ble
▁mar
alidad
▁porque
ís
▁us
▁bien
",
▁esc
▁exp
til
▁dos
▁algun
rar
▁han
ven
gan
▁3
ista
vo
idades
▁Los
▁Por
".
▁don
ud
cial
▁De
más
▁Si
▁vez
▁cual
cip
▁tiempo
▁hasta
rec
▁buen
ían
antes
▁do
▁may
pu
ios
▁mun
tura
fec
gos
▁na
▁sab
▁Al
▁cons
▁así
eron
gún
▁au
▁cono
▁donde
▁parte
▁ah
▁cam
ino
aron
pos
▁cada
tado
▁can
emp
amiento
can
00
▁ter
▁201
lti
jer
▁gen
ba
▁ll
cios
pec
▁col
▁año
cional
▁am
so
▁fun
▁día
cos
▁hace
▁Com
adores
esti
▁uno
ícu
eb
man
gen
▁forma
por
teri
rante
ion
ay
em
▁ve
▁vida
uel
tica
zo
▁mucho
▁ay
▁produc
▁Re
▁mil
▁equi
tiva
cil
▁cont
▁ú
demás
▁llev
▁gra
▁eso
▁era
▁personas
▁da
sión
ja
▁reg
▁pol
▁fu
uego
ños
▁fuer
▁import
nos
▁mom
▁inform
unto
og
▁ad
icos
▁mismo
▁cambi
arse
▁tener
▁incl
▁ju
bier
▁u
ómo
fi
▁rec
▁están
quier
▁ne
).
▁ch
▁li
eros
idos
▁mayor
ará
▁algo
▁cer
ste
xi
rá
▁segu
icas
▁contra
cur
ton
cción
▁realiz
▁lugar
empre
▁19
▁país
pués
▁cal
tras
▁hech
▁siempre
aje
▁espe
unque
cen
▁solo
▁tran
rol
▁otros
▁podr
▁4
▁qué
▁trabajo
▁ese
ible
▁últi
▁empres
▁bas
cha
▁ra
▁tanto
et
▁sig
▁dej
▁encon
fes
ólo
▁sent
▁Pero
▁5
▁mundo
jos
▁difer
ona
tivos
▁hi
ér
▁reci
),
▁esto
▁poco
udad
▁cuenta
▁pla
bl
ea
▁-
cho
▁gener
argo
▁Me
▁mes
▁menos
▁Las
▁momento
puest
▁actu
▁inst
▁ro
itu
▁otro
▁durante
tó
yec
▁W
incip
▁lib
▁comun
iden
▁An
tir
▁plan
▁va
pi
tación
▁había
▁les
▁yo
▁ven
▁pueden
arrol
iones
trar
ena
▁princip
▁pi
▁vol
amil
▁estos
▁quien
▁servi
ral
▁pon
▁llam
▁gust
inu
▁tom
▁val
▁pes
ing
teg
▁acu
zar
▁sea
▁den
▁«
▁sido
aria
ombre
▁estar
▁dist
▁const
▁Q
rib
▁Mar
▁caso
▁direc
aban
av
▁K
éc
▁her
iendo
▁hist
▁resul
▁toda
▁consi
ed
anos
▁ahora
ña
▁emb
▁proble
▁cab
▁Des
▁baj
▁posi
uy
▁of
▁vis
▁hecho
uso
▁rep
cep
ece
quí
▁decir
▁form
▁bus
cre
▁después
▁desarrol
▁fal
▁antes
cado
sa
ord
▁Ch
▁he
vis
▁mal
▁Para
▁tienen
▁dest
▁famil
▁ciudad
cuent
▁¡
▁manera
fica
va
▁estudi
▁esa
▁Lo
▁permi
▁San
tiliz
omb
▁exper
tamente
oria
▁todas
▁poder
▁trans
▁ri
▁cómo
▁ag
▁tras
cido
▁otra
ceso
▁nuestro
tico
▁indi
▁mujer
?.
▁proyec
▁nada
entar
bil
▁dar
▁días
tan
tores
▁tipo
ine
▁cent
▁encuent
▁primer
▁Cu
▁mer
▁cosas
▁tar
ús
▁ellos
cimiento
▁def
dido
▁sólo
▁nuestra
▁él
▁á
▁quier
▁comple
tados
▁nuevo
guir
▁aunque
cal
▁utiliz
▁ide
▁ir
ene
▁Ar
▁rela
pen
▁primera
▁gan
▁polí
▁casa
▁pens
ración
▁super
▁muchos
óm
▁cualquier
ciales
▁peque
ias
che
▁mas
obier
▁tres
▁otras
rado
ismo
ancia
▁eje
▁mon
▁fi
▁inv
ío
uro
▁sí
istas
ería
dades
▁6
ern
▁situ
olu
▁estas
▁importante
▁Le
▁profes
▁equipo
rad
quel
▁unos
ita
paña
▁cier
▁obje
aciones
▁pel
gas
entras
▁conf
terior
van
▁ejemp
▁segun
▁qued
vil
▁apar
▁pú
▁hum
arias
▁hor
gua
▁To
lación
▁entr
▁tal
ific
▁sino
▁información
▁Su
▁siste
▁exist
▁organ
▁200
▁viv
▁pri
▁estado
▁activ
▁Una
ivel
▁As
▁hoy
otros
▁,
▁algunos
▁estaba
▁gru
▁lleg
▁señ
obierno
▁ref
▁además
erg
sta
▁pal
▁capa
eo
leg
▁econ
sos
▁fo
▁debe
iver
▁muchas
ciendo
▁'
ció
vés
▁aquel
▁nivel
▁aquí
íst
ola
▁jug
▁gente
tener
▁cri
▁mill
tícu
▁veces
▁Sin
▁elec
▁ella
adre
idas
▁dere
▁escri
ác
lica
▁pasado
demos
▁esper
▁temp
▁w
▁pub
▁sigui
▁embargo
ridad
▁través
▁ante
at
▁ún
▁cli
▁conse
tivas
cel
bo
▁cul
▁af
embre
▁Este
▁nin
▁7
▁respon
cidad
▁fr
▁z
dera
vir
dió
dia
tonces
ital
▁ayud
▁pregun
▁esp
▁apro
erdo
▁dijo
▁ba
▁bo
▁ev
omo
abil
▁pl
▁ejemplo
▁progra
gres
▁cap
▁sec
▁compar
unca
▁medio
ares
untos
iencia
mana
▁tus
▁efec
zas
tención
▁historia
▁Además
▁ade
▁interes
cono
▁será
lec
olog
erte
▁log
▁especi
▁ofre
▁recu
▁final
▁vo
óg
eza
▁os
edad
▁10
▁8
▁llegar
ticas
ap
▁haber
▁posible
▁millones
▁mientras
bir
ables
▁persona
ición
▁organiz
▁ami
ut
▁Mi
▁Car
▁cara
ge
ome
▁cl
▁puedes
▁compañ
▁funcion
gual
▁Par
▁Esta
ór
ama
rir
▁pan
úm
▁dise
▁sistema
eno
tis
segu
▁ins
▁sue
▁evi
▁present
▁din
▁hacia
▁ele
uda
▁Pro
lig
▁int
▁dec
tante
lor
▁comer
▁pues
▁inici
má
▁ello
▁encontrar
▁niños
▁quer
ment
▁cump
▁mie
▁datos
ortun
ág
tido
▁san
▁nuestros
vid
▁termin
000
▁pod
ál
ior
▁luego
anza
inas
▁nueva
ió
▁nosotros
▁También
▁misma
mar
▁bar
▁ban
▁tenemos
erv
▁dentro
▁empresa
entas
ala
tidad
▁clar
▁diferentes
▁fá
▁edi
▁Como
▁fueron
mientos
ual
▁aplic
ró
▁autor
cul
▁buena
gn
▁sub
zón
bido
▁Co
▁calidad
ecu
▁Ma
▁según
▁hemos
ctu
▁jue
▁casi
▁Na
ril
▁nunca
ajes
ard
▁espa
▁núm
▁España
▁mé
▁ima
▁puest
cular
▁vuel
▁públ
aría
▁ho
ticos
▁9
▁tengo
▁juego
▁punto
▁ru
▁apren
▁proceso
bilidad
▁incluso
▁investi
▁usu
idente
▁aún
▁Yo
▁all
▁Ro
▁sa
▁Cuando
avor
▁enf
▁contro
pecto
▁recom
ric
▁artícu
▁pare
▁web
▁sen
▁proyecto
tad
▁continu
▁cuer
atro
▁grandes
▁situación
écn
ber
▁lado
▁estable
tural
▁mejores
▁conver
▁cr
▁repres
cri
▁dif
▁meses
▁ce
▁profesion
▁saber
▁apoy
▁parece
▁igual
duci
▁So
aran
ura
▁anti
▁distin
▁ofici
▁clas
▁gracias
▁fuera
uir
▁productos
ono
▁favor
tel
▁mode
▁agua
▁cuan
dida
cionales
▁tec
▁Pue
and
rig
▁tendr
dir
▁comen
áp
▁familia
izo
▁uso
dio
▁nego
bol
▁X
▁gu
chos
▁diver
▁grupo
▁salud
▁palab
▁acuerdo
▁tenía
encias
▁Así
▁económ
▁algunas
ito
▁nombre
▁Po
dor
iene
▁entonces
▁pró
dan
ué
▁aum
▁disf
oso
▁Z
▁lín
tando
▁semana
▁prob
▁fa
▁mujeres
▁podemos
isto
siones
▁problemas
itar
▁simp
▁recono
▁má
▁horas
log
▁general
▁asegu
arlo
minist
▁podría
▁espec
ología
ich
▁min
▁verdad
ya
▁seguridad
eras
icia
orn
▁descu
▁ley
▁técn
▁Ha
▁k
▁alguna
▁problema
▁emple
▁empez
puesto
▁mercado
▁pu
tific
▁cin
ivers
▁seguir
pul
gue
▁social
▁españ
▁siti
▁cuest
▁hombre
▁sign
▁valor
▁desarrollo
▁empresas
▁gas
eta
end
ñas
▁cambio
▁condi
inos
▁dice
▁estu
abor
▁ust
isión
▁bajo
▁dinero
▁public
orte
▁Te
▁número
▁relación
▁15
▁servicio
cin
▁Dios
▁tema
▁dispon
▁tienes
▁caus
▁Pa
▁orig
jas
▁experiencia
▁creo
▁prác
▁comunic
▁personal
▁oportun
▁servicios
▁tecn
íamos
abilidad
▁inver
▁fácil
uela
▁ráp
▁mayoría
▁hizo
▁lab
▁algún
irm
cía
▁acer
▁conocer
▁minu
▁poner
▁escu
▁pág
▁próxi
▁confi
tom
▁estamos
deo
▁rev
▁trad
ck
form
▁disfru
he
tá
▁último
▁estoy
▁unas
▁afec
ecer
torio
▁extra
▁Di
▁hora
▁amp
▁especial
vía
éis
▁siendo
▁mí
▁Esto
▁18
▁realidad
▁coment
▁Sal
▁Ju
tada
gación
▁Ah
▁trata
20
oles
▁varios
▁Euro
▁mos
▁pie
erra
▁pelícu
▁partido
ría
ológ
▁just
▁desa
dencia
ental
▁alcan
lado
▁orden
▁cuerpo
ler
▁lí
▁Estados
▁cur
rió
▁atención
.000
ensa
▁cuatro
uestra
▁países
graf
▁particip
▁recur
ifica
▁realizar
dente
▁van
có
▁deber
▁leg
ándo
rist
▁explic
▁conten
▁compr
▁gobierno
ombres
pre
▁norm
▁Ten
▁sac
ger
▁ayuda
▁respons
porte
guien
adri
zos
fico
▁anterior
▁ocas
▁Inter
amento
▁perfec
▁largo
leb
▁cir
ám
▁ocur
▁paso
▁Cas
▁defin
▁bastante
▁Bar
termin
dose
▁dese
▁idea
▁tempor
iso
▁amor
▁esos
▁casos
▁bene
▁Ex
rea
tera
▁Per
mento
itas
tac
▁tí
▁Mu
▁prepar
▁expres
▁soci
▁materi
▁dejar
orp
▁pap
ex
und
▁compe
▁prue
Qué
icip
▁hablar
▁falta
▁pasar
val
zó
▁enfer
ial
▁Hay
▁mús
▁llevar
ocu
▁futu
aja
▁Mé
▁mens
▁libro
▁siguiente
▁constru
toria
▁ol
▁atra
tic
fe
▁junto
ria
▁zona
adie
▁difí
▁puntos
adora
tió
▁inc
El
anci
▁sentido
▁interna
▁ví
tón
cter
▁foto
cis
▁eleg
▁ayudar
▁Ca
ducir
▁Val
▁detal
▁noche
tur
▁Fran
▁on
▁hu
▁suf
reo
▁invi
▁alim
▁claro
tec
▁ejer
▁frente
be
▁benefici
ibles
▁precio
▁señal
▁et
▁incluy
▁pueb
▁fund
▁solu
▁serie
▁miemb
▁segundo
▁sociales
▁objetivo
▁celeb
▁cuanto
▁encontr
▁alguien
ves
vin
▁total
▁caracter
fa
▁espacio
oma
▁público
▁programa
▁haya
▁instal
▁cierto
gado
▁ahí
▁sex
mil
▁artículo
zado
▁centro
▁real
xico
▁producto
▁energ
ne
▁Desde
▁determin
▁Man
▁simple
▁refer
▁mano
iste
▁enten
▁pen
▁ej
dial
▁línea
▁...
tud
▁haciendo
▁natural
inación
char
diendo
▁12
▁encan
▁mucha
cionar
▁puer
▁política
ok
▁anim
▁ambi
▁dedi
tamiento
ron
▁respuest
adrid
▁sería
▁presidente
uros
rera
▁anun
olo
▁puesto
▁vent
▁hacen
▁asi
chas
▁acab
▁amb
uesta
▁necesario
▁nuevos
▁dirig
sas
omos
▁modo
▁nuevas
▁gusta
adres
▁tri
▁regist
alización
▁Am
ducación
▁quiere
▁esti
▁cosa
▁Buen
▁iden
▁respecto
▁dispos
▁tomar
▁domin
pas
▁Ya
▁destac
▁resultados
▁avan
▁sos
La
▁minutos
echa
▁fel
gent
▁Unidos
olución
▁bueno
▁sur
▁liber
▁trabajar
▁sitio
!!
▁pueda
▁ningún
▁usted
▁30
▁primero
▁conoci
▁volver
▁vari
▁encuentra
▁tele
▁partir
▁labor
▁gesti
illa
rio
ES
net
lu
visión
▁hijos
▁comprar
▁etc
▁cantidad
▁juegos
▁habl
▁últimos
▁Estado
dez
amientos
▁Ahora
turas
▁reun
▁lan
▁México
▁Madrid
yo
▁permite
▁Mo
▁loc
▁preocu
▁obs
▁ningun
gi
▁tarde
▁quienes
gon
▁mir
stas
▁solici
alizar
▁camino
▁sé
usión
via
▁sector
▁varias
pti
eas
▁puedo
▁tuvo
▁realmente
▁auto
ice
▁go
ficiente
ho
▁nadie
▁vamos
▁consider
var
▁base
▁nuestras
▁control
icamente
▁seguro
▁Gobierno
men
diente
bajo
▁desp
ísi
▁estra
▁ale
▁pesar
omía
▁deben
▁fil
▁inte
▁.
▁gol
gles
▁demás
▁usuarios
▁Qui
▁mantener
▁docu
▁beb
▁Que
▁–
▁opin
▁visto
▁viol
dust
▁depen
▁perio
ER
tien
▁Gu
ñana
▁contac
▁difícil
hi
lares
▁Mun
ris
▁clientes
reg
▁único
▁evitar
▁actividades
ban
▁financi
▁sigue
▁crear
▁dicho
bió
lección
▁dig
▁ries
▁tor
No
dar
▁conven
▁conseguir
▁segunda
▁sorp
osa
▁emo
mon
▁il
bas
ización
▁significa
▁debido
▁condiciones
▁Gra
▁futuro
▁movi
▁esf
OS
▁palabras
▁incre
▁ren
▁ellas
▁acom
▁color
ula
▁Aunque
▁fís
iado
▁garan
▁—
▁mani
tbol
▁Jos
▁Mon
▁er
ampo
▁pin
▁esas
▁demas
▁jo
▁Nacional
▁precios
trás
▁obra
▁cinco
▁elem
▁ingres
ivo
▁Á
▁sencil
all
▁eran
▁cerca
ha
▁inde
stitu
▁sociedad
▁imagen
▁vir
gel
▁médi
▁fac
▁propio
▁Pre
▁máxi
▁madre
▁ense
cent
xto
▁acep
▁at
ire
▁represent
▁relacion
▁duda
cina
▁papel
-1
▁Go
▁lec
vent
▁ases
▁envi
▁nacional
jar
▁usar
▁prof
▁principal
▁tenido
▁marca
».
▁derecho
▁municip
▁jun
bles
▁integ
alu
▁página
ár
▁hombres
óvil
▁institu
▁Col
oría
▁arti
▁soy
inar
▁diseño
▁vista
▁conj
▁capacidad
▁hijo
▁todavía
▁euros
adamente
taciones
quiera
▁ado
▁pobl
rados
▁éxi
▁asist
respon
▁cla
▁edad
▁fon
▁resultado
▁cuar
uido
▁allí
rami
▁entren
peración
▁mañana
▁quiero
▁amigos
gre
mentos
▁Du
▁contar
lante
erio
▁actividad
▁alta
quil
▁pron
imo
ísticas
cti
▁herrami
▁fe
ciente
▁blan
▁ocu
▁adecu
ques
▁luz
▁estudio
▁impres
▁administ
0,
▁pasa
▁encar
▁padre
▁grande
rido
▁hacerlo
▁reco
▁medios
iversidad
▁proce
tin
▁última
▁salir
AR
eric
▁11
oc
▁mor
▁dado
▁película
▁oportunidad
sic
tulo
▁enc
▁mejorar
▁propia
mir
▁has
tario
▁refle
▁resto
▁opción
▁buscar
ribu
▁proces
▁esté
▁Li
▁rom
▁aplicación
dedor
una
▁actual
▁ofrece
dap
▁acompañ
▁modelo
▁busc
▁eli
remos
▁Pe
▁pueblo
▁promo
▁necesit
▁Res
▁record
▁medida
itos
▁consul
▁cuid
▁Según
▁jugar
len
anas
▁suce
▁199
▁manten
▁origin
▁em
ror
▁famili
▁cru
alo
▁cabeza
vech
▁música
▁DE
uerra
ecen
▁Ser
▁vas
▁cabo
rada
▁rad
▁dio
▁ejerci
▁blog
▁Juan
▁Can
▁importantes
dero
▁contr
▁padres
▁apoyo
tero
▁leer
▁producción
imiento
th
▁red
▁ata
AS
▁temporada
▁tú
ampoco
▁enfr
tivamente
gl
EN
ile
▁poten
▁muerte
▁voy
▁adap
▁derechos
▁Ale
▁14
▁correspon
CI
áb
▁correc
▁Ci
ciar
tán
▁25
▁particular
▁Bo
▁manos
▁comb
▁pudi
▁Cor
trón
rin
imos
▁descub
genes
▁hici
▁alto
taron
▁recursos
ere
▁indust
▁sean
▁éxito
▁limp
▁conte
▁redes
▁fuerte
enas
dimiento
▁plata
▁razón
rero
▁proyectos
▁investigación
▁Tra
▁respuesta
▁ub
▁tel
▁recomend
▁lograr
▁inten
▁comien
fo
tiene
▁perman
▁Jo
▁medidas
▁enseñ
▁16
venes
▁novi
▁fran
line
▁Son
tri
terna
▁pensar
▁enferme
sis
▁primeros
▁alum
▁abs
bar
▁100
ate
»,
manas
qué
▁conci
▁Pres
▁noti
▁cuales
▁bol
blic
▁ur
▁acceso
▁lleva
▁veh
▁Min
▁población
▁Gen
▁propor
▁compañía
▁supon
óvenes
▁Or
▁mediante
▁respe
▁produ
▁viene
▁propie
▁carrera
▁abier
▁profesional
▁necesidad
▁sabe
ífic
▁for
▁Rec
▁pequeño
▁Cent
▁Después
▁estilo
▁esfuer
pción
▁(1
▁principio
▁energía
▁lista
▁libre
▁estás
▁miembros
tección
▁comunicación
▁posibilidad
▁bal
▁Ap
culo
▁quieres
udo
▁queda
▁fundam
▁español
uales
▁cambiar
▁joven
▁13
▁habían
▁recor
talla
taba
are
▁1.
licaciones
bia
▁descar
ído
▁pien
▁aquellos
AN
tividad
eral
▁presente
▁popul
▁17
iente
▁cora
▁jóvenes
▁vivir
▁ninguna
▁ta
▁fre
tiendo
lam
▁fuerza
▁bon
just
▁vehícu
▁niño
ts
▁equipos
▁demasiado
▁hubi
▁fecha
▁Ne
▁profun
▁Nos
▁fan
arán
▁plante
▁viaje
vieron
mia
▁disfrutar
▁ejecu
ancias
▁adqui
erto
▁tér
▁hos
érica
▁depor
▁común
▁fra
ducción
ablemente
▁sentir
▁director
▁épo
▁comunidad
▁ofer
▁capital
▁agu
▁Lu
guen
▁estre
nas
unta
entan
▁local
▁segui
▁aso
▁utilizar
ciación
iva
▁cambios
▁imag
▁dici
ruc
osición
▁educación
▁José
▁Is
▁Ad
▁obtener
▁compren
ese
Por
▁necesidades
▁tecnología
tiz
▁bás
▁dó
té
ill
▁agra
▁mismos
todo
▁Gran
▁declar
▁alre
▁fab
▁Pol
▁viaj
▁Nuev
▁principales
esta
▁je
▁especialmente
ulio
tarse
▁Todo
ase
▁opciones
▁interés
▁puedan
▁regres
▁elimin
icía
▁negocio
▁colabor
▁calle
▁Europa
▁priv
▁demos
▁existe
▁neg
▁video
▁allá
▁campo
▁decisión
grafía
▁ubic
▁Jes
ónde
▁suficiente
▁versión
▁regu
▁lar
ON
▁der
▁acción
tual
dientes
ificación
onas
▁Conse
▁Gracias
▁concep
▁entrada
▁trabajadores
▁Ra
▁jugadores
▁enci
ug
▁estrateg
▁momentos
▁riesgo
▁diseñ
▁formación
▁concre
Es
día
▁limi
▁sir
▁vac
▁gestión
▁llegó
▁disposi
▁profesionales
▁verda
media
▁diferencia
▁supuesto
illo
ale
▁ojos
tadas
▁50
▁tenga
ivil
ándose
▁piel
▁alma
▁cumpl
ctubre
▁perder
▁É
▁crí
▁aprovech
▁temas
vió
irma
don
▁diciembre
uestas
▁públic
▁crisis
▁secre
est
▁considera
▁siglo
▁contenido
▁presu
▁añad
▁provo
▁doc
mor
▁Cam
▁estaban
▁interior
▁nove
▁sens
éf
▁iba
ft
forma
▁ses
▁crecimiento
tagon
▁podía
▁exten
▁función
▁acciones
ete
▁individ
▁ambos
▁Eso
▁única
▁tampoco
▁partici
▁Hoy
▁pareja
▁móvil
▁fotos
▁aire
bu
isis
▁términ
▁:
vención
pres
▁opera
▁concl
▁audi
▁importancia
ptiembre
▁Ja
▁gui
Cu
▁Fa
cidos
torno
▁adi
rez
▁partes
En
▁organización
ienda
zá
ches
▁24
▁compra
▁clase
▁muestra
mágenes
▁pagar
▁deman
gentina
▁corazón
▁Entre
▁Pla
▁is
▁semanas
▁premi
▁mayores
▁época
▁enero
▁exig
eran
▁tierra
▁suel
▁provin
ivos
▁grupos
▁convi
▁entender
▁Ob
sito
glesia
▁plazo
echo
▁formas
▁conjunto
icidad
mul
▁categ
▁menor
▁Sa
▁electrón
ple
▁Cal
▁euro
▁excel
▁lugares
inado
▁consu
▁tur
Cómo
ticamente
▁identific
cionado
▁terri
▁observ
▁arch
▁hogar
▁encontra
▁simil
▁recibir
▁pequeños
▁online
▁alrededor
álisis
▁libros
▁moder
▁somos
▁Segu
▁Universidad
▁ganar
▁elementos
▁imágenes
▁mín
▁contacto
▁necesita
úbl
▁Fue
▁#
▁prueba
▁encuentro
teriores
ke
▁obras
OR
▁autom
isterio
uelo
lla
▁construcción
▁teléf
▁Ay
▁az
▁frecu
▁seis
▁dirección
uls
▁aprender
▁excl
▁área
▁cliente
cados
cle
▁eres
▁cuad
▁inm
▁protagon
▁ciento
rantes
▁2018
▁dolor
▁fabric
▁peso
▁Fe
▁vay
▁octubre
▁sorpren
▁impac
▁Durante
▁sust
▁pelig
▁He
▁recuer
▁ampli
uis
▁tama
glés
▁media
▁pequeña
talmente
▁dólares
acción
▁club
▁vig
▁selec
cientes
▁tradi
▁impor
▁simplemente
▁Vi
▁multi
▁indepen
tran
olver
▁len
▁partidos
ite
▁ideas
▁septiembre
dí
▁arri
▁And
para
ner
▁posición
tina
bern
ell
ística
tería
útbol
rán
bal
▁diferente
▁características
▁crea
.-
▁próximo
▁debería
▁Crist
▁fru
▁gri
▁circ
▁conocimiento
tamos
éctr
▁Hab
▁obst
▁figu
demia
ID
▁dan
óp
▁acerca
ira
▁pregunta
orme
▁cine
▁ofrecer
▁existen
▁quién
▁Gar
tín
9,
▁Tu
▁proteg
▁conec
part
▁marzo
xic
ámara
▁satis
▁fis
▁post
▁serán
▁preocup
▁ahor
▁estudios
▁guerra
▁Fin
uesto
entación
▁inicia
ieron
▁tiempos
▁noviembre
▁env
▁Comisión
▁raz
▁espera
▁internacional
▁movimiento
zan
▁ampl
▁elegir
enda
▁prome
▁usuario
▁Dis
▁María
▁presencia
▁oficial
stico
▁Ba
cra
erva
▁2017
▁mostr
▁mane
ogle
▁eta
▁colo
dentes
AD
ráfico
▁entrev
AL
▁titu
▁ocasiones
Est
▁adelante
▁conduc
▁campaña
▁denun
▁aleg
▁compartir
▁superior
▁habil
▁acon
▁humanos
▁dé
▁práctica
cida
▁Ac
▁Mor
ebrero
arte
▁resta
▁vícti
▁llega
▁tratamiento
2,
▁modi
▁encima
ieza
▁mater
▁experim
dieron
▁inmedia
iencias
▁miedo
▁mensaje
▁Más
rimon
▁contrario
▁curso
diz
▁encuentran
▁causa
▁refi
del
▁junio
▁recuper
▁apor
▁efecto
▁Tras
zás
▁requier
▁empezar
adoras
▁dor
▁intent
▁amigo
izar
▁deja
▁arte
1,
▁consecu
úsque
▁ambiente
▁entrar
▁opinión
▁2.
▁extre
▁Carlos
▁0
fil
▁mayo
▁material
▁clave
▁evalu
▁protección
▁debemos
rios
▁rápido
▁aprob
▁tendrá
▁participación
ódi
xim
▁bor
▁mara
itantes
▁llamado
▁máximo
▁coche
▁colec
zquier
▁título
▁Pues
▁pronto
▁llama
▁palabra
▁pocos
▁cargo
▁interesante
▁baja
▁bel
▁Todos
mite
▁queremos
cito
▁Hola
▁desarrollar
▁levan
▁Señ
▁vuelta
▁oblig
▁incor
alizado
▁busca
▁histór
▁siguientes
édi
▁suerte
▁pública
▁vin
▁Algun
▁aband
▁cient
duca
▁economía
reas
vación
▁repar
metros
▁totalmente
▁región
▁recl
▁General
íos
▁Jesús
▁cub
▁candida
▁modelos
▁completo
▁gén
▁podrá
▁Estos
▁inglés
▁velo
▁búsque
▁Ver
▁vesti
▁edifici
▁cuestión
▁Argentina
▁manifes
▁dónde
▁comida
tion
▁agrade
▁competi
▁Sí
▁sum
entales
▁directamente
IC
▁2016
▁tipos
▁acce
▁pago
▁ajust
▁elabor
▁Ti
▁obli
ciado
▁2020
▁40
▁eléctr
▁Comun
▁verano
▁tratar
tora
▁quería
▁defini
▁Prim
▁voz
itación
▁relaciones
▁debes
▁Pas
▁convertir
▁lig
ública
▁conocido
▁inversión
entemente
▁comprom
▁volun
▁198
▁mundial
▁tamaño
cili
oro
▁separ
culos
▁colores
▁Google
▁vie
▁buenas
▁olvid
▁familias
▁solución
▁estuvo
turales
ubo
one
úa
greso
▁cumplir
▁segura
▁objetivos
▁vic
esa
▁económica
▁análisis
her
▁libertad
▁interpre
▁Fern
▁creación
▁Consejo
▁febrero
▁pena
▁tercer
▁cultura
▁detalles
celona
▁Emp
▁fondo
▁intelig
▁europe
umen
▁contin
▁Luego
5,
▁podrás
▁Esp
▁comenzó
▁ros
▁jugador
▁escuela
ritu
ajas
tía
ramos
▁ejercicio
ame
pir
▁julio
riendo
▁enla
pectos
▁confianza
▁déc
▁crist
▁perten
op
!!!
▁conoce
▁pruebas
▁mit
▁tienda
▁Porque
▁Luis
zada
▁ori
omin
lev
▁resist
▁programas
▁izquier
tencia
▁venta
▁preten
mbi
▁habitu
ferencia
▁antigu
▁constitu
▁Bueno
ruir
ficul
rer
curso
▁distintos
▁dia
▁efectos
▁garanti
book
."
▁alterna
ki
▁políticas
▁blo
▁Sec
▁pers
▁herramientas
rica
▁informe
ém
▁dev
▁Asi
gada
▁autoridades
▁histor
▁impos
▁artículos
idores
gosto
▁Cada
▁metros
▁atrás
▁sacar
▁Creo
▁continuación
▁abril
pital
▁mez
▁estudiantes
▁Entonces
▁dificul
▁desarroll
▁trabajando
3,
▁famos
ry
▁intro
▁personajes
▁escribir
▁participar
▁propuesta
▁Internet
caciones
▁fútbol
▁pier
▁texto
▁preguntas
▁ali
▁hubiera
▁humano
ka
▁desemp
▁aten
▁sistemas
tiles
▁beneficios
▁pelo
▁complic
▁buenos
▁relig
▁zonas
mano
ífico
vio
▁Ab
▁absolu
▁mitad
▁enfermedad
▁normal
▁apre
▁origen
trimon
▁Ciudad
▁Barcelona
▁terc
▁Ni
▁pér
ork
▁puerta
ulas
▁aspectos
▁esperar
ima
▁escuch
irmó
▁brin
▁conce
▁ayer
ket
▁Ban
uestro
▁Aquí
▁suelo
▁come
▁esfuerzo
▁violencia
dios
▁teléfono
▁ocup
▁oper
▁capaz
▁maravil
▁inicio
uerto
▁demo
▁num
idamente
vimos
taría
',
▁quieren
▁escen
▁prev
▁motivo
▁transform
ff
cada
▁jorn
tuvo
▁pun
▁maes
▁Ho
▁21
▁mec
▁convir
▁comentarios
▁ámbi
▁$
▁kil
▁pudo
▁niveles
▁trabajos
▁cel
▁ton
table
▁desc
▁lucha
▁naturaleza
▁veci
▁norte
▁glo
▁selección
▁espos
▁consum
▁muer
didos
▁pasó
▁económico
▁cuidado
▁minist
mismo
▁distintas
▁Hace
▁Santa
▁hon
rí
▁inno
éndo
arla
▁mente
ísimo
▁precis
▁pantalla
▁buscando
▁procesos
ír
▁periodi
ienen
▁cif
ciona
▁materiales
▁Ley
▁nega
▁Nav
▁búsqueda
tida
ardo
▁incorpor
tui
▁aumento
▁esca
pro
este
▁educa
iza
▁Sus
2.
▁exac
▁perío
ware
reno
enso
▁[
▁político
▁popular
▁desapar
4,
▁gratis
▁Mientras
▁ocasión
▁presenta
▁edición
ecía
▁marcha
▁pra
▁Europe
▁habla
▁Direc
▁bienes
iano
▁materia
cepción
▁laboral
▁golpe
▁peor
▁Ven
▁sabemos
dores
▁adul
▁disco
▁constante
omas
▁CO
▁lin
ps
▁cob
▁Mundial
▁amena
▁ga
▁sob
▁2019
tará
▁civil
udades
bilidades
▁hechos
▁defen
▁dicen
uniden
▁consumo
▁discu
▁haga
▁diez
▁militar
▁The
▁responsabilidad
entado
▁tro
▁cumpli
▁pose
ies
▁agosto
▁Cl
▁estad
▁gal
▁gobern
ordin
unes
americ
▁género
▁campe
▁entorno
▁hija
ablo
▁cic
▁llegado
▁salida
▁nave
▁clás
▁dejó
▁original
TA
▁Mer
▁darle
▁lejos
ye
▁resulta
tales
IN
▁arm
▁podrían
▁Nueva
▁pedir
orías
ático
tilla
▁habrá
▁empleo
▁apenas
tantes
▁visita
deos
cebook
▁estrategia
▁obten
migo
ular
▁arriba
▁ciudadanos
ines
1.
▁industria
▁ganas
mer
▁abrir
▁pul
tino
▁alumnos
▁locales
▁ciudades
▁tir
ernes
▁plataforma
▁publ
▁incluye
▁teniendo
illas
▁lanz
▁tenían
▁instru
▁habría
ll
▁restau
▁Ter
0.
▁gratui
▁satisf
ian
▁referencia
▁ideal
▁mesa
leo
▁aspecto
▁valores
▁esco
▁contrib
▁dudas
itales
au
▁sueño
▁toma
▁gustaría
▁clases
llas
▁conflic
▁Sol
▁Estas
▁mexic
▁situaciones
▁monta
▁Del
▁ár
▁evento
▁espacios
▁alimentos
▁ido
▁realizado
▁hicieron
▁decisiones
▁visitar
amp
▁Os
▁paz
▁pase
uestos
▁etapa
▁nar
▁actualmente
ong
▁hacía
▁presentar
▁éste
▁acci
▁inci
laz
tric
tidos
▁médico
▁entrega
▁diario
▁estadouniden
cación
▁tradu
▁Uno
▁banda
▁veo
▁tarje
▁preci
ortal
▁fundamental
sidad
▁sabes
▁descri
logo
▁compro
▁asegurar
▁bra
▁incon
▁justo
▁principios
▁197
▁digo
ielo
titud
▁concent
▁oscu
▁descan
col
didas
lí
áis
IS
▁legis
dica
▁and
iempre
▁infl
ológico
▁completamente
vel
▁revis
ódigo
ws
▁Tor
mentación
▁televisión
▁señor
ácter
Qui
▁adop
▁reducir
▁acces
▁enorme
▁velocidad
▁políticos
tia
▁mostrar
▁dem
▁prensa
tarios
ést
▁quedó
▁abandon
▁carácter
▁capaci
▁Centro
▁personaje
pó
lad
▁blanco
▁compañeros
gaciones
▁fui
▁categoría
iar
tidades
▁escuchar
▁pone
▁ín
▁América
partamento
ional
▁animales
▁elecciones
▁enfo
▁Tal
▁suele
▁Rep
▁tas
▁policía
fas
ática
▁hom
▁hubo
geni
▁digital
▁propon
▁llamada
▁ens
▁internet
ers
▁compromiso
▁juntos
TE
▁facil
▁dibu
▁feliz
yó
▁funciones
▁películas
▁primeras
capa
▁extran
rito
▁propios
▁ór
▁circun
▁23
▁exclus
dena
ack
mán
▁aut
dra
▁excelente
▁Dan
▁impacto
▁avi
▁posterior
arme
▁siento
▁22
▁tab
▁Colom
▁sín
▁Institu
legio
▁finalmente
▁siquiera
▁Interna
▁Ministerio
▁visión
▁signific
▁dando
▁distancia
▁técnica
íritu
▁modific
éndose
▁ropa
▁tengan
▁presupuesto
ibilidad
drá
▁Da
▁técnico
▁Real
▁marcas
▁dura
▁período
▁transporte
▁muest
▁miles
rando
od
▁sola
▁finales
jado
quina
▁II
▁conserv
pes
▁fras
uye
▁aplicaciones
▁Él
rump
▁Martín
▁aproxim
▁representa
▁distribu
▁oferta
▁repe
▁correo
Se
▁disponible
▁aun
▁reunión
▁mala
▁obstante
▁x
▁cocina
▁viernes
▁posibilidades
▁anteriores
▁marco
▁alcanzar
▁doble
▁contemp
sitos
▁comenzar
▁empren
▁bre
AM
▁intentar
alizada
▁tre
▁Anton
▁án
▁reno
tículo
▁podrán
ónica
lores
▁sencillo
estr
▁estim
▁har
▁familiar
▁Chile
com
▁univer
port
▁apun
arnos
aro
▁efica
ello
▁Ta
▁podido
▁páginas
▁admi
▁presiden
▁bebé
pal
▁provincia
▁dic
▁comba
tigo
▁ingresos
enci
▁responsable
▁defensa
▁fer
torios
▁Señor
▁tempera
▁centros
ilar
▁genera
▁perfecto
gamos
wit
▁alcal
vado
trimonio
▁bril
ética
▁testi
▁convo
▁domingo
▁aprendiz
▁Facebook
dal
▁derro
▁presentación
encial
▁nota
▁ofrec
▁ment
▁suje
▁repro
▁siete
ructura
▁Plan
▁60
▁recib
▁detrás
8,
deres
▁enter
íficos
▁Unión
▁guard
▁increí
ko
▁estará
▁hotel
▁fron
50
▁funciona
▁explica
▁cuentas
▁dispar
▁dismin
▁1,
▁inclu
▁Ag
▁familiares
▁emi
▁ras
▁comenz
▁grave
▁permitir
▁2015
▁psic
▁torn
▁Ros
▁sangre
▁presión
uelas
▁3.
san
▁sáb
▁comport
▁ventas
▁fir
laciones
▁negocios
edes
▁crédi
▁términos
▁deten
▁agre
▁nie
▁pasos
▁consigui
▁Pos
▁q
gración
▁contrato
▁acceder
▁actualidad
▁destino
▁descono
▁perfil
▁26
▁Ped
▁quin
▁mem
▁siguen
▁mismas
etas
▁pandemia
inci
▁concepto
orge
iber
amb
quitec
ístico
▁líneas
▁generación
▁sensación
▁facili
▁cuarto
▁líder
▁atrac
▁prefer
ída
▁últimas
▁Cab
▁Gal
▁rit
▁bara
ribun
▁herramienta
▁jur
▁revel
▁due
gó
▁mencion
▁vino
uri
tumb
▁hermos
▁mam
sion
▁estructura
uicio
rismo
▁prior
▁argu
▁recha
▁imple
▁compon
ly
▁Muchas
▁corre
▁Francis
▁cámara
▁27
▁embara
▁clic
▁detec
▁Pr
▁sosten
▁vía
▁organizaciones
▁gusto
▁Cons
uegos
stru
▁Siempre
ibl
▁razones
ismos
▁regal
▁guar
▁objeto
ide
▁demanda
▁vehículo
▁falle
▁superfici
▁Sab
▁pis
▁solamente
▁Colombia
▁tex
▁pobre
▁mic
▁redu
cla
▁Tan
▁mejora
▁China
untamiento
▁central
▁señaló
tades
▁fiesta
onia
▁derecha
▁canción
▁aumentar
▁áreas
itario
▁quizás
▁acos
jero
▁cuán
ip
▁generar
▁jefe
▁Puede
▁escrito
▁imposible
▁llevó
▁za
▁Pal
raciones
▁cualquiera
▁periodo
▁Just
triz
▁pequeñas
▁vehículos
osos
▁personales
▁posibles
▁técnicas
cor
▁pesos
▁fuerzas
▁carga
▁demostr
▁Sh
▁mus
▁hablando
didad
▁industri
▁decor
▁Francia
▁acto
▁suelen
▁Incl
▁terminar
▁Her
tudes
▁recordar
▁sitios
resa
dencias
▁Reg
▁mínimo
ández
▁ámbito
berto
▁despe
▁entrevista
3.
▁lunes
▁sup
enos
▁supone
▁investig
viera
▁amar
▁requiere
▁encanta
▁moda
▁oc
▁cumple
▁negro
▁izquierda
▁infan
▁fuente
▁Iglesia
▁residen
▁Artículo
▁Au
▁vecinos
▁escrib
▁%
▁lic
▁hermano
amentos
deración
▁memoria
▁habitación
▁Cre
▁altura
▁física
▁conform
▁idi
lesc
▁parecer
▁ayu
▁bloque
▁enfrent
▁visit
▁instituciones
▁err
▁circunst
ífica
▁explicó
▁mol
▁rece
▁almacen
▁28
▁May
▁Día
vas
uencias
▁Hasta
▁Ve
▁abog
ológica
▁empleados
▁aparece
▁error
tim
▁menudo
▁ocho
▁Mig
▁calles
▁jornada
roso
▁ustedes
▁LA
▁elección
▁comercial
▁Mal
taria
▁tiendas
cimientos
dado
▁especie
▁music
9.
▁estén
mbre
▁norma
▁pacientes
▁respec
rales
▁numeros
▁Solo
ñar
▁entra
▁hará
▁competencia
osi
mentar
▁profesor
▁similar
▁española
ético
▁Estoy
jan
logía
fin
▁lengu
▁Está
▁respeto
▁pasando
▁noticia
▁aquella
quer
4.
▁•
gul
▁avent
▁otor
▁abajo
▁Salud
▁Imp
▁grab
▁diversos
▁pec
'.
▁tercera
amor
▁resolver
▁alguno
▁Social
▁Ej
▁tarea
▁electrónico
▁PS
▁bi
▁completa
▁disposición
▁puedas
▁factores
tienen
▁útil
erno
lido
tulos
su
toral
7,
▁relev
▁construir
▁deporte
▁divi
▁ocurre
▁At
ificar
▁movil
▁motor
▁administración
▁Don
mania
rique
▁carre
▁Super
▁kiló
▁prove
▁requi
6,
▁establecer
gü
▁recuerdo
▁SE
ciles
hn
▁árbol
▁oportunidades
▁rode
mática
▁(2
▁Presidente
▁Secre
▁consecuencia
áticos
manos
▁disponibles
▁necesitan
▁República
▁apare
▁vídeo
▁ano
lib
últi
▁dejado
▁div
▁noticias
▁pérdida
▁figura
▁sábado
ím
▁expertos
▁aprendizaje
▁PR
vido
yas
▁rendimiento
▁miembro
▁escenario
▁bu
▁Antonio
keting
▁propó
▁larga
▁Rey
▁Pablo
▁infer
▁Der
▁diá
▁afi
▁desper
▁reac
▁casas
▁ran
▁dicha
icio
puestos
▁intención
pan
▁vivienda
▁acus
▁deseo
▁Fo
ond
▁intereses
▁Francisco
▁human
Los
▁arro
▁cuyo
▁victoria
ientes
edor
dico
aca
▁llegada
▁Je
▁Pedro
áles
▁reflex
▁sesión
▁delante
esto
▁conocimientos
▁ace
▁triun
ance
▁Sólo
▁reti
▁fle
▁gastos
anzas
▁rey
jes
▁puso
▁municipio
use
▁cree
▁públicos
▁Mil
▁edificio
▁escol
▁Cos
▁Mas
yos
▁ataque
▁pele
lez
▁Dav
▁Th
▁Antes
▁consejos
▁importa
teras
torial
▁202
▁azul
▁contenidos
▁planes
▁magn
▁cereb
▁sabía
▁cán
▁consegui
▁ritmo
ueves
▁espero
▁menores
▁iniciativa
▁exterior
ariamente
▁mad
▁boca
▁adolesc
▁fase
▁fuentes
▁cuál
▁diversas
ábamos
Me
▁fuego
▁descubrir
ED
▁vaya
▁abra
▁tareas
ité
▁saben
▁reclam
echos
ologías
▁dij
gia
▁prefi
ruz
if
▁York
▁US
ign
▁individu
▁experiencias
▁Bol
▁fas
▁método
▁exam
sto
▁Miguel
guay
▁sale
viamente
▁Tengo
▁descon
▁corona
imen
▁mensajes
▁carta
▁lectura
▁nomb
▁há
▁propuestas
▁vuelve
▁internacionales
▁vivo
▁funcionamiento
▁encontramos
▁escal
lin
▁hal
▁Ben
▁196
▁ES
emen
▁desempe
▁radio
▁soluciones
▁debajo
▁deri
▁cari
▁propiedad
radas
▁perdido
▁corri
▁ofrecen
▁variedad
▁hacemos
▁decidió
▁historias
▁pensando
cando
▁prom
teles
▁novela
▁silen
tique
▁vender
aliza
▁decía
▁pocas
▁sectores
▁coinci
▁víctimas
▁comprome
▁principalmente
▁configu
▁ep
▁colaboración
▁decl
hu
tador
▁unidad
▁Internacional
exión
▁arquitec
▁Fer
▁sexual
ftware
▁rápidamente
virus
mis
▁maravillos
▁contexto
▁justicia
RA
▁necesitas
▁realiza
▁verdadera
▁traslad
rasil
zca
▁corto
deral
irse
itaria
iel
II
▁prácticas
5%
uc
pia
▁vacaciones
▁recibi
▁permiti
▁territorio
▁instalaciones
cieron
▁transmi
▁Algunos
▁vive
▁eventos
▁Gon
erta
▁Gru
▁vio
▁motiv
▁ó
▁infra
▁taller
▁Pan
▁Era
▁García
▁Rus
▁proteger
▁vos
▁mari
▁chica
▁ésta
imientos
▁hospital
ructu
▁puertas
▁bici
▁rápida
rarse
ráfic
anía
▁impuls
▁grado
▁empezó
▁rue
▁puestos
▁compa
▁hayan
▁bes
▁tendencia
▁aquellas
▁futbol
▁propias
▁jam
▁piezas
▁Seguridad
▁dispu
▁sonido
▁bur
▁calor
▁subir
ses
▁especiales
▁Sobre
▁utiliza
▁ciencia
dría
▁duro
▁recibió
▁reserv
▁Ama
▁barrio
ick
▁equilib
▁informa
De
ópez
▁cerc
uras
▁probablemente
ól
▁convertido
▁ambas
▁80
▁arreg
▁Fel
▁vemos
plic
▁Alemania
▁sección
cidas
gados
ército
zon
▁aseguró
▁desaf
▁Án
Con
teca
▁Manuel
▁amplia
▁canciones
▁entien
▁terror
dó
reras
él
▁probar
▁directo
▁cierta
▁firm
▁Asimismo
rag
▁madera
▁documento
iores
▁»
▁López
▁manda
fé
coles
witter
.,
▁sensi
▁próxima
▁fich
▁oro
▁Cap
▁bri
▁precisamente
▁planta
▁permiten
rue
▁Actu
cambi
enten
cés
▁pob
▁Pi
▁Ese
▁llevan
▁encontrado
▁oficina
▁operación
▁kilómetros
ty
eres
mes
iana
▁Puedes
ultura
▁EL
▁Otra
▁avis
zco
gna
▁tranqui
▁fiscal
ecuencias
▁emerg
▁Instituto
uno
▁program
arma
▁garantizar
▁cá
▁suspen
▁Educación
ples
▁Otro
como
▁Hum
▁habitantes
▁recuerda
utri
▁cuya
▁Servi
sición
onos
▁comercio
mites
▁operaciones
vos
▁Congreso
▁criter
estiv
▁naturales
▁adelan
▁ventaja
▁Esc
▁Har
▁dipu
▁creer
ker
▁explo
▁niña
▁pedido
▁recon
▁habitual
▁pies
▁armas
▁Brasil
▁físico
▁Tiene
ires
▁ase
echas
▁normas
▁UN
▁tantos
▁fondos
torias
▁Fu
▁convers
▁comentario
▁jueves
▁Muy
▁consecuencias
▁jard
▁argent
▁dije
▁Ella
▁volvió
▁Bel
erop
▁existencia
▁tren
▁Mus
▁realizó
▁pasada
▁vale
▁salió
▁hid
rador
▁perro
▁ministro
iego
▁entidad
▁indica
ues
▁clara
ices
▁ene
▁infec
▁daño
▁isla
illos
▁mantenimiento
▁planeta
▁premio
▁lóg
▁deberá
▁produce
EC
▁increíble
dic
▁fen
gram
▁río
▁zapa
▁prácticamente
▁ocul
▁frecuencia
▁somb
▁vidas
▁seres
ÓN
▁asu
▁excep
▁estructu
Si
dis
enes
▁código
▁quedan
▁sala
▁plantas
▁rob
▁religios
▁comienza
▁pilo
▁múlti
eren
talia
▁dispositivos
▁detalle
▁perió
▁condición
5.
AC
▁nacionales
▁hago
▁enfermedades
▁Aso
▁Ayuntamiento
▁recibido
▁adquirir
sen
▁moles
▁errores
ércoles
▁fortal
▁independiente
▁tales
▁agrad
▁depende
▁llamar
▁comunidades
cionados
▁contras
ég
▁flu
▁viendo
▁4.
▁esposa
▁resolución
▁sirve
▁abierto
▁consol
▁mantiene
▁ja
▁controlar
....
▁hue
iales
▁ves
▁aplicar
arición
▁cama
▁Vic
▁ge
▁perspec
▁firma
▁agreg
▁titular
pp
iro
▁ul
▁alo
▁confirm
▁IN
▁enlace
▁debate
▁pais
▁porcent
▁David
onato
▁costos
▁baño
uelos
▁probable
▁acog
dón
▁fres
mático
▁costo
▁Buenos
▁software
▁década
araciones
▁continuar
▁adecuado
▁reconocimiento
tio
ley
▁2,
rupción
▁some
ficaciones
rieron
leza
▁hábi
▁Europea
▁chicos
▁publicado
rup
▁síntom
▁cuentan
▁humana
▁90
▁juicio
▁archivos
▁evolución
▁ansi
▁sexo
edores
▁creado
▁fines
▁tradicional
▁involu
UE
▁Copa
▁cáncer
▁31
▁global
▁univers
▁dispositivo
▁acumul
▁agres
▁crim
▁españoles
▁trabaja
▁Tran
▁dieron
guez
▁asunto
vier
▁>
iendas
▁Policía
▁viajes
tillo
▁Sur
▁expec
venir
▁art
▁tuvieron
▁escena
▁colocar
tiago
▁plá
▁reconocer
▁estudiar
▁necesaria
eles
▁obliga
judi
▁siente
Te
ráfica
▁Do
▁hermanos
izado
▁capí
▁misión
▁estadounidense
▁ilum
▁Grupo
lamento
▁Ber
▁publicación
▁exposición
▁Venez
pol
▁ruta
▁Esa
▁aus
-19
▁responder
▁viajar
Al
▁descargar
▁guía
▁terreno
▁irre
grafías
▁Catal
▁máxima
▁70
▁convirtió
▁habilidades
▁propósito
▁ventajas
▁tengas
▁conexión
rael
▁adver
▁ofertas
▁identidad
▁hice
TO
▁espi
▁peligro
-2
▁EN
▁tocar
▁igu
▁explicar
▁próximos
▁médicos
▁Tom
▁motivos
▁logró
todos
TI
▁adultos
30
▁vienen
▁caer
?,
▁hacerse
▁objetos
ins
▁llu
▁Administ
▁comportamiento
▁Cub
ervi
▁comerci
▁conocida
quen
deros
▁positivo
▁fuertes
▁espal
rano
▁aclar
alizados
▁certific
▁John
▁Be
▁nombres
▁intercambi
ribunal
▁cuestiones
ave
▁quedar
▁celebrar
▁equivo
pl
▁parecía
lb
▁cerrar
▁conciencia
▁espíritu
▁asegura
▁raí
▁iglesia
ph
▁formato
tern
▁término
▁ast
▁acaba
bel
gencias
dimos
idor
▁Mac
gust
▁Mis
jor
▁relacionados
▁miércoles
▁quedado
▁aproximadamente
▁opiniones
▁vul
▁documentos
▁escon
▁rol
▁pros
rón
▁contigo
▁tuve
▁mira
▁exactamente
▁(19
ienes
▁esperanza
▁regular
▁29
▁Reino
ung
▁Ángel
▁requer
▁refiere
▁Sam
▁números
zando
▁caída
jal
▁mecan
▁unidades
▁cultural
▁mone
apón
tismo
égimen
▁Premi
▁conmigo
▁alqui
▁llen
▁conv
▁públicas
▁impresion
▁producir
▁martes
▁verde
▁expan
▁compras
▁Liga
▁tecnologías
▁Pat
▁orgul
onda
▁surg
▁típ
▁tendrán
ni
▁diciendo
▁Santiago
▁movimientos
lada
▁Incluso
teros
▁lech
▁Cristo
▁escas
▁contes
▁informó
▁expresión
▁archivo
▁@
▁progres
▁femen
▁lleno
jeros
cracia
▁voluntad
▁incluir
gando
▁aument
▁caja
▁fácilmente
▁secund
▁dro
▁artista
gal
▁afirma
▁escribió
▁crédito
▁tes
▁llevado
▁incluyendo
▁niñas
▁corte
▁eliminar
▁sencilla
▁britán
▁Bus
bili
▁Desarrol
cir
▁expon
amble
▁canal
▁conden
ombi
▁mover
itud
ear
▁mercados
▁Medi
▁Twitter
In
▁revista
▁paciente
▁mirada
▁ais
▁instalación
amo
idar
▁salv
▁recuperación
deras
8.
▁perfectamente
▁Venezuela
▁circunstancias
tente
▁genial
▁asistencia
▁actitud
▁fotografía
chez
▁legal
▁trá
mula
▁temperatura
▁compañías
▁suma
▁Mich
▁riesgos
▁coti
▁Qu
▁Jorge
crá
tilidad
▁cuesta
▁gras
ivamente
piración
▁necesarios
▁cita
▁Municip
later
▁Econ
▁ec
▁PP
ciaciones
▁tarjeta
iblio
▁ciertos
▁respuestas
ivas
▁dormir
▁2014
▁cielo
▁anal
▁belleza
▁institución
▁publicidad
▁registro
▁reciente
▁comprender
esión
▁Deb
▁actuación
▁virus
▁cuidad
▁superficie
▁concreto
▁malo
rimiento
▁presentó
▁quizá
▁apos
▁leyes
▁elemento
▁Tierra
udos
▁procedimiento
▁remo
▁catal
▁Hu
▁tendrás
▁dejo
▁Constitu
arca
▁plaza
▁crecer
▁recuperar
▁anunció
isten
▁inscri
▁múltiples
▁desapare
IA
▁Win
fía
▁recién
▁afirmó
▁Rom
bamos
▁segundos
▁tantas
leta
▁disc
ré
▁cort
▁capaces
ky
Lo
▁querido
▁playa
▁comunes
▁viven
adém
▁coronavirus
▁colección
▁breve
▁empieza
▁recorrido
▁XX
▁implic
tadores
▁diferencias
gular
▁mirar
▁Ste
▁alcance
▁pueblos
▁dul
misión
ube
vera
▁arran
▁Perú
▁camis
▁Vir
▁parque
▁café
%.
▁marketing
▁potencia
▁Estamos
▁robo
▁impuestos
▁Sr
ólogo
venida
▁formar
▁verdadero
▁Finalmente
tró
tillas
▁complicado
▁Fund
▁tráfico
▁entrenamiento
▁aprovechar
▁Casa
tam
▁prima
▁acostumb
6.
▁distribución
dición
▁aquello
▁cercan
aste
icción
quilla
▁adecuada
▁ben
arial
▁quisi
▁lenguaje
tista
▁gana
ológicos
gadas
▁relo
▁jamás
▁trayec
▁asoci
▁Muchos
▁tasa
tron
▁potencial
▁gobier
▁194
▁matrimonio
▁Tenemos
▁destacar
▁comerciales
▁artistas
▁esperando
▁cadena
▁luch
▁sede
▁indicó
▁volumen
▁Ram
▁expecta
uta
▁perfecta
▁aper
▁esfuerzos
iles
ang
▁enviar
▁Fernando
▁promedio
▁superar
▁urb
▁intervención
ualmente
▁Ali
▁ciertas
luencia
▁convertirse
olucion
7.
▁considerar
▁ingeni
▁pese
▁bru
▁judi
▁Mari
tí
▁nació
▁sucede
culación
pens
▁+
lbum
▁Ga
▁beneficio
▁perci
▁evaluación
▁desi
ane
▁sel
▁añadir
▁reforma
▁dificultades
▁Rusia
▁limpieza
▁reto
icaciones
▁clima
▁participantes
▁directa
▁llegan
▁cuestion
▁accidente
▁actuales
▁Pon
▁conflicto
▁alegría
máticas
▁Asociación
▁Japón
grama
esper
▁Comunidad
▁curios
ámica
▁duración
▁comienzo
▁convierte
▁bajar
▁Cruz
▁reducción
▁Gre
▁preguntar
▁enamor
▁dimen
▁venir
fon
▁consiste
ciencia
▁frío
eca
▁evidente
VID
▁minuto
▁Ol
inados
▁económicos
▁escuelas
▁honor
dedores
▁Clar
▁cierre
RE
dremos
▁tranquil
▁carne
▁500
▁formul
yendo
▁explor
▁enga
▁fom
▁cubier
orar
▁Aires
▁jurí
▁Partido
▁régimen
▁cursos
▁seguros
▁seguramente
▁teoría
▁Wil
estas
▁francés
▁estación
▁torno
we
!.
ánchez
ezca
nes
▁ech
usa
▁promoción
▁localidad
▁llena
▁piso
▁necesitar
▁decidir
▁acabar
▁Italia
▁actuar
tidas
▁bomb
▁municipal
▁implica
▁presentes
▁Bal
▁fenóm
▁síntomas
▁Nunca
▁chico
▁correr
ficientes
▁cabal
▁aceptar
▁proporcion
▁álbum
▁Organ
ive
metro
▁aceite
eropuerto
▁requisitos
▁Guerra
▁ciclo
▁parecen
▁inicial
▁alcalde
▁huel
eos
▁acuer
▁desen
▁Ana
▁conseguido
▁quiera
▁nuevamente
▁suces
▁regalo
▁Navidad
▁sorpresa
▁Norte
▁Hi
▁protes
erro
▁coste
▁Sánchez
▁toque
rés
▁sobrevi
▁analizar
▁entrenador
▁privado
gro
▁incluyen
▁renun
▁Hol
▁meta
▁recog
▁Unidas
▁estrategias
guar
▁definitiva
capacidad
▁deuda
▁artes
▁agentes
▁pidió
▁ital
villa
▁víctima
ueve
zados
▁protagonista
▁terminó
tible
taban
▁móviles
▁entidades
▁Espero
▁NO
▁académ
íguez
▁oposición
▁dejando
▁nutri
uf
▁resistencia
▁apartado
▁tera
▁cocin
uestros
▁únicamente
▁micro
▁etique
▁2013
▁destru
▁infantil
▁Recuer
▁similares
ísima
▁perros
▁proto
▁Cómo
▁Rodr
▁gestion
▁Naciones
▁Blan
tacular
▁comparación
timos
dimientos
▁Trump
▁compañero
▁liter
▁elev
estival
▁decidido
cador
OE
▁sosp
10
▁Ge
▁pensamiento
▁reglas
▁Sil
ity
▁rato
▁Soy
▁departamento
▁dra
▁muerto
▁Fis
▁utilizado
adá
▁utilizan
elas
▁torneo
▁Fuer
▁Fi
▁antiguo
▁involuc
ulo
%,
▁acel
▁ago
▁entregar
▁equip
▁ganó
ficiencia
▁leyendo
▁señala
▁administra
▁Rodríguez
tieron
▁sonri
▁serio
▁utilizando
▁inferior
▁pudiera
king
▁reca
ós
▁pac
mbol
chi
▁correcto
▁delan
▁cerebro
▁Qué
OL
quía
▁responsables
uebles
viendo
ublic
▁goles
abas
▁ign
▁autén
▁ejecución
donos
▁Club
▁Comité
let
▁2012
▁the
▁practi
▁oficiales
▁ilust
▁batalla
▁declaración
▁elig
▁flo
dados
▁meter
▁haces
▁estan
ime
roid
▁tej
▁autón
▁histórico
▁Cuba
▁195
▁aport
▁alimentación
▁emociones
▁hermana
▁Gonzá
▁culpa
▁sentimientos
▁Sen
osas
▁intento
▁usa
isiones
▁Vol
▁tendría
▁parecido
▁invierno
▁animal
▁Fernández
▁resca
inta
eña
tuales
ey
▁autoridad
▁deberían
▁gustado
▁buscan
▁gama
▁logrado
▁ganado
▁placer
▁aver
ló
cesa
▁bos
▁nueve
▁París
▁discip
▁auton
itan
coh
ianos
▁Inform
▁Hist
▁musical
tag
▁paque
▁diálogo
▁Pen
tig
▁repor
▁altos
▁nervi
smo
▁banco
▁Quer
▁González
▁frase
▁causas
▁suminist
▁36
vencia
▁espectacular
pira
▁permanente
▁Valencia
▁consulta
▁vacun
▁específic
▁mezcla
▁opti
▁Dos
▁cuáles
▁colegio
hat
caron
▁EE
▁Desarrollo
▁abierta
irá
▁contam
▁lengua
▁sueños
▁cambiado
▁rin
▁juz
▁León
▁métodos
oraciones
▁determinar
▁actor
▁acord
▁"¿
tización
▁vein
▁vosotros
EL
▁tanta
▁fracas
▁Estudi
▁sabor
▁alternativa
▁gustan
▁mamá
▁usando
▁vulner
▁actos
▁funcionarios
▁aconse
▁organismo
frica
▁desea
▁lanzamiento
▁estren
edades
▁Podemos
▁ejercicios
▁votos
▁clín
▁Amazon
sar
▁cuento
endas
ade
▁cabello
itado
▁hin
▁piensa
▁Unido
▁abord
ag
anda
▁llegaron
▁domi
▁presentado
▁agregó
biendo
abe
▁necesarias
han
▁transpar
▁leche
▁puesta
▁reales
▁Cla
▁décadas
uctura
imi
▁batería
▁correcta
▁infraestr
▁llegue
▁urg
▁tari
▁list
▁fechas
▁aconte
▁asign
▁querer
▁partida
ili
▁servir
cón
▁amiga
▁anteriormente
▁respal
amblea
▁estrellas
▁silencio
▁porcentaje
▁5.
▁elegido
▁universidad
▁coo
▁cantante
▁amist
▁salvo
▁ocurrió
ash
carse
▁interesantes
▁descanso
▁factor
uña
▁leído
▁espectá
land
maras
▁Ofici
EM
pero
▁chicas
▁rojo
▁populares
wn
ham
▁cál
ristas
eración
ernas
▁americ
...)
puesta
tég
▁logra
formas
tamientos
augu
▁35
▁193
ondres
▁For
▁Nuestro
▁claramente
▁líderes
▁radic
▁hipo
▁tomó
ualidad
▁seguidores
▁vuelto
▁Civil
▁prohi
▁cuadro
▁vuelo
trol
▁atre
▁candidato
▁Han
▁coches
saciones
ht
▁rent
▁Aust
▁pasan
▁solicitar
▁recibe
▁extraordin
ks
▁montón
▁episo
▁idioma
▁Actualmente
pil
▁Justicia
▁suger
fre
▁defender
▁inspir
"..
▁Nuestra
▁matar
▁ger
▁Lle
▁debía
rom
▁inaugu
din
▁mate
▁anunci
▁imper
▁periodista
▁demostrar
▁Vamos
▁dieta
▁3,
▁Nic
▁hablamos
▁preocupa
▁bienestar
quinas
uyó
▁contó
▁iniciar
▁colombi
▁peligros
▁esencial
▁fren
ruguay
▁boda
▁títulos
▁comunicado
alizó
▁Mes
cé
ándole
▁amplio
lon
▁perspectiva
▁cifra
▁Trans
olina
▁técnicos
▁aparecer
▁felicidad
▁Pé
ñado
▁resal
▁alcoh
▁daños
▁prést
▁Hemos
▁cho
▁300
▁denom
▁poca
rida
▁interac
▁impon
▁pienso
▁viejo
▁aliment
▁invertir
▁XV
▁Quiero
▁muestran
tones
▁Londres
▁ges
▁trato
ull
▁quím
▁Insta
▁catá
▁Ori
▁fantas
▁avión
▁solicitud
▁Gui
▁ubicación
▁gar
▁encontraba
▁necesitamos
▁agradable
▁cifras
▁enfoque
▁Segun
▁innovación
▁recientemente
▁discurso
▁Bien
▁generales
▁Mat
▁facilitar
▁bonito
▁personalidad
▁trabajan
dice
cionamiento
▁enseñanza
▁Bas
▁Hos
pera
▁correspondiente
▁observar
▁ON
▁Má
▁pide
▁declaraciones
▁comput
tú
▁celebración
▁estrés
▁morir
▁rostro
▁soporte
▁Fundación
▁realización
▁Ante
▁carretera
lano
▁aguas
istema
▁coord
▁tier
▁vincul
▁Person
▁Toda
▁espalda
abilidades
▁?
▁contiene
▁cár
▁cuel
CIÓN
▁preparar
▁peti
▁merece
▁mental
▁tono
▁Android
▁hagan
▁apara
▁bicicle
▁abre
▁atender
▁límite
▁preparación
▁gig
▁seguimiento
túa
▁pasión
▁destaca
▁muse
▁servid
quia
-,
vador
▁cumplimiento
▁ninguno
cula
▁abor
▁impul
▁Tele
cindi
▁Javier
▁sesiones
▁nu
teratura
cían
ster
▁teatro
▁fotografías
▁document
▁crítica
▁rival
▁conqui
▁&
quito
▁Españ
▁premios
201
apa
▁gobiernos
▁Men
▁Lin
▁moto
▁Web
▁asesina
▁Nosotros
):
▁camp
ela
▁apa
▁muchísimo
▁afecta
▁muertos
OM
▁aloj
▁influencia
▁humanidad
▁pantal
▁tradición
▁bio
▁maneras
▁identificar
▁Amb
BA
▁entreten
▁fiestas
UN
▁generalmente
▁toca
▁asesor
▁olvidar
▁encontró
▁bro
▁Uste
▁Instagram
▁igualdad
▁traer
ezas
usiones
▁rein
▁destacó
usos
▁efectivo
▁límites
gin
▁pus
▁arre
▁interesa
▁estados
▁máquina
▁gasto
▁You
▁visitas
▁murió
▁recomiendo
▁habita
ambre
▁aparecen
▁afron
▁electoral
▁estaría
▁imagin
▁profesores
▁Sevilla
adio
▁Pérez
▁ileg
▁permitirá
sal
dul
▁Dec
▁Espe
▁cientos
▁Az
ota
▁autores
▁conversación
▁ejemplos
▁exitos
▁apuesta
▁Tur
▁antigua
▁pieza
▁inmediato
▁complejo
ariz
▁PC
▁ahorrar
▁audio
▁envío
▁Ur
ctor
▁deba
▁retras
▁inteligencia
▁Domin
rente
▁conside
ánica
ilos
▁actores
▁Banco
▁empe
américa
▁quieras
▁activos
▁Guar
teo
cionalmente
irmar
▁pista
▁var
ense
▁reform
ionar
▁altas
▁comentó
▁ojo
▁realizan
ney
▁nacimiento
▁desplaz
▁Mic
▁comprobar
▁preocupación
▁humor
▁dejan
AP
▁expe
▁impresión
ames
lie
wa
▁apertura
▁Ejecu
ix
mail
▁guer
▁reda
▁reemp
▁Cono
▁plataformas
▁Af
▁juez
▁brazos
▁alter
elos
▁eficaz
▁consejo
To
▁preparado
▁pade
▁sú
▁dijeron
▁pobreza
cómo
▁Gab
int
▁Todas
▁videoj
bio
▁cartas
▁daba
▁2011
▁uni
ribe
▁individual
▁universi
IM
derá
▁expectativas
▁económicas
▁apoyar
▁suave
▁clásico
▁Les
▁pensado
▁consist
endaciones
▁estrella
Un
▁jugue
▁sho
▁despi
▁ensay
▁incremento
▁acre
▁pat
▁masa
▁pleno
▁bases
andro
▁flor
bios
siva
▁voto
▁UE
▁manifi
ister
▁razon
bos
ánico
▁viviendas
▁emergencia
▁representantes
dows
▁huev
éro
▁turismo
▁br
▁establece
úl
úcar
▁CON
▁cotidi
vesti
▁tradicionales
▁talento
▁Diego
▁TV
▁edificios
▁Red
▁echar
▁infin
▁botón
▁doctor
▁Andr
▁Mc
▁intelec
▁Trabajo
▁cole
▁embarazo
▁recomendable
▁Junta
▁plano
raron
▁Cer
▁indis
▁foro
ioso
tistas
tab
▁consumidores
▁decoración
▁científicos
▁cámaras
▁anual
▁regreso
▁consigue
▁podamos
▁piedra
▁cabe
óstico
IT
▁flores
lín
gor
▁2010
▁tru
▁ingre
▁secreto
▁alar
▁privada
ficación
▁posteriormente
▁democracia
▁100%
▁mul
ísticos
Las
▁Nin
▁km
▁lidera
▁consciente
▁argentino
ificado
ajo
▁enfrentar
▁actriz
▁accesor
▁pic
▁Villa
zz
Re
▁alternativas
▁COVID
▁enseñar
▁podían
▁abogado
PS
▁sole
▁escala
▁normalmente
▁carreras
▁dispuesto
▁retro
▁quitar
▁podremos
▁vigil
▁reuniones
mbo
lando
▁marido
▁ordenador
Yo
letas
cilio
inada
▁dará
▁Apple
mido
VA
▁estratég
▁Jul
▁sustitu
▁humil
▁Israel
entro
▁especies
▁prisión
▁pasaj
▁discipl
▁asociación
▁exces
▁exter
ciedad
▁deleg
▁Comp
▁hel
ándolo
▁lá
▁biblio
▁medic
▁Flor
itarios
▁insist
Que
erar
▁retir
▁apropi
▁arras
▁vice
ológicas
▁jud
▁Administración
pin
▁costa
▁priva
▁posee
▁inteligente
quez
▁Esper
▁corresponde
▁famoso
geno
▁Martínez
▁New
▁dios
▁felici
▁imprescindi
zadas
▁repi
jó
▁grad
▁refor
años
▁Daniel
▁inmi
lados
▁relacionadas
grantes
▁Santo
▁campeón
by
bert
▁Central
▁plena
▁cerv
▁Inicio
▁pretende
▁garantía
UR
▁videos
▁concurso
▁propiedades
▁Cámara
▁Ing
▁inqui
▁Fon
itán
enciales
▁emocional
▁visitantes
▁ilusión
▁versiones
▁termina
▁defec
▁Inf
▁virtual
▁gira
▁Ger
▁ine
▁pár
▁difíciles
▁vestido
500
▁Ed
▁Alej
▁jugando
▁cómodo
▁simul
▁llamadas
▁definir
cciones
pto
ille
▁cubrir
AT
▁sufrir
▁pude
▁seguido
▁capítulo
tres
▁creen
estre
▁aportar
▁iban
cura
▁desarrollado
▁corrupción
▁empu
▁Div
▁Depor
▁maestro
▁recomendaciones
duce
caba
▁guitar
▁críticas
▁tomado
cadas
▁Ast
▁Algunas
▁ayudas
hor
▁Bor
▁tratando
ume
▁Pala
▁Parece
▁investigadores
▁Puerto
menta
▁ventana
sivo
▁fl
▁aeropuerto
▁Escuela
▁adicional
abel
▁considerado
▁combinación
▁restaurante
icen
▁cau
▁diseños
▁expresó
arlos
▁dependiendo
stica
▁inversiones
▁Lor
▁entu
▁Dr
▁colum
▁educ
▁perm
▁pronun
▁Fre
▁ponen
▁inmediatamente
ambien
▁convoca
berg
▁equilibrio
▁avance
▁significado
▁prevención
▁representación
▁Jun
▁instruc
▁Edi
lle
▁continúa
▁perdió
▁secretario
presión
▁publicó
zgo
▁Alberto
▁aparición
▁VI
▁entiendo
▁viviendo
▁piernas
▁activo
tesis
tencias
▁Rev
▁́
▁activa
▁graves
▁prote
▁tendencias
▁cariño
▁trabajador
▁esperaba
▁copi
▁Jer
▁campos
izon
▁cercano
aya
▁luchar
▁quede
▁regiones
▁afirm
▁desin
▁listo
▁viento
▁coloc
▁llamó
▁lament
tima
▁gratuita
uma
▁incluido
▁combust
▁tomando
▁entradas
▁llevaba
▁Constitución
▁estarán
▁patr
▁digitales
uyen
tarlo
ridos
▁universo
tt
▁trim
▁informes
itor
▁sopor
▁agencia
▁proporcionar
▁0,
▁puntu
▁arma
▁presentan
▁Hern
US
▁establecido
▁cero
▁triste
▁novia
▁comisión
▁cuánto
icación
dería
▁promover
▁aventura
▁Alex
▁Bur
▁categorías
▁escritor
▁ejército
dígen
▁sugi
▁Neces
▁cambia
osofía
▁quedarse
▁denuncia
▁delito
▁Wi
▁deberán
▁porta
Quién
duras
▁carb
▁sacri
▁Mos
arra
▁efectu
▁decre
▁aj
▁conocidos
▁audiencia
▁automóvil
▁pene
▁45
cerdo
▁Trabaj
▁azúcar
▁militares
bra
ini
lament
▁podéis
▁balón
▁Windows
▁escolar
▁sof
▁colectivo
▁receta
▁cuidar
▁ayudan
IB
▁mostró
▁On
▁libres
▁clasificación
▁cober
órmula
▁prac
af
▁jardín
▁Allí
▁penal
▁inició
▁alemán
sias
▁curi
▁bolsa
cales
▁ataques
▁desay
▁Tanto
▁Ce
▁anuncio
▁forman
ueva
▁ps
▁dominio
▁Rafa
▁bancos
▁venido
▁ingreso
▁Parlamento
▁positiva
parte
▁sonrisa
▁Dirección
▁demostrado
▁fáb
▁definición
ego
▁noches
mun
▁conceptos
ure
▁eléctrica
▁Pri
▁gobernador
▁aparte
▁corta
gué
▁Tec
▁juega
▁ocupa
▁defens
terías
▁Lib
▁pobres
▁incen
▁previsto
▁acá
▁darse
▁básicos
▁Bla
▁Sub
jada
▁relacionado
▁revisión
▁criterios
▁diri
▁Def
▁licencia
▁textos
▁triunfo
Hay
▁componentes
▁suscri
▁mando
▁mapa
▁Leer
▁concur
▁extraño
órdo
▁fenómeno
▁absolutamente
▁manejo
▁Tribunal
ítica
▁firme
▁profundo
▁ausencia
posición
pla
▁acuerdos
▁posiciones
▁tierras
adura
▁abur
▁testimon
▁comentar
▁cuándo
▁ama
▁pil
▁pintura
▁eficiente
▁industrial
▁infancia
▁Fiscal
▁socio
ood
ny
▁lujo
▁Er
▁fantá
▁laborales
▁corriente
▁dices
ef
ráficos
▁agradecer
▁lluvia
▁tendremos
▁cooperación
▁financiera
▁observa
▁literatura
▁consultar
▁Atl
▁alcohol
ciden
▁AD
pular
▁peda
▁Bro
ude
▁llevo
▁privi
▁Comer
▁reserva
rate
▁Aún
timo
art
▁ayudará
▁Secretaría
cara
▁pecho
ertos
alizadas
▁punta
▁chil
▁PSOE
▁recurso
OD
▁Bu
▁difun
▁lla
ruido
▁XI
▁transformación
▁encontrarás
▁corpor
▁realizada
▁venez
▁alquiler
▁expor
▁Va
drán
▁Juegos
▁Univer
▁debo
▁restric
iga
▁aé
▁televis
▁divertido
▁margen
ionales
▁determinado
tara
▁Julio
▁cumpleaños
▁optimi
▁comprob
▁confes
desa
get
▁romper
ajaja
▁Usted
▁Liber
▁permita
▁Departamento
ld
▁vín
▁resuel
▁esque
▁correctamente
ventud
▁basado
▁Nuevo
▁dificultad
IL
▁reloj
▁desgra
▁Dar
▁facilidad
▁gor
pañas
▁descuento
▁Primero
ionado
);
▁Río
▁hosp
▁obligación
▁descubier
▁32
▁fundamentales
▁satisfacción
▁equival
▁fol
▁oficinas
▁autob
▁mexicano
-0
▁usan
migos
▁asc
▁habló
▁evidencia
▁montaña
▁discrim
▁árboles
▁polici
▁Roma
▁haci
▁Mejor
▁reme
oras
Cuál
▁pensamientos
▁ruido
cadores
▁canales
unda
▁cans
IF
▁Padre
▁pared
▁empa
CO
▁candidatos
▁id
▁vital
zcan
▁siguiendo
▁deriv
▁actualización
▁ocurrido
▁Primera
▁Federal
▁ponerse
▁impar
▁afectados
▁consiguió
▁olvi
▁tabla
▁Corte
▁dedicado
▁homen
▁vídeos
▁reper
idu
▁later
▁investigaciones
ficar
▁venezol
▁empie
▁piloto
▁previa
▁mág
▁metro
▁examen
▁ciudadanía
▁AM
▁necesito
▁reacción
▁tiro
▁terminado
▁Aut
ónico
éramos
▁estudiante
▁democrá
▁lectores
▁lector
▁mod
▁extranjero
▁descen
▁letras
▁denomin
gador
▁Gol
vie
▁imaginar
▁Córdo
iosa
▁discusión
▁luces
▁Investi
▁estatu
▁declaró
▁socios
▁caminar
Ten
▁Ka
▁series
▁dejamos
dicos
utas
▁publicar
▁Bri
laterra
▁integración
▁Sch
▁cuello
▁profundidad
▁Mira
▁tensión
▁vuestra
▁oído
izada
aso
▁salvar
▁Costa
▁design
▁4,
▁sacerdo
▁adolescentes
inal
cialmente
up
ganos
▁reh
▁avanzar
▁aprobación
▁Asamblea
▁calend
▁Mad
▁domicilio
▁Serg
▁perjudi
▁agen
▁Museo
▁acor
▁capacidades
depen
▁cuerpos
▁delic
istro
▁factura
▁conclusión
▁masco
▁ansiedad
▁Wal
▁banc
ipe
estión
▁financiación
▁regresar
▁teníamos
yen
▁recuerdos
▁Andrés
▁asuntos
▁millón
▁bajos
▁salido
▁seleccion
▁Sig
▁País
▁mascul
▁Servicio
▁campañas
▁aden
▁ocupar
▁Quizás
▁amenaza
▁reconoce
stos
▁extremo
▁distinto
▁constantemente
▁muebles
▁CE
▁ofen
▁Mel
isa
▁movilidad
▁Algo
▁desas
▁plantilla
Pero
▁vistas
▁Enrique
▁Andalu
▁repetir
▁contamos
▁;
▁raíz
▁espectáculo
PA
▁profesión
▁tranquilidad
▁lesiones
▁hambre
▁procedimientos
ritual
▁habido
▁labora
▁ic
▁ignor
▁Bra
▁rique
80
▁saludable
▁puerto
▁Pens
▁hojas
▁instrumentos
▁empresarial
▁recomendamos
▁vías
▁indígen
▁novedades
▁injust
▁bajas
▁estatal
ómico
▁ánimo
▁paro
▁puente
Des
ju
▁regional
CA
▁tambien
▁Otros
▁depó
▁blanca
▁camin
▁permitió
ting
▁agar
▁Paz
▁reempla
▁Ellos
▁permiso
tificación
▁veía
▁pendiente
▁municipios
▁eficiencia
▁salen
▁conces
▁Existen
xiones
▁numerosos
▁utilización
▁Mujer
▁War
▁aumenta
▁madres
▁plane
▁ahorro
▁Acu
uera
▁abri
▁fuese
▁hablan
▁intensidad
▁6.
▁malos
▁conductor
▁instalar
▁semi
ant
▁diagn
▁podríamos
rana
▁circui
▁Mur
▁polém
dy
▁Inglaterra
▁moral
▁acompañado
terrán
▁conferencia
▁dom
manes
▁Cá
▁Elec
▁manual
▁exceso
apones
icho
▁Cual
▁notas
▁hubiese
TR
▁Federación
▁Van
▁sentencia
▁agric
▁ater
▁protagonistas
▁ascen
▁visual
▁dientes
bla
▁Mundo
erse
▁despa
▁llegando
40
▁esperan
▁mío
▁infraestructura
vias
▁extrem
▁Provin
▁contratos
▁ingredientes
▁cuidados
▁telef
▁restaurantes
▁prevenir
ds
uena
▁Ejecutivo
▁Córdoba
▁Plaza
▁parejas
incu
tol
ferencias
▁judicial
▁absor
▁Cataluña
cro
▁culp
▁trayectoria
▁comodidad
▁recomienda
▁Fal
▁actuaciones
▁char
▁tarjetas
▁empresarios
▁panor
▁integral
▁metodo
??
▁vit
ington
▁cárcel
▁Ál
▁modos
▁compens
▁homenaje
▁transmisión
bur
▁impe
▁pagos
▁Ir
▁impuesto
▁grasa
▁organizar
▁Debido
idación
▁crees
▁Bre
▁concentración
▁especialistas
▁desn
▁Mario
▁2008
▁fib
▁deseas
▁cargos
fal
ólogos
▁fabricación
▁extensión
▁Ima
▁homb
▁hayas
▁culturales
▁pensé
rían
▁periodistas
▁nación
▁conflictos
▁2009
▁econom
▁hoteles
▁específico
▁mencionar
▁realizando
tral
▁avances
▁ubicado
cademia
camos
▁renov
▁Bos
▁dichos
▁plástico
▁europeos
▁cha
▁considerable
▁guardar
▁trae
▁concierto
venciones
▁médica
riel
▁Organización
▁amistad
iforn
▁elaboración
▁absoluto
▁Hospital
▁habitaciones
dador
▁dirigido
▁revisar
vangel
▁requieren
▁gustó
ilo
▁Bea
▁lad
▁sexuales
▁división
imnas
▁cató
▁eléctrico
▁permitido
▁hogares
▁establecimiento
ñez
▁marcar
▁coordin
▁artifici
▁revolución
▁abrazo
▁apareció
tornos
tología
▁claves
▁vuelos
▁manejar
▁franqui
▁Br
▁Char
▁reflexión
▁resumen
▁mejoras
▁lanzar
▁Sé
▁entiende
▁corp
▁Dipu
▁guste
▁vuestro
áticamente
▁encen
▁reconocido
▁efectiva
▁máquinas
▁agregar
▁útiles
licos
▁botel
▁representante
▁proporciona
▁trabajado
onal
▁accesorios
▁Ara
igo
pic
▁anuncios
▁explos
▁discapacidad
▁joy
▁pierde
gano
ites
▁zapatos
▁restos
ídos
▁comenzaron
▁demasi
cán
lico
▁Vil
▁entusias
▁serían
▁plen
▁invent
▁gir
▁siglos
▁apel
▁transmitir
▁encab
▁Vo
cedentes
▁basada
▁celebra
▁caliente
▁Dentro
▁vivido
▁implan
▁figuras
▁horizon
▁raro
▁letra
▁espiritual
▁barato
cioso
▁drogas
▁costes
▁fij
▁paredes
fos
▁súper
▁consta
▁cuantos
▁legislación
▁residencia
▁bras
▁señales
guna
▁cami
▁creatividad
quin
▁saludo
▁excepción
▁interpretación
▁Valle
ución
▁turno
▁iniciativas
▁Tri
sticos
▁orgullos
UU
▁191
hib
▁papá
▁salón
▁dato
▁estric
▁veremos
▁rema
▁antiguos
▁ree
▁diseñado
mal
▁religión
dían
▁liga
▁hecha
▁fueran
▁damos
▁Alejandro
▁Álvar
▁divis
▁conforme
▁Arm
▁Pl
mej
▁independencia
▁pudieron
▁relato
▁educativo
▁nacido
▁apuestas
▁ingles
▁sentimiento
▁completar
▁Nada
▁Play
▁Jim
▁barco
▁numerosas
▁legales
cero
▁cobertura
erda
▁paseo
▁Derechos
pado
rones
▁Oc
▁brindar
▁cayó
▁horario
domin
Le
▁Latina
▁hábitos
▁abrió
▁malas
▁prepara
▁enlaces
▁gracia
▁Em
▁Premio
▁poniendo
▁combate
▁seg
▁dispone
▁Sud
▁explicación
▁Proyec
▁profunda
▁funcionar
▁África
▁invitados
gica
yn
▁dosis
▁contratar
▁operativo
▁intenta
▁sentía
▁gl
cien
▁ruedas
▁rodi
▁€
▁·
▁pareció
▁trimestre
▁encargado
▁conveniente
▁señora
americano
▁acudir
▁400
▁quedaron
▁techo
▁sujeto
▁deportivo
blo
▁Ric
▁retra
▁asumir
▁dulce
▁escoger
resas
LO
▁originales
americana
▁creciendo
▁AC
legios
▁filosofía
itarias
▁frust
▁estadio
▁quiso
▁pasajeros
▁intentando
ulares
III
▁parar
▁Edu
▁competencias
▁conducir
▁usado
ters
▁instante
▁Campe
▁suficientemente
▁financiero
▁magia
▁documentación
▁legisla
▁frases
ortunadamente
MS
▁Audi
▁propa
garse
▁evaluar
▁estabilidad
▁India
medi
▁atractivo
▁básico
denes
▁urban
LA
▁solar
▁Pin
▁produci
▁alf
▁rutina
▁lados
▁felices
▁dedicar
▁CD
fera
▁incom
▁aplica
▁seleccionar
▁interno
▁hablado
▁aguan
alizaciones
▁dueño
▁Profes
▁turistas
cionalidad
▁intercambio
▁Noti
▁conocen
▁permanecer
▁muñ
▁prov
▁plato
▁veter
▁tuvimos
▁192
▁produjo
▁satisfa
▁cen
▁detener
▁doy
▁Medio
▁adicionales
▁arena
▁calendario
▁grados
▁bols
ller
▁Plata
mple
▁menú
▁protec
▁Cur
▁Sim
vela
▁municipales
An
▁Claro
▁lider
▁inspec
▁quisiera
▁emoción
usta
▁federal
▁pelic
Para
grado
ína
▁consideran
▁Tampoco
tz
▁demuestra
-3
▁sentirse
▁enferm
▁iluminación
▁arquitectura
▁coger
▁tratamientos
▁Segunda
▁instrumento
▁manifestó
jera
élulas
?"
▁finalidad
▁provocar
▁haría
▁cm
▁confun
▁desap
▁previo
arle
▁150
▁recoger
▁conocemos
▁estadounidenses
▁Form
sin
▁definitivamente
▁platos
▁relaj
▁electri
▁subra
▁haz
▁portal
▁multitud
▁sumar
▁estima
▁proveedores
▁suficientes
▁basa
▁competición
▁ador
▁Salvador
▁detenido
▁neu
▁temporal
▁(3
▁campeonato
Cuán
▁experto
▁europeo
▁sospech
▁probado
▁particulares
▁Lea
eso
▁Star
▁siga
▁cien
▁pelota
▁suyo
▁Vis
▁cicl
▁apas
▁contag
▁adaptación
mores
▁superiores
vales
▁estuvieron
▁tol
▁abund
▁cog
▁mirando
▁asistir
▁talleres
▁Cambi
▁Fil
▁científico
▁practicar
▁choc
▁organismos
▁mag
tría
▁Consul
▁verlo
amá
▁Municipal
▁bicicleta
▁cirug
▁inn
camiento
▁celular
▁esencia
uría
tógraf
▁criti
uyendo
▁programación
IO
grad
inadas
▁Somos
éticos
▁resultar
▁pensaba
▁bom
▁catálogo
aunque
▁propone
▁hí
▁decide
▁monitor
▁autos
▁diversidad
ándome
▁Dist
▁añadió
▁caminos
garon
▁Net
▁increment
▁producen
acto
▁balance
▁deseos
Sab
▁derrota
▁volv
mado
▁encuesta
cemos
▁respondió
▁finalizar
▁acredi
▁rei
▁sienten
▁Programa
▁cír
DE
▁salario
aremos
Ha
▁seria
▁diga
▁obtuvo
▁paquete
▁Seguro
▁indicar
dri
▁prestig
▁complement
bes
▁agente
▁tranquilo
▁transpor
ísimas
cenas
▁conozco
▁metas
▁Felipe
▁regla
▁cance
▁organizado
rimir
tróleo
▁levantar
▁Estaba
▁imprescindible
Pue
▁vea
▁33
▁hicimos
▁colon
▁sigo
▁referente
▁igualmente
▁Zara
cultad
glesias
▁Tecn
▁EEUU
adal
▁escla
rosoft
▁temprano
▁células
▁delitos
▁beso
▁creó
▁polic
écord
▁docentes
▁planificación
▁retos
▁producido
▁trist
MA
▁Ví
▁harán
▁inmo
▁metal
▁mediados
▁tercero
▁moneda
ritos
▁pag
▁ganador
▁llaman
▁integrantes
▁paciencia
▁silla
ifornia
▁cantidades
-.
▁delici
▁etapas
▁creando
▁verse
ómez
▁financieros
▁asal
▁5,
▁maestros
Po
▁dign
▁insu
▁histórica
vida
▁cuarta
▁entró
▁prioridad
abora
▁sufrido
▁fans
mu
▁quieran
▁cone
▁Bern
▁Díaz
▁poquito
▁apla
▁estándar
▁emocion
▁sindica
cita
▁dedos
▁estancia
sec
▁Sergio
ah
▁estés
▁periódico
▁fuimos
▁Air
▁ende
aman
▁oración
iversario
▁Sigui
▁Parque
tidu
▁limpiar
▁Cultura
▁farma
▁aporta
ager
▁medicamentos
▁7.
▁ox
▁barra
orán
▁Historia
.)
▁gustos
▁asesinato
▁acabado
lix
▁desempeño
▁recientes
▁generaciones
tables
▁Jack
▁org
▁look
▁lanzó
lum
▁Andalucía
▁listas
▁rock
▁invers
▁incu
▁repos
▁vistazo
▁bonita
▁extranjeros
▁configuración
▁app
▁plazas
taje
CE
▁tratado
▁flujo
▁Mag
▁obstá
Mi
▁distrib
▁hubier
▁Ecu
iera
menes
ys
▁comprensión
▁Sistema
▁lógica
▁vivimos
▁Dig
▁japones
▁continua
▁alej
ragón
▁ronda
voz
laga
▁negativo
▁gestionar
▁embar
▁Dra
▁distinta
▁rico
▁esposo
▁rango
▁conectar
uestras
▁sufrió
▁negra
cipe
▁productores
▁Pública
▁cerem
▁convocatoria
▁uniform
▁característica
▁acabó
▁polvo
▁portá
▁vib
▁excu
▁párra
▁Presiden
▁combatir
▁garantiz
dras
▁brillante
60
▁cambió
▁Uruguay
▁tengamos
tedr
▁dejaron
▁brasile
▁ficción
▁llevaron
▁rueda
▁petición
▁Foto
▁existentes
ij
▁totalidad
▁maravilloso
▁veinte
▁incluidos
Nos
▁Europeo
▁Había
▁mínima
▁Covid
rista
▁sól
▁formado
▁Tener
▁enemigo
▁)
colo
▁Microsoft
▁tr
▁cobrar
▁pendientes
▁curiosidad
▁esperamos
▁utilidad
▁agenda
Com
strucción
▁publici
▁tuviera
▁continú
▁What
▁habilidad
▁semil
▁ampliar
▁analiz
▁medir
▁regalos
The
▁importar
▁introducir
▁liderazgo
▁Gómez
▁AL
▁prede
▁dañ
▁Ú
rillo
▁trib
▁hacían
▁bebés
ecé
▁pura
▁pérdidas
▁cena
▁lesión
▁creemos
▁basura
▁Canadá
▁hig
▁normativa
▁unión
▁flex
▁crimen
▁Famil
▁almacenamiento
▁encuentros
▁éstos
▁román
▁vacío
▁diaria
▁difusión
▁afrontar
▁conquist
▁AP
▁rebel
ómica
▁videojuegos
▁individuos
▁teléfonos
▁museo
▁récord
▁ganancias
▁patrimonio
▁medicina
▁expansión
▁estábamos
▁transi
▁famosa
▁brazo
▁afuera
▁Sebas
ónimo
▁ciudadano
▁hermosa
▁Vie
▁instrucciones
▁visu
▁té
▁Lan
▁aprendido
▁desafío
▁í
▁Alcal
▁jeje
▁riqueza
lex
sia
▁orientación
ore
gil
▁héro
anes
▁Tú
▁Tar
▁anci
▁afectar
▁moderno
▁evolu
▁ayudarte
▁oscuro
▁tasas
mina
ócra
▁modificar
▁próximas
cto
▁adquisición
▁sostenible
▁armon
▁impresionante
▁especialista
▁Cul
▁postura
▁conversaciones
▁plas
▁dirigida
▁reciben
▁desarrolla
▁cable
▁fáciles
▁coordinación
▁Nadie
▁cit
▁Ru
▁ecu
▁gastron
▁prestar
▁Rafael
▁puls
▁bailar
▁tap
▁cola
▁Norm
▁test
uicios
ot
▁positivos
▁escapar
▁arries
▁obligaciones
▁funcionan
▁Jose
▁Tienes
▁estructuras
▁ambiental
vidad
▁terceros
▁delincu
taña
▁2018,
ituir
unción
▁diagnóstico
▁mete
tías
▁iguales
▁inconven
▁repeti
▁dirigir
▁Derecho
▁Cel
idaridad
▁curioso
▁circulación
▁llan
▁2007
ser
▁insul
▁abst
ribución
▁venía
▁mostra
▁autonomía
árez
▁Castilla
hacer
▁estando
▁lum
▁cinta
▁primavera
▁individuo
mbolo
▁cerrado
▁soldados
▁Papa
▁Sue
▁sucedió
▁California
ati
▁femin
▁llevará
▁hones
▁Hon
toría
▁recorrer
▁aspi
▁realizadas
▁enemigos
▁idiomas
▁deportes
▁directora
▁apart
▁Portu
▁episodio
▁composición
▁representan
orio
▁petróleo
▁tuvi
▁llevando
▁previamente
▁atraves
lue
▁dipl
▁James
▁Austral
▁contactos
▁responde
▁sober
▁específicos
▁Dise
▁participa
▁negociación
aras
▁marcado
ael
osiciones
▁tác
▁doce
▁frontera
▁posiblemente
▁solucionar
▁preciso
▁2000
▁recordó
lón
▁confirmó
▁carro
▁Servicios
▁dimensiones
▁electrónicos
▁Pu
úcle
▁añade
▁eficacia
▁escritura
BC
▁semej
▁("
▁publicaciones
▁individuales
▁nucle
▁tumb
▁nieve
▁reduci
▁imaginación
certidu
▁discre
▁vueltas
▁europea
▁encontré
12
▁mantienen
clar
▁vestir
opera
ánd
vez
▁revolucion
ugi
▁Paul
▁ópti
▁Ko
▁privacidad
▁siguió
▁interesado
▁órganos
▁gris
▁sobres
▁situado
▁Ke
dias
▁dinámica
▁cristal
▁Latino
▁hagas
bición
▁aust
▁III
▁saga
ze
teriormente
▁absoluta
bor
▁Sociedad
gráfica
▁vel
▁investigar
▁productor
tración
▁conducta
denas
▁Escri
▁estética
▁ejercer
▁paga
▁seguirá
▁vayan
éspe
▁entero
▁mecanismos
ándonos
wer
▁monum
▁capacitación
▁suici
▁inmun
▁descubierto
▁señalar
gulo
▁cómoda
liam
ispo
▁cercana
tilic
▁gimnas
ctur
▁Consi
▁fum
▁fri
▁contribuir
▁suena
▁vál
▁Cara
▁Indust
▁narra
▁discos
rás
▁universidades
▁índice
▁Mir
▁enrique
▁cuch
▁calific
▁temperaturas
leto
▁docente
▁Carmen
▁expresar
▁Hernández
MP
▁march
▁Torre
▁repente
▁ofrecemos
▁Quizá
▁conocía
▁seguimos
abo
▁bille
▁hoja
lantes
▁exclusivamente
▁innov
▁hermoso
▁terrible
▁únicos
▁inflación
▁estuviera
▁fortalecer
▁Ejército
▁incertidu
▁resultó
▁sirven
▁funcionario
▁piscina
▁Sebasti
▁novio
▁mercan
▁científica
▁transición
áticas
▁Virgen
▁gato
▁policías
▁Monte
▁terra
▁pertenece
▁Ph
▁lav
▁novel
▁favoritos
▁cruz
▁Gas
▁publicada
▁personalmente
▁voces
▁mía
▁moderna
▁deje
▁Radio
▁Riv
kin
IP
▁devolver
▁caro
▁recetas
ingü
▁opon
▁introdu
▁Nicol
iten
▁intelectual
▁empleado
▁long
cí
▁inquie
SS
izaciones
iamente
▁Kar
jalá
▁vuelva
▁mand
▁occiden
▁interesados
▁rebaj
▁causar
▁ingresar
amas
▁correg
▁Humanos
erten
▁delantero
isp
UD
▁funcional
▁temor
▁Nación
ement
▁básicas
▁competir
eco
▁órdenes
▁bandas
▁esquina
▁Aquel
▁diría
▁aniversario
▁existir
▁accidentes
▁escribe
▁favorito
tecas
▁line
box
▁hilo
▁anticip
▁criterio
rilla
▁estuve
▁motivación
▁Apren
▁escenas
▁tin
▁Eduardo
tito
▁salto
▁copia
▁trataba
▁empresario
▁discul
▁bosque
CION
▁abandonar
▁disciplina
▁experiment
▁Sala
▁cancha
7%
▁productividad
▁largas
▁conscientes
▁estilos
▁largos
▁impro
orro
▁arru
▁Ricardo
▁alumno
damente
entimiento
▁tenéis
▁Supon
nal
▁sorte
▁aisl
my
▁creciente
▁ocurrir
▁panorama
▁48
▁crema
▁vacuna
▁particularmente
máticos
▁2019,
▁juventud
▁chocola
izan
▁peru
asión
▁fórmula
▁básica
▁asomb
▁elevado
izados
anto
trices
▁Cabe
▁vitam
▁pertene
▁núcle
▁apariencia
▁inoc
cinas
yeron
▁Málaga
▁"¡
▁explotación
▁repercu
▁encabez
ella
▁pongo
▁automáticamente
isos
▁Ari
▁progreso
citos
güen
▁ajuste
▁juven
▁fiel
LE
▁caj
IR
▁sostuvo
▁símbolo
▁precisión
▁respectivamente
▁mencionado
▁Ahí
▁inmediata
viar
eñas
Ah
▁vigente
▁mantuvo
sí
▁Ambi
▁vieron
▁consumidor
mn
▁mila
▁2021
oli
▁mierda
▁reconoció
4%
▁Reyes
▁torm
▁Anti
quido
90
▁refuer
▁gub
▁rumbo
▁específicas
ach
▁Popular
▁impulso
▁potente
▁neum
▁tío
▁2017,
▁poe
▁recaud
▁estadísticas
▁esenciales
▁preguntó
drás
indi
▁implementación
tuario
▁escenarios
udas
▁hidra
3%
▁sombra
▁Descu
▁Christ
▁manipul
ráficas
esía
▁elegante
▁gratuito
▁memor
▁Española
▁Entr
▁jubil
▁salga
▁Información
jeron
▁rel
cones
▁Palacio
▁fracaso
▁RE
▁cirugía
cera
ecían
titudes
▁depresión
▁apete
cienda
orld
▁detectar
▁2016,
▁registrado
▁Código
▁reformas
▁dibujo
▁estuvi
▁arque
▁PD
▁instancia
▁fotógraf
vide
▁relevante
trop
▁contrad
ics
gráfico
▁piensan
▁editorial
ulación
▁exige
▁Santos
▁odio
70
▁Indepen
toño
▁importe
▁documental
▁organiza
▁votar
▁motores
▁pará
▁destacado
▁Doc
▁electrónica
▁pasaba
▁dirigentes
▁pá
▁Michael
▁Tres
▁latino
uca
▁relativamente
▁Fiscalía
reros
▁marcador
▁contratación
▁cae
rey
▁óp
▁claras
▁ego
▁División
▁William
ficio
ashington
▁AN
▁aci
▁asistentes
▁desigual
▁om
▁enviado
gú
▁femenino
eria
Cuando
▁mecanismo
▁diputados
cola
▁descenso
▁XIX
▁depos
▁set
iona
▁constituye
▁inex
▁Ecuador
cismo
▁Cari
▁valoración
▁Frente
▁escog
▁table
▁apo
mica
▁cuyos
▁olor
▁desesper
▁PAR
isco
▁Economía
▁haberse
▁provoca
▁raza
▁virtud
▁Vas
▁8.
▁Isabel
▁eléctricos
▁continuidad
eramente
erador
tumbre
▁aficionados
▁2015,
▁Espíritu
wood
▁Pese
▁Black
▁utilizados
fit
▁pelea
▁deportiva
▁puro
11
▁bandera
▁AR
goza
.[
▁inspiración
▁:)
▁rutas
MI
▁be
▁→
▁glob
▁hol
▁obligado
▁insegu
tipo
▁mó
Quieres
ik
▁gráfico
▁DEL
▁aux
▁embaj
▁físicas
▁intim
▁argumento
▁aer
▁apunta
▁calent
▁desayuno
▁negativa
▁supongo
▁descripción
▁diputado
ecas
▁reduce
▁necesitaba
▁ancho
▁agrí
▁Oro
▁teór
▁clubes
▁compuesto
▁sincer
▁fábrica
2%
▁noctur
▁maquilla
▁reducido
erales
▁Fab
▁Luna
ward
▁mister
▁necesariamente
▁Técn
▁llegamos
▁renta
▁cuarent
Ar
▁pala
▁incent
arro
▁labios
ueble
▁perf
BI
▁Recuerda
▁madri
▁Hen
ernam
▁secu
▁orgullo
▁madru
▁italiano
▁trama
▁verás
▁privadas
▁llor
llo
▁Igual
▁habíamos
▁bac
▁adoptar
▁ricos
▁trascen
▁Cristina
▁Washington
pciones
▁circuito
▁consigo
▁prendas
ísimos
▁amable
▁cafe
▁Ins
▁bin
▁Respecto
▁sabido
▁tela
▁cortar
▁escul
▁Festival
▁traducción
8%
▁templo
▁clasific
▁alcanzó
▁festival
▁inclusión
▁Poco
▁denunci
▁generos
▁reparación
▁Boli
▁Director
▁2020,
▁fabricante
▁cerveza
▁predi
verdad
▁mandato
▁acontecimientos
▁construido
▁huevos
▁vicepres
▁encontraron
▁caras
istos
▁decirle
íncipe
▁Hotel
▁seman
▁deterior
▁lej
▁modern
▁borde
▁repu
▁indispens
▁Tea
ínea
▁tejido
▁habéis
▁vigor
▁das
▁llevamos
▁vivió
▁privados
▁verdaderamente
▁muertes
▁columna
entre
▁aprobado
▁pensamos
▁extin
▁optar
▁sanitaria
gran
éndolo
titu
▁averi
▁plantea
mato
▁vecino
▁orient
dadas
▁específica
▁británico
ránsito
▁muestras
▁guitarra
▁ámbitos
▁poderes
▁asociaciones
▁comprado
▁créditos
▁propietarios
▁jornadas
▁universal
▁tonel
9%
▁capitán
▁Protección
▁proven
▁divor
▁sienta
▁implement
▁aporte
ides
▁adaptar
▁Ciencias
▁electricidad
antil
▁editor
▁Ambos
▁simples
tn
▁acero
6%
▁Voy
▁comunicaciones
▁clínica
▁Saludos
▁contemporán
▁viva
▁Noticias
▁50%
▁reina
▁hijas
▁Cha
▁indígenas
▁educativa
▁francesa
▁mexicanos
▁servidor
inete
americanos
▁vieja
▁Supre
▁traje
iras
▁darte
ald
Cre
▁mundi
▁climático
▁llegará
▁Unidad
▁34
▁mantenerse
▁negociaciones
▁Agencia
▁combina
▁identificación
▁temporadas
▁escucha
▁horarios
▁disfra
,...
▁10.
▁Australia
▁perfección
▁treinta
▁fort
▁Bogo
▁frecuente
▁estaciones
▁Orden
▁retirar
▁muscular
▁hacerle
▁coron
▁permitan
▁incertidumbre
▁Carta
▁experimentar
apia
▁retom
▁arres
▁Apro
▁refleja
▁urbano
15
tle
▁Universi
hab
▁fomentar
▁atac
▁conlle
▁informado
▁congel
▁prolon
▁juguetes
entamente
▁escuchado
▁Colegio
▁propietario
▁pecul
▁QUE
selo
pidez
▁cortes
▁pasaron
bieron
istencia
▁Leon
▁llamados
▁cambiando
▁reún
▁amenazas
iduos
▁Escu
ish
▁acondi
▁2006
▁6,
▁dedicada
..."
▁persi
▁costumbre
▁atrib
Una
▁Oscar
▁limpio
▁roja
▁prestaciones
▁arco
▁comis
▁here
▁Roberto
▁refugi
▁paisaje
▁Asia
▁recomendación
▁tenia
▁solidaridad
▁jugó
▁pudieran
mamente
▁film
▁realizados
▁mexicana
▁supuest
▁recep
▁Será
▁computadora
▁parlament
▁toman
▁naran
▁informar
▁montar
▁recopil
▁renovación
▁éstas
▁basta
▁define
▁abuso
▁Rosa
▁terapia
▁190
▁Rub
▁claridad
▁casti
▁sufren
▁préstamo
▁explicado
▁ubicada
▁valorar
ándola
▁hiper
▁vid
▁sociedades
▁laboratorio
▁Lima
▁Tim
▁fruto
▁rebo
▁quem
▁Excel
▁Metro
▁Evi
▁participó
íes
▁dinám
▁abuela
▁mesas
▁destacan
▁abogados
▁anunciado
ua
▁andar
▁acercar
nado
▁cargar
▁lanzado
▁dibujos
mio
▁camiseta
▁Castro
▁quedo
ight
raba
▁limpia
▁Camp
tiende
▁asust
▁Chi
▁contaminación
precio
▁notar
▁calma
▁cajas
▁vuelven
▁sientes
99
▁separación
▁bau
ges
▁mutu
▁Hacienda
ifi
enz
icios
▁hallar
▁combustible
ans
▁frutas
▁rehabil
▁radi
▁descuentos
▁bebidas
▁percepción
▁obe
▁satisfacer
▁habituales
▁fabricantes
PE
▁impre
▁disponer
▁consideración
chada
▁formal
▁600
eció
▁buscas
▁surge
gantes
▁corpora
izó
▁circular
▁peliculas
▁inmobili
▁hielo
undamente
▁convencer
▁Nie
▁modalidad
▁Zaragoza
tamen
▁rural
gues
▁distrito
▁Bogotá
uación
▁golpes
▁sucedido
▁transcur
▁ejecutar
esen
ñe
▁supo
▁atraer
▁futuros
▁clásicos
▁profundi
▁músculos
▁patrón
▁cuarentena
▁cuantas
▁ejecutivo
▁gastar
▁fascin
▁utilic
▁Oficina
▁maquillaje
ori
Ex
▁excelentes
lite
ciera
▁mm
▁discriminación
▁conservación
▁determinados
▁porqué
▁dep
▁Bon
zones
orden
▁mort
cad
▁heridas
▁intenso
▁có
IG
▁abiertos
gs
túan
tibles
▁bienvenida
▁pata
▁abordar
▁indicado
temp
▁alm
▁Senado
▁añadido
▁desempleo
▁eliminación
▁YouT
▁inyec
imas
▁portu
▁preocupar
▁transparencia
▁fama
▁encantado
▁comidas
▁sensaciones
▁primaria
▁debut
▁Pel
▁gubernam
▁castel
▁loco
▁captu
▁Emil
▁nace
▁parezca
▁señalado
▁obviamente
▁afectado
▁alcanza
▁entrevist
▁espon
▁Casi
▁extraña
▁luna
▁desafíos
▁demon
▁conclusiones
▁apreciar
▁sorprendente
▁SEO
▁epi
jando
▁aceptación
▁empezaron
▁irse
▁alimento
▁sepa
idal
▁Den
▁bron
!,
cher
▁papeles
▁supervi
▁SU
guas
▁mostrado
tano
▁perdiendo
▁gala
▁tarifas
dora
▁longitud
▁piedras
▁Ángeles
▁inteligentes
pié
▁baile
▁Tes
▁órgano
▁flexi
gros
▁mueve
▁aparato
▁playas
úr
FE
▁Cualquier
▁continente
mpli
▁suspensión
dol
▁Comercio
▁sufrimiento
▁Ó
▁registros
▁fallo
▁Nicolás
▁duelo
▁altamente
▁gre
▁reveló
App
▁sufre
▁Portugal
▁Martin
pirar
diar
▁votación
▁Pien
▁empate
▁otoño
▁signos
▁representar
DA
▁civiles
▁Glo
▁contactar
▁impu
▁convenio
▁crítico
▁chi
▁encuentre
stem
▁baratos
ortuna
▁Blanca
▁caballo
▁Produc
ind
▁alojamiento
▁Granada
▁Egi
▁redi
xo
rimas
▁reservas
▁Política
▁conocidas
▁advir
▁Lam
▁poesía
▁extremadamente
tuvieron
▁We
▁Sui
▁asigna
▁logro
▁restricciones
▁contento
▁report
▁(4
▁infección
▁ces
▁respetar
▁acusado
▁autorización
▁implementar
sula
▁reiv
gón
Ya
▁verte
▁cria
oluciones
tirá
▁amo
▁cuota
▁Tenía
▁exhi
▁xD
▁concluyó
▁condu
▁diarios
25
▁previs
▁2018.
turo
▁conducción
▁descarga
▁raíces
▁¡¡
▁One
▁empecé
▁rever
▁humedad
tadura
▁Cont
ónicas
quero
▁Arte
bro
▁ascenso
▁aline
▁exclusiva
▁cristianos
▁quedaba
▁beber
▁Bil
idez
▁Mayor
▁biblioteca
▁cantar
▁YouTube
▁referencias
▁sobrevivir
onces
▁molesti
▁Bolivia
▁coher
▁debió
gnos
▁salas
▁reiter
jería
dea
▁..
▁chino
▁alerta
▁salarios
▁generan
")
▁seguía
▁lento
▁blogs
▁inevi
▁Leg
▁ára
▁IP
▁empiezan
▁automo
▁formulario
▁Resul
étr
▁drama
▁expresa
▁Nor
▁fría
▁controles
▁brinda
▁alcanzado
Pro
▁certificado
▁relacionada
diera
▁cuentos
▁ingen
▁dispuestos
▁corriendo
güenza
▁contaba
iblia
▁emisiones
ídas
▁remon
▁subida
▁provincias
▁Atlético
▁amigas
▁fiscales
cy
▁perse
▁kilos
AB
tive
▁défici
▁IS
▁expuls
▁indican
▁depart
▁cumplen
ormes
OC
▁Peña
▁2014,
▁envió
▁barrios
▁aca
▁(...)
▁aclarar
▁dichas
▁Ramón
▁corporal
▁vínculo
▁nube
▁aviso
▁Nuestros
▁vimos
▁distra
▁garantiza
1%
cab
▁peligroso
▁caball
enciar
▁islas
▁modificación
ariales
▁ideales
ça
▁dependencia
▁show
vol
▁reino
▁interacción
▁verdes
▁subsi
▁famosos
▁líquido
▁tramo
▁Poder
▁obtenido
▁Torres
▁fija
▁chocolate
▁comentado
▁frecuentes
▁confiar
▁sentidos
▁terren
▁resu
▁conciertos
▁presidenta
▁procl
▁solos
▁impulsar
▁cóm
▁(200
irman
▁Fondo
▁argumentos
▁imi
▁ceremonia
▁7,
▁básicamente
▁-¿
▁satisfac
▁Academia
▁asociados
▁top
▁quinto
▁sana
▁hun
▁gatos
▁afectan
▁despren
▁tramp
▁respaldo
▁confort
▁materias
▁parado
▁suministro
▁pusieron
▁aler
▁email
▁reproduc
▁leyenda
▁logo
▁disponibilidad
▁prevent
idado
▁Ayer
▁escrita
▁Energ
▁dedo
▁desh
▁mandar
Ch
▁desgracia
▁pistas
▁viajeros
▁rosa
▁unir
▁despertar
▁lateral
▁deberías
▁prestación
▁párrafo
▁cualidades
▁regul
▁aval
▁comenzado
▁Media
▁nom
▁decidí
▁pertin
daje
▁autobús
▁irá
▁encuentras
▁específicamente
▁Lleg
▁perdón
UC
▁fronteras
▁38
▁ventanas
▁Sar
rección
▁hacerte
▁bomba
▁compet
top
DO
tedral
▁cartel
▁hospitales
▁dele
▁Frank
ben
▁Temp
▁intentó
ier
▁perdon
▁inesper
▁edades
▁futbolista
▁enve
▁2019.
▁Ingeni
▁depósito
▁Cuenta
▁blancos
▁lleve
▁tonos
hua
▁confirmar
▁cultiv
▁Guiller
▁decidieron
▁Alfon
▁misterio
▁65
▁remi
▁Simple
diciones
▁ilegal
▁=
▁signo
cam
▁puse
▁charla
▁comenta
▁Sebastián
way
fun
▁parada
▁españolas
▁vigilancia
▁grabación
▁AS
▁reforzar
▁nub
▁divul
▁abiertas
▁diseñar
ezcan
▁práctico
▁preparados
▁secundaria
▁lógico
▁presupuest
▁espejo
▁Rich
▁visible
▁residuos
▁policial
trocin
▁cartera
▁Esco
▁frag
▁limitado
▁parcial
▁sentado
▁Merce
▁tribu
itco
▁destrucción
▁disposiciones
▁tirar
▁adolescente
▁pasamos
íg
peta
▁surgió
▁modificaciones
▁sueldo
adilla
▁dirige
▁musicales
▁consultas
▁realizaron
▁venden
▁descansar
onso
▁Secretario
▁deberíamos
its
▁aviones
▁quince
▁efectivamente
▁elector
sung
▁amantes
▁Moreno
▁esperado
dares
▁bañ
▁solid
▁consumir
▁mezcl
▁introducción
▁polémica
▁só
▁feste
▁respira
-4
▁compara
▁rechazo
▁antiguas
▁Pra
▁Defensa
▁garantías
▁angust
▁viejos
▁adquier
▁10,
▁testigos
▁dada
▁inmigrantes
▁geog
▁podrías
▁pinta
▁aqui
cena
▁toneladas
érico
▁gravedad
▁once
":
▁grabar
▁precisa
enses
mió
▁vuestros
▁vende
ándote
▁gigante
ímetros
▁Egipto
▁agencias
▁Ren
▁noso
▁devuel
▁desarrollando
▁Corea
ICA
▁autora
ecido
▁creada
▁izquierdo
▁Gabriel
▁encu
▁despla
▁metá
▁relevantes
gr
▁navide
▁dormi
▁tatu
▁gesto
▁Arch
▁Segura
▁ore
▁dimensión
▁ponemos
usto
▁Word
▁labores
sApp
▁suya
▁préstamos
ículo
radores
▁ventil
▁mono
dito
▁Len
▁Gala
▁hipó
▁sentimos
▁testimonio
▁Usu
▁eco
▁hechas
▁37
▁encer
▁ruso
▁estándares
▁durar
▁multiplic
▁horm
▁Sha
▁sonidos
lique
▁independientes
ted
urar
▁monstru
▁elaborar
▁dedica
▁secretos
▁2020.
▁Hal
▁provincial
ling
▁Rock
▁contribuy
eld
▁inclus
▁fla
▁incrementar
yan
▁adaptarse
▁diversión
▁120
▁ofreciendo
▁lág
▁cuadros
▁arreglar
▁interro
▁redac
▁maltra
▁empleos
▁abus
▁ocupación
▁determinada
▁residentes
▁Proyecto
▁educativos
▁consideró
▁Gobern
▁portavoz
umer
ET
▁empezando
▁parto
▁irregular
▁medal
▁pudimos
▁disminuir
▁gustaba
Este
▁Guillermo
chado
énez
▁culmin
▁engan
▁citas
▁maravillosa
▁disminución
quín
▁une
▁Eu
▁CN
▁verti
▁listado
▁naciones
▁Viv
▁Hor
▁disi
▁logros
▁gole
▁conoció
antán
▁males
queta
▁comparar
inó
▁9.
▁decenas
orpora
▁aislamiento
▁refug
▁asiento
▁Pregun
ning
ions
▁Sport
▁2005
▁realizará
▁Autón
ebra
lash
tizar
ox
▁Fun
damos
▁Domingo
▁verá
úblico
▁negros
▁compromisos
mol
▁atacar
▁octa
▁incapa
▁colombiano
▁lim
▁Semana
▁pilotos
▁Raúl
▁LOS
▁volar
▁hablaba
▁hubieran
lero
▁internos
▁afición
▁contado
▁querían
▁adopción
▁proveedor
▁demuest
▁Sp
▁patio
▁piden
▁venga
uirá
eamente
▁Encuent
▁pregunto
▁Americ
tear
▁operar
▁tribunal
Co
▁adjudi
▁Gestión
▁Haz
▁Adri
▁oír
▁parad
▁déficit
▁Angel
▁trami
▁sustancias
▁Guardia
▁casino
▁sentí
▁Marce
▁natur
tinos
cén
▁quedará
terapia
▁peculiar
▁Rosario
▁IV
▁juntas
▁justific
mala
ési
▁Var
▁Madre
enco
▁comienzan
▁|
zaron
▁estreno
▁WhatsApp
▁identi
▁excepto
▁generado
▁acabo
▁interrump
▁enormes
▁conme
▁Bill
▁emble
iduría
▁torre
▁convivencia
▁eno
▁fundación
▁lograron
▁incluida
▁vers
▁montañas
cturas
▁notable
▁patrocin
▁destinos
▁ampliación
jeras
▁madrugada
▁oeste
].
▁colaborar
▁tropas
▁argentina
ván
▁Cin
atía
▁empezado
▁marcó
▁cach
▁transferencia
▁posteriores
▁Estu
▁detención
▁cumplido
▁tuyo
▁fijo
▁George
▁Depen
▁embarazada
▁inicios
▁jugado
▁promete
inan
▁recepción
▁Alonso
▁descubri
▁Hel
▁grue
▁crean
▁Vicente
▁parro
▁recar
▁rivales
▁indicadores
▁utilizada
▁asimismo
▁centrales
▁vencer
▁75
▁decimos
▁institucional
▁afectadas
▁ganando
▁Stor
▁tó
▁2012,
▁dignidad
▁describe
▁profundamente
▁destinado
Estamos
▁Vera
▁tristeza
▁explorar
▁ultra
▁hiciera
▁encuestas
▁espectadores
▁caracteriza
▁precioso
▁Ray
▁conviene
▁bolsillo
▁vestidos
▁creencias
▁campes
▁energías
venta
▁Equi
▁preserv
▁supermer
▁manteniendo
ícula
▁Messi
▁Selección
éndole
▁hier
cripción
▁atribu
▁Compar
▁interfa
▁ONU
▁sat
▁dueños
▁vacunas
▁sujetos
▁tránsito
▁metodología
▁escritorio
▁frutos
▁vivos
oros
▁alber
ificaciones
▁mentira
▁Ken
▁portada
▁incorporación
▁frances
▁cultivo
▁maquin
▁City
▁Disney
▁Bat
▁aventuras
▁ángel
uiz
▁promociones
▁círculo
▁Gil
▁diagnos
▁defien
▁presidencia
▁incons
▁deportivas
▁!
▁judíos
into
▁avanzado
▁Cli
19
▁Claudi
econ
▁Teatro
▁enfoc
▁Reci
▁event
▁che
▁hablo
▁prevé
▁Ira
▁absur
▁encantan
▁Otras
▁Robert
▁Ton
▁tos
▁colegios
▁participaron
▁Contra
▁temática
▁peores
▁Parti
▁aves
▁fortuna
▁Sara
▁habit
▁supera
▁monedas
▁Victoria
▁seas
▁excelencia
▁limitaciones
▁divertida
▁gráficos
▁solicitudes
▁gigantes
▁Cir
▁World
ader
▁pecado
▁Bru
▁demandas
sible
▁regionales
▁costumb
▁inversores
▁decirlo
▁crece
▁ofreció
▁integrar
▁arroz
cista
▁Mexic
▁Víctor
▁arbi
▁vengan
▁Dol
▁inser
▁Público
▁Grecia
▁panel
▁existente
▁Panamá
▁entretenimiento
▁guarda
▁aterri
▁Ib
▁Indi
▁Int
▁Tex
▁desean
▁firmado
▁anuales
ligencia
▁triunf
▁violación
▁musul
▁Investigación
▁Están
▁electro
▁denuncias
▁encontrarse
▁débil
▁convirti
▁legisl
▁2013,
▁entrevistas
▁regulación
200
▁Acción
▁ayudado
▁Cine
igh
▁cura
▁copa
▁postu
urias
▁posesión
▁abuelo
▁ligeramente
licas
▁cubierta
▁recoge
▁incur
▁determinadas
▁artificial
▁hierro
undo
lana
IEN
▁oficio
▁fus
▁recibieron
güedad
Dónde
ámenes
▁desac
ek
zaba
▁oscuridad
▁aconsej
▁verla
▁acompañar
▁falleció
món
▁contando
▁adecuados
▁fibra
▁elaborado
▁vayas
▁desempeñ
▁colegas
▁apreci
▁Sho
▁históricos
▁desaparecer
▁Tre
liz
▁Especial
▁Castillo
▁claros
▁centen
▁rica
▁facilit
TV
▁salieron
▁Bajo
▁descubrimiento
eth
▁estupen
▁republic
▁comand
▁Blog
▁Supongo
▁clásica
▁castillo
▁Todavía
-201
▁Far
▁mantenido
▁decep
▁Aun
▁presupuestos
▁Posteriormente
▁sensible
▁fundament
▁sensibilidad
istán
drome
▁Turismo
▁Guer
▁recurrir
▁hall
▁trabajó
óst
▁Home
ponés
▁vergüenza
▁revistas
▁ferro
▁dólar
▁compartido
aming
▁nosotras
▁cé
▁cercanos
▁pesca
▁Rol
▁infantiles
▁ingeniería
▁intui
▁sorprender
▁construc
▁típico
▁llorar
▁dió
▁indemn
▁Samsung
▁mascar
▁Laura
▁invitación
▁Respon
▁recal
▁afili
▁Patri
▁fortale
▁már
▁sello
▁verduras
▁perpe
▁combinar
▁colaboradores
▁uñas
GO
cristo
▁físicos
▁Inte
▁saque
▁supervis
▁tratan
▁mandatario
▁decirte
▁incorporar
▁negativos
▁mejorando
ets
▁navegación
Pres
▁ira
▁soportar
▁corregir
▁vivía
▁firmas
▁Lee
▁darles
▁conformidad
▁rellen
▁testigo
tus
▁sacó
▁novedad
▁adecuadas
▁dejes
omun
▁perfiles
▁reproducción
▁caído
▁tranquila
▁músicos
▁suple
▁fases
▁Che
▁giro
▁cens
▁entrenar
▁Oh
▁bolsas
▁soledad
▁oficialmente
poner
▁Artes
▁grie
terno
▁registrar
tinas
aves
▁monto
▁Galicia
fru
▁42
▁ester
▁aparatos
▁asent
▁usos
unas
▁elimina
▁comparte
adáver
Como
ders
▁auténtico
▁desaparición
▁encanto
▁Hugo
ógico
▁supuestamente
▁mensual
reza
▁encaj
▁firmar
▁financieras
ésar
▁Mauri
▁sabiendo
esas
▁lanza
▁Junto
▁discutir
▁capítulos
erías
▁Fútbol
▁certe
▁creía
▁coopera
▁55
▁patrones
▁desastre
▁ponga
▁considero
▁agricultura
stal
▁intentado
▁Bay
▁espiritu
▁magist
▁ayudó
▁territorios
▁Utiliz
▁preocupaciones
▁psico
▁reseña
▁éxitos
▁lee
GT
▁Debe
▁pasará
▁ayude
▁facilita
▁reunir
▁Oriente
▁homici
▁escritos
ob
real
ternidad
▁(201
▁plenamente
▁Comunicación
▁incómo
▁cortos
dura
▁Simplemente
▁relevancia
▁diferenci
▁novelas
▁jurídica
▁recin
▁desconocido
▁pidiendo
▁convencido
▁positivas
▁calorías
▁normalidad
▁aman
▁variables
lito
emb
▁Sant
▁cerró
▁protocolo
▁Año
▁leí
▁vege
TM
▁reflexionar
dita
▁Diseño
▁Latinoamérica
▁carbono
▁retorno
▁Blo
▁consegu
ñón
▁casco
▁especializada
▁portátil
▁250
▁culturas
▁inscripción
▁saliendo
señ
▁Biblia
▁gerente
lamos
letos
▁cadáver
▁parámetros
pie
▁plazos
▁montaje
▁Ade
▁Superior
▁aseguran
▁concejal
▁Gro
▁nervios
▁sumamente
▁compradores
otas
▁Cuer
▁poli
▁liberación
▁nombrado
▁pira
win
▁jugada
▁complej
▁fresco
gará
▁efectivos
mago
▁Mercedes
▁Sy
▁normales
▁contener
▁poseen
terias
▁rentabilidad
▁desgas
idra
▁suceder
▁esquema
▁Public
▁Rio
▁horno
▁asesoramiento
▁descubre
rent
▁alarma
▁lámp
▁Macri
▁colectivos
13
▁2017.
QU
▁juris
▁diplom
▁aceler
hal
trado
▁pensiones
▁perj
▁controver
traje
▁navegador
▁femenina
▁Debemos
!"
▁increíbles
▁alemana
acciones
▁zo
decer
▁Alfonso
▁integrado
ív
▁intenciones
sea
▁Fan
guera
▁exager
▁Mara
▁Sta
▁argument
▁Joa
▁dias
▁extrema
▁locura
▁traslado
OP
▁rompi
pel
▁costumbres
▁8,
incl
dulo
▁jueces
▁sorprendió
▁actualizar
▁toler
▁posicionamiento
▁influen
▁adulto
▁maravilla
▁Dicho
▁volverá
▁eva
▁sostiene
▁Franco
▁acomo
▁impedir
▁César
ms
▁presidencial
▁destruir
▁lac
tela
▁cometido
▁interpretar
▁0.
▁jajaja
▁cuadrados
▁dictadura
rena
▁describir
▁medias
▁cálculo
▁industriales
▁revela
▁soñ
▁prin
▁queridos
▁cubre
▁exigir
14
▁aprobó
▁confirmado
▁dolores
▁vean
▁condena
▁defecto
igma
▁gloria
▁Ri
▁dirigente
▁obstáculos
▁Wa
ural
▁especializado
orada
oncesto
▁fruta
▁gafas
▁pañ
▁decreto
▁Buenas
mós
▁rapidez
▁ecos
▁ranking
▁contun
▁domést
límp
▁flexibilidad
cuenta
ordi
Sí
▁sano
▁refiero
▁Tro
UL
▁cadenas
▁Sierra
▁Lucas
▁pico
▁tocó
trina
fu
▁queso
▁popularidad
▁geo
▁visitante
▁provocó
áz
▁componente
vangelio
FA
▁alianza
ku
tube
▁seleccionado
▁participado
▁Gusta
▁refres
▁complemento
eda
▁Rob
hay
▁sabiduría
▁2004
▁Obs
▁juegan
▁cruzar
▁considerada
▁instantán
oya
▁practic
▁envuel
▁manifestaciones
▁trabajamos
▁Olímp
▁indispensable
tti
▁celebró
onía
orado
▁energética
▁Caribe
▁separado
▁Obama
▁feria
gén
▁(5
▁ejemplares
▁fundador
▁académico
ulos
▁significativo
▁declarado
▁poderoso
▁Prob
▁manga
▁800
íe
aros
dom
▁apostar
íz
▁situada
▁excur
tendo
▁ligero
▁Cr
▁quedando
vios
▁madrile
▁sanciones
▁negar
▁Mark
▁caza
ciosa
abuena
▁costado
▁convierten
▁Gri
▁Maes
ódigos
▁colectiva
▁pasta
▁Mayo
▁ocasion
▁trage
▁radical
▁potenciales
▁Guate
cionada
▁enseña
▁10%
▁gasolina
polit
íso
▁terminal
▁pedidos
▁duer
▁excusa
▁apasion
▁automática
▁propuesto
▁lindo
▁Exper
▁lágrimas
▁tarifa
▁tún
▁ron
▁180
▁exámenes
▁Morales
▁poeta
▁entendido
▁Din
▁partícu
▁reen
▁continuó
▁precip
seguida
▁Murcia
abetes
tional
úblic
▁pulgadas
▁Boca
ith
▁secuest
▁bastantes
▁seco
íficas
ford
▁americano
▁intr
▁observación
xy
▁PIB
cú
▁desierto
▁conductores
▁enm
▁rescate
▁ordin
terráneo
▁Rico
▁establecidos
▁codi
▁acorde
▁Miami
ígenes
zi
▁guion
▁remedio
▁HD
▁equivalente
▁turístico
▁catalán
inamiento
▁provis
▁Revolución
▁2011,
ise
queros
▁aerol
▁japonés
▁Loren
cidades
▁chat
▁fortaleza
▁Igna
▁ciencias
gancia
▁Zapa
▁apartamento
▁detenidos
▁complejos
éu
venido
▁atmós
▁Med
cionó
▁vinos
uerta
aré
▁preciosa
▁aprendiendo
Cuáles
▁publica
▁Dom
▁consola
▁fes
▁creativo
▁My
▁tem
▁comisiones
▁moverse
▁poblaciones
▁urgente
▁gimnasio
▁generando
▁cuyas
▁ara
▁abon
16
▁Gan
tarias
▁botella
▁Tour
pones
▁emisión
▁bonos
vada
cran
▁aumentando
▁dedicación
▁voluntarios
▁reparto
▁continuo
▁destacados
▁redon
▁tardes
▁rehabilitación
ueven
▁aumentado
▁asegurado
▁mach
▁Peter
mart
▁rumores
▁LED
▁cuartos
▁inal
▁vocación
▁rodea
▁núcleo
▁comparten
▁estatales
▁contraseña
▁Demo
tándose
▁Ruiz
▁juvenil
ical
▁UR
▁sépti
▁liqu
▁Rica
▁XXI
▁pí
▁episodios
▁manz
dando
▁parale
▁Autor
▁esqui
▁lago
▁conlleva
ADO
▁agrup
▁obtiene
estima
▁batal
▁2016.
▁rup
▁futuras
vimiento
▁Tienen
▁by
kes
▁2010,
▁Ministro
▁intensa
ucristo
▁proyección
▁deberás
▁Canarias
▁litros
▁inmer
▁revi
▁pagan
▁legí
▁entera
flix
▁Realmente
▁pierna
▁cocinar
▁desaparecido
rías
sel
omosex
dicas
▁ensayo
▁creador
18
uertos
▁muro
▁Alic
▁foco
▁bebida
tarán
▁sobresal
▁descubrió
▁nariz
▁enfrenta
▁discur
irch
▁supi
▁Turquía
▁Vida
▁Alba
▁Encon
▁alfomb
▁estableció
▁Marco
RO
▁débi
▁ocio
▁urgencia
▁FC
▁Princip
▁contienen
▁Hacer
▁cuero
▁semillas
▁volante
▁victorias
▁Feder
▁20%
▁sobretodo
áus
▁casualidad
EA
▁camar
▁etiqueta
tega
teos
▁trate
▁reputación
▁39
▁pescado
▁obvio
ult
Mu
▁Irán
▁mascotas
pue
▁Marcos
▁Guadal
▁jab
ila
▁adentro
▁Guatemala
ampions
▁Of
▁reivindi
▁inicialmente
SA
itcoin
▁aparentemente
▁43
eto
▁déci
▁jurado
dista
iciones
iéndose
vist
▁preca
▁Cató
▁llenar
▁Aragón
▁empi
▁mencionó
▁trámite
▁caballos
ép
▁socialista
▁Sigue
▁Gustavo
▁Palab
ings
▁escolares
▁darnos
▁simultán
▁sostener
onedas
yu
▁Fuente
▁League
▁matemáticas
ribunales
▁Amor
▁tecnológico
▁tomo
▁adj
écdo
lace
tines
75
imal
▁culpable
ínas
umb
rosa
▁Raj
piro
▁complicada
▁acaban
▁naranja
▁Isla
▁épocas
dezco
▁encontraban
nia
ositor
▁Donald
:.
▁religiosa
▁únicas
▁correos
radora
▁terrenos
ramiento
▁clan
▁desvent
▁indirec
gico
igan
▁presentaron
▁directiva
▁avanzada
ándolos
▁empezamos
▁profesora
rum
▁Lar
▁concreta
cionistas
Esta
▁crecido
▁ceb
▁extender
▁ape
▁entrenamientos
▁medioambi
IV
ficado
▁Convención
▁piensas
▁peces
▁perdida
▁alturas
▁Stre
▁sirvió
▁pere
dones
▁existía
▁reduc
▁argentinos
▁preocupes
▁actúa
▁verificar
▁papa
▁olvides
▁carreteras
MO
▁castellano
▁restr
▁Berlín
▁Has
mann
▁sar
▁tome
▁galard
éticas
▁Jesucristo
▁audiovis
alición
quita
▁habiendo
róf
▁consiguiente
▁Presu
▁baterías
▁incendio
▁amarillo
▁circunstancia
▁llegaba
▁fijar
▁modernos
▁Castel
▁registró
horabuena
▁hermanas
▁Facultad
▁--
▁mejorado
▁estaremos
▁desarrolló
▁deportivos
▁mensaj
▁Campeonato
▁quinta
▁conoces
▁rasgos
▁necesite
▁migra
▁ministerio
▁Jen
▁cuotas
▁custo
▁entusiasmo
▁protesta
▁sillas
tena
guero
▁mini
▁tocado
sivos
▁dirigió
▁Luz
▁hisp
▁promesa
chu
▁llamaba
▁cinemato
▁pantallas
▁occidental
▁disfrutando
▁huelga
▁sube
▁sintió
▁proporción
?".
▁higiene
▁hec
▁saludables
▁colch
▁semb
▁Pac
▁cali
▁llave
▁auxil
▁suponer
▁experimentado
▁refirió
▁participan
hen
SE
▁Unos
▁salidas
GA
▁lluvias
▁sencillos
▁Interior
▁Barça
▁ayudarán
▁Hijo
▁ducha
urado
▁Rivera
Su
▁especializados
untamente
▁disfruta
▁Auto
▁ética
▁Ignacio
▁operadores
▁probabilidad
▁trámites
▁asegurarse
▁chu
▁guardia
▁considerando
▁inneces
▁44
gol
▁escribiendo
cing
▁justamente
▁pintar
▁talentos
▁talla
stein
▁homosex
▁amante
▁superado
gadores
▁cotidiana
mería
pica
▁certeza
vers
▁Clas
▁pensó
▁preparando
▁pensión
▁Chá
uto
CIA
▁centrar
alizando
▁animación
▁Siguiente
▁Pap
▁pist
▁Sociales
▁rurales
▁vulnerables
▁CR
▁Flores
tita
▁advirtió
ani
▁Const
▁invitado
▁Stu
▁críticos
▁leve
▁saca
ázquez
▁Record
▁2015.
▁artística
▁direcciones
▁auténtica
▁guión
▁Tru
▁captura
ánicos
▁pudiendo
▁trem
▁exce
▁sor
▁pido
uth
▁vicepresidente
▁crimin
▁gráfica
▁deca
▁fieles
▁Igu
▁natal
▁redacción
imp
▁alegro
▁falso
▁emis
▁tapa
▁departamentos
▁impide
▁ajustes
▁acepta
▁consentimiento
▁sitúa
▁aborto
mestre
vaciones
▁europeas
▁robar
▁compleja
▁Sco
▁concluir
▁atmósfera
▁pierdas
▁directivos
▁disparo
▁choque
▁manifestación
▁huesos
sign
▁Dijo
omi
▁Holly
▁instalado
▁explicaciones
▁afric
";
▁Jaime
▁anécdo
▁entran
▁irri
▁pisos
▁gradu
▁monet
tea
▁manio
Esto
▁alemanes
▁resistente
▁dependerá
▁debían
▁capas
▁interfaz
▁veget
▁Digital
▁aula
tanos
▁cón
▁Mauricio
▁obligatorio
▁provocado
▁complejidad
▁Canal
▁Conferencia
▁olvidado
▁habrían
▁Mendo
▁Marta
▁brillo
▁Lorenzo
▁Netflix
▁abar
▁cuarenta
▁sombras
▁enfermos
▁denominado
adir
▁maestra
▁River
▁Nintendo
▁actualizaciones
▁Control
▁limitada
ariado
▁apellido
▁Sabemos
▁pacto
▁sigan
▁mostrando
izas
umas
▁rastre
remo
▁deudas
▁reconocida
▁Ll
▁heridos
▁hueco
▁die
.".
▁cincuenta
▁solitario
▁colonia
inter
▁últimamente
ray
▁curva
▁periodismo
▁Alfre
▁finanzas
▁conexiones
▁creció
cate
▁tecnológica
▁Empez
iosos
▁llevarse
▁bordo
▁sumerg
▁incidencia
▁Mercado
▁Álvarez
▁devolución
-20
▁dejaba
▁2003
95
▁acompaña
ián
▁Pueden
caden
▁box
▁interiores
▁antecedentes
▁relativa
▁ficha
▁manej
TER
▁Ran
▁Mej
▁Bes
▁transforma
▁tradiciones
▁incidente
▁prec
▁retiro
▁decidimos
▁semestre
▁remar
▁delegación
▁sensor
▁alegra
clo
▁Tok
zación
▁mascota
▁escritores
▁ciudadana
cidente
▁buscamos
▁emprendedores
▁siglas
▁narco
▁pion
pio
▁dulces
ander
▁exista
▁Valent
sh
▁servido
▁nad
▁Regl
▁códigos
▁ola
▁cambian
▁accesible
riles
▁misiones
iempo
▁manifiesto
tte
gués
▁supervivencia
▁despues
▁invita
▁afirmar
▁junta
organ
GB
úme
bao
▁excepcional
▁ligera
▁bono
▁vaso
▁acercarse
porque
▁trató
▁autónomos
▁estó
▁Suiza
▁océ
▁tard
▁madu
▁rayos
cible
▁alrededores
▁sacerdote
avi
▁Regional
▁Gir
▁afectada
▁filas
▁adecuadamente
dirá
▁aur
anim
irchner
▁Die
▁odi
▁Guti
▁concretamente
Gra
TC
▁Ambiente
▁decían
work
▁reporte
vic
▁permis
▁protocol
▁parques
▁contestar
▁Podría
▁subió
▁comunicar
▁trucos
▁exigencias
▁organizada
▁sindicatos
isla
▁reacciones
elle
▁alza
inio
▁razonable
▁Chávez
▁fallecido
▁Apo
logos
tios
▁Alto
trans
▁sabéis
▁faltan
cionista
pido
▁jefes
▁externa
▁galle
▁Rena
▁privileg
dirse
▁confirma
▁continuamente
▁británica
▁melo
▁conmo
▁limpi
▁entregó
▁demostró
▁apoya
▁visibilidad
▁invis
▁imagino
▁periódicos
logías
▁termine
▁aprende
▁taba
▁habitualmente
gni
▁Mendoza
ígeno
▁exclusivo
guardia
▁asequi
tander
▁vuestras
▁favorita
▁desarrollan
▁relatos
▁instituto
terio
▁servidores
▁diabetes
▁traspas
▁1.000
▁calcul
▁andalu
▁unido
▁sorprende
▁variar
landia
▁hormi
▁agru
▁humanas
▁9,
▁recre
▁Log
vecha
▁Recuerdo
▁aprovechando
▁Blanco
ímp
lip
▁prioridades
▁hacernos
▁asesino
▁favorable
iebre
▁determinación
▁Port
▁pop
▁iniciado
▁darme
▁actitudes
▁luchando
▁novedos
▁singular
▁identificado
▁automóviles
▁hombros
ividad
▁emprender
▁fantástico
▁automático
▁asociado
▁hipótesis
▁árbi
▁conservar
▁solucion
▁sanitario
▁semifin
▁comité
▁hallaz
▁Max
▁potenciar
▁dioses
▁Agust
▁extremos
▁constitucional
▁resultan
PN
▁recinto
▁Recom
▁Deci
▁esfor
icar
▁bella
▁intentos
▁Mul
olvid
▁pronunci
▁generó
24
▁predomin
▁Diario
▁fuga
cías
▁contraste
▁placa
▁evita
amar
▁alu
▁protestas
▁sacado
ámb
▁transformar
asa
▁pelu
▁acaso
▁variable
▁preferencias
lamente
eck
▁restauración
▁pastel
▁diarias
▁renuncia
▁Sería
▁chav
alizan
▁Marcelo
▁azar
muy
▁presi
dices
17
icana
▁justa
▁tea
2)
▁arreglo
▁espada
▁mecánica
▁flam
ógica
▁semejante
▁faltar
▁entrado
mico
▁estemos
▁conta
▁hable
▁teorías
▁concesión
alla
▁retraso
▁secundarios
▁duros
ricas
▁fraude
chila
▁incluidas
▁centra
▁despre
Fi
▁barro
▁explosión
hum
▁vapor
ledo
Estoy
plan
1)
▁Seguramente
▁sil
▁ER
Mar
▁ácido
▁recibiendo
▁Jiménez
▁Sony
▁Cro
▁someter
▁pantalones
▁planos
▁disfrute
ata
▁Siria
▁concretas
demi
ilan
adi
gaba
▁camión
▁antigüedad
▁trasera
▁nacer
▁huevo
▁armonía
landa
▁autoestima
...,
▁calcular
▁Il
▁atravi
▁simb
▁intervenciones
▁líqu
▁simpli
▁empo
▁sustituir
▁tripul
▁Univers
terial
▁copias
▁motos
▁jurídico
▁definitivo
bri
▁Provincia
▁infi
▁terrorismo
lecomun
vientes
▁".
▁futura
▁bloqueo
▁paisajes
rible
▁Igualmente
▁lentamente
▁conferencias
▁cerrada
▁nuclear
▁insec
▁minimi
▁PARA
▁ediciones
cons
▁presentamos
quillo
▁configurar
ándoles
▁evolucion
▁ret
.»
▁Mol
puestas
▁Champions
▁compañera
▁Públic
▁Eres
▁titulado
▁Sent
▁2008,
▁sustan
▁funcionando
ME
▁lici
melo
▁húme
▁temprana
▁Existe
▁ayuntamiento
▁desarrolladores
▁agrega
gable
▁apuntó
▁duplic
▁presentaciones
colas
▁hidro
▁Hombre
rich
▁persecu
▁directos
oneta
▁Zo
▁bonitas
▁israel
▁causado
▁destro
sticas
uega
▁complicaciones
▁agradecimiento
▁tecnológicos
▁respiración
▁humilde
Ser
quería
ania
▁1000
▁enveje
▁haré
▁abandono
▁destinados
▁rara
▁constituyen
▁negó
▁confusión
▁estómago
▁secciones
atch
toriales
▁encam
▁sugiere
▁Conce
▁semin
▁saltar
▁notific
▁herencia
▁CU
▁Lic
▁llego
▁haremos
gena
▁Abra
▁vidrio
▁menciona
▁bares
▁refugio
▁conversión
dical
▁cierra
▁prosper
▁discí
▁crey
ife
▁rápidos
bimos
▁tienden
▁Probablemente
▁improvis
▁quita
▁llenos
▁culto
crip
▁miel
▁humo
▁condenado
▁Asturias
▁tomaron
py
▁pájar
▁coj
▁proviene
▁ocupado
▁Pie
▁sacrificio
▁tragedia
▁enfermo
▁china
pedia
ulsión
mm
▁coloca
▁renunciar
▁paquetes
▁calificación
▁respecta
▁uniforme
▁héroe
▁prefieren
ls
▁ida
▁Deber
▁detección
▁into
▁averiguar
▁automa
▁encuentren
▁LE
▁64
▁Jefe
▁Chica
▁urbana
uez
▁inferiores
▁caz
ésped
dada
anal
▁directores
▁credi
▁Natural
▁oral
▁regresó
▁reseñas
▁sanción
▁aportan
tez
dere
▁obligados
▁merecen
vierte
▁ADN
▁extraordinario
▁Us
ándalo
▁Espa
cientemente
▁ampliamente
▁conduce
▁significativa
ítulo
▁armario
▁falla
▁portero
▁lleguen
▁Sky
▁tejidos
▁caminando
▁encarga
▁noble
kers
▁Suárez
▁terminan
▁celebrado
▁Presidencia
grafi
arización
▁sistem
tipos
▁Florida
▁Deportivo
▁UU
▁188
▁engañ
▁proteínas
▁teclado
bano
▁negociar
▁remun
▁negoci
▁click
▁negativas
▁Romero
▁ingeniero
▁Rajoy
ínsula
▁Vale
▁realice
▁Hollywood
▁banca
▁prestigio
▁calzado
▁bis
Ma
▁mediano
izos
▁orque
▁30%
-5
delidad
▁Atención
▁Normalmente
▁perspectivas
▁realizarse
EP
gina
▁comienzos
tablemente
▁you
▁Vuel
▁falsa
▁cristiana
▁neumáticos
▁conectado
▁músico
licidad
▁Mariano
▁Oficial
▁POR
▁autop
▁citado
uimos
▁suman
▁Bás
▁Quien
fitri
▁artístico
▁hectá
▁titulares
▁propuso
mbolos
▁reflejo
▁Eli
▁tamaños
▁uruguay
▁psicología
▁restring
iler
aduras
▁ríos
▁Recor
▁Ramos
▁psi
▁externos
▁aprue
dest
▁Stan
▁Jean
▁ramas
ENT
itamos
▁adapta
▁químicos
▁crip
▁satisfecho
▁despacho
▁Estudios
▁iOS
larse
▁2009,
▁Richard
▁link
cron
▁presion
fia
ÍA
▁orígenes
▁confinamiento
▁desvi
olas
▁inseguridad
▁tesis
▁diseñador
▁confec
▁buscador
▁Exp
▁ensayos
▁caos
▁constantes
ucturas
▁consenso
▁otorga
▁Human
▁agil
▁segmento
▁ambientales
uses
▁Reina
▁prece
▁dur
▁Ki
▁Coment
▁integridad
tuoso
hesión
▁colabora
▁tormenta
▁Libro
▁expresiones
▁lección
▁Imperio
lán
▁pertenecen
▁reír
▁aliados
▁relativo
▁eléctricas
▁unidos
▁Comen
▁llegué
▁Pay
▁prefiero
ajara
▁transparente
dario
▁mínimos
▁oxígeno
▁funcione
▁Sea
▁terremo
▁inflam
▁continúan
▁firmó
▁permitiendo
▁jardines
▁investigador
▁bloques
▁Parte
italización
ath
▁King
▁Tratado
jón
▁partículas
▁vendido
"...
▁estudiando
tentes
ceta
▁cro
▁castigo
▁corazones
▁trajo
írez
▁encontrará
▁Rodri
▁pagado
▁compres
▁franquicia
▁bode
▁ajustar
▁renovar
▁blancas
xa
▁Reglamento
▁Bi
▁desperdi
▁sorteo
▁espacial
▁Sos
▁brutal
istemas
▁rincón
▁compatible
▁Bilbao
▁Santander
▁Marina
▁sorpresas
▁anunciar
▁Fuerza
▁conjunta
▁Judi
▁tiende
▁salsa
▁optimizar
▁funda
▁baloncesto
65
▁facul
▁compuesta
▁dejarlo
▁localizar
▁palacio
▁encantó
▁PRO
pada
▁brasileño
▁proceder
ólico
▁feder
▁géneros
▁Acuerdo
▁efectividad
▁subs
-19,
▁Debes
▁refugiados
▁tablas
▁bosques
ví
tuar
▁inolvid
▁fantasía
▁cometer
▁retor
mbres
▁Industri
▁favorecer
▁ganadores
▁Esos
▁pega
▁electorales
▁barcos
▁escaleras
▁agro
▁palo
▁envía
▁derra
▁contempla
▁atractivos
▁plantel
▁Baj
▁2002
culas
▁comunica
▁costó
▁contentos
▁Familia
▁anex
▁mundiales
▁Trad
▁olvido
▁transfer
35
▁provech
▁formó
▁pollo
▁aprobar
▁Rog
▁foros
▁elevada
▁saté
▁darán
▁Leo
▁presentarse
óloga
▁tira
▁sangu
ji
▁publicados
▁189
▁tron
▁estamp
▁2001
▁permanece
▁Independiente
▁captar
▁leo
mith
▁príncipe
▁huella
▁Xbox
▁porno
▁poderosa
adu
▁ONG
▁asistente
▁funcionalidad
▁Ub
TU
▁imponer
olla
▁gastronomía
▁Conven
Press
ótica
▁bodas
▁2014.
▁valle
▁tratados
▁cumplió
▁Habana
▁adquirido
▁exitosa
pensa
▁llamo
▁trabajaba
▁histori
▁terraza
chan
▁pru
▁sugerencias
▁indign
▁mide
▁química
uerte
▁sobr
▁miedos
▁manifiesta
inando
▁formatos
ness
▁nervioso
▁deportistas
▁cumpliendo
▁sencillas
▁logrando
▁ayudando
▁Diputados
▁Ramírez
▁hombro
▁aluminio
▁diseñadores
▁mención
▁Ford
▁Mesa
▁externo
▁000
▁enfrentarse
cks
▁aumentó
▁entregado
▁milit
▁distinguir
▁Primer
▁avenida
▁jaj
-19.
fecto
▁asesinado
▁Álvaro
▁Ref
▁vendedor
órico
▁alegre
▁centímetros
▁virtuales
gura
▁demuestran
▁bola
▁decora
▁enfrentan
▁>>
▁colap
▁cron
▁sofist
▁Mujeres
▁zapatillas
▁lenguas
▁quedé
▁protagonismo
▁santo
▁queb
▁Colo
▁ruptura
ómicas
érrez
▁senador
▁mapas
▁Queremos
▁certificación
▁Tel
▁duró
lecomunicaciones
▁definido
▁hacerme
usas
▁crónica
▁solicitado
▁presentada
▁concili
tadora
.:
▁Oli
▁Irlanda
▁arquitecto
▁pez
▁All
▁masiva
▁anfitri
▁acoso
▁rusa
▁roto
▁magnitud
▁Navarra
▁daban
▁Apar
▁herida
▁constancia
quién
▁botas
▁Ciencia
▁Iglesias
▁Capital
▁legado
ensor
▁etiquetas
▁cosm
▁Región
6)
▁surgen
▁diariamente
▁dejen
▁evitando
▁intern
▁grabado
▁disper
▁ordenó
▁flexible
▁Dado
▁acompañada
▁gay
▁mochila
▁extraordinaria
▁quedamos
▁medición
▁percibir
▁comedor
▁masas
▁compartió
▁XVI
▁loca
▁basados
▁dejará
▁masaje
▁masculino
▁asientos
▁sanitarios
▁700
telo
cruz
▁veterin
▁industrias
lid
▁ME
▁protocolos
▁Harry
▁anillo
▁inú
▁desplie
unidad
▁cú
tén
▁rid
100
field
▁guerras
▁contará
▁bande
▁defectos
▁Blue
pulos
▁daría
tau
▁sexto
▁agresión
áser
▁convencional
▁risa
▁Gonz
▁cintur
▁aco
fasis
▁decorar
▁Alianza
▁cigar
▁recogida
▁conserva
▁símbolos
▁prostitu
valuación
▁sorprendido
▁Grande
tañas
fra
▁molesta
▁indu
utiliz
dro
tiemp
▁cercanas
laron
mita
▁contribución
▁Alguien
▁consiguen
▁transport
▁conocí
▁Distrito
▁escándalo
▁deseado
ensos
teria
ASA
▁Teresa
▁formando
▁vs
▁Foro
▁maquinaria
Hola
pados
▁encargada
▁eng
▁volvieron
▁favoritas
▁Gutiérrez
▁llevarlo
amarca
▁Paraguay
▁inmensa
▁trading
▁aje
▁rompe
▁Datos
▁Cuar
▁Local
▁chinos
▁pasados
▁Rela
▁estimul
▁empresariales
▁exportaciones
▁informaciones
▁espectador
▁procesamiento
▁cement
▁Deportes
▁sufri
▁botones
▁inmueble
▁Bene
▁expuesto
arita
▁Formación
▁Penal
versión
▁play
anti
▁vigencia
▁droga
▁murieron
▁Inno
▁acogida
▁revés
▁sofá
▁supuestos
▁propici
▁leal
▁problemática
▁←
cionario
▁Señora
▁Español
▁sp
▁iglesias
▁infecciones
▁mensuales
Hab
▁én
▁franceses
▁ponía
▁educativas
▁armado
ciende
▁futbolistas
gri
▁Joaquín
▁piz
▁tercio
▁baños
▁religioso
▁sh
ENTE
▁reglamento
érpre
▁Cádiz
▁Cort
▁abusos
▁Energía
▁Deja
▁crímenes
▁arrep
omen
▁cruel
▁Rodrigo
▁activar
▁lucir
▁buscaba
▁hard
▁Tiempo
▁mezclar
▁mágico
▁transacciones
▁Esperamos
▁competitividad
izadas
▁sientan
ituido
▁minor
▁suyos
▁ciertamente
▁sinies
▁frenar
▁Dich
▁hamb
▁comunicarse
▁80%
idi
▁refrig
▁vera
▁tuya
▁optim
▁prohib
íneas
▁elige
▁derivados
▁fila
▁avanza
▁desigualdad
▁cabec
▁fotógrafo
▁judiciales
▁Hubo
▁patas
▁PER
▁fur
▁fusión
▁ocurra
▁Autónoma
oxid
▁webs
vante
▁explican
▁Compañ
rese
▁concer
enio
???
▁Sac
▁Roja
bita
▁Roy
▁Dé
andra
▁elog
▁cubano
▁filtro
▁mante
▁nutrientes
▁Bet
iemb
▁digno
▁avanzando
▁presta
▁queden
▁indicador
▁énfasis
▁salía
ester
▁atracción
ladolid
culares
▁supervisión
▁Op
▁ejemplar
▁juzgar
▁hacerla
rería
▁algor
Estás
▁trayecto
▁enseguida
▁pastor
▁Sra
▁desagrad
▁Vin
▁nacionalidad
cesión
nidad
▁muere
uya
▁equipamiento
hop
▁Repres
chil
CU
▁Suecia
▁abandonado
▁Pho
▁vá
▁camina
▁Azul
aco
▁sostenibilidad
▁haberlo
▁Bio
▁respirar
▁localidades
ICO
▁Disfru
▁millon
▁Inici
▁inevitable
▁utilizadas
▁sepas
▁Moscú
▁cogni
▁productivo
mate
▁Aparte
▁Iván
▁PN
▁rea
▁Mana
▁llevas
45
acen
▁obses
▁literalmente
▁Elena
rie
▁Inglés
▁creí
rico
anta
▁Ronal
21
▁comportamientos
dula
▁pesado
▁tax
▁seno
▁cobra
▁Guadalajara
dadores
▁dorm
▁obtenidos
dge
▁resaltar
▁informática
▁procedentes
▁12,
▁Big
▁46
IDAD
▁desee
▁TOD
▁vacunación
▁debu
▁prej
illones
▁camas
▁deciden
▁bronce
▁divorcio
Son
▁pautas
▁prohibición
▁bebe
▁creadores
▁Ern
▁Provincial
low
▁Cuatro
▁DI
ísmo
▁sobra
▁porte
▁pierden
▁WordPress
▁ensal
▁AF
▁idón
▁utilizó
▁neur
▁listos
ux
▁hero
▁tour
back
▁ratific
▁hola
▁estú
▁Dal
▁Comis
▁12.
▁quejas
fonía
ñones
▁salvación
▁administrar
▁Maduro
▁distancias
▁salva
▁inconvenientes
▁tendrían
▁robot
▁frontal
tían
▁consejero
mejor
▁concej
▁acompañamiento
▁Desta
amora
▁broma
tto
▁abuelos
▁Obrador
▁paral
▁partidas
▁yoga
▁Promo
ep
mel
▁camiones
▁fanáticos
▁bala
▁encuest
▁Puebla
cería
▁energético
▁católica
▁quiénes
sab
▁nubes
▁oscura
▁mito
IFA
▁Hy
▁Tecnología
cker
▁Herrera
▁enfati
▁proponer
▁gritos
▁Post
Tu
▁requisito
▁asum
▁11.
GR
▁diseñada
Buen
▁ancianos
▁Calle
▁Segui
▁financiamiento
restre
ecos
▁denomina
▁expediente
▁Coo
▁anima
▁ing
Cuánto
ervan
▁Empleo
▁relojes
▁tomamos
▁necesites
▁señalan
▁tribunales
▁cultivos
▁atractiva
▁Boy
▁vertical
▁cómp
▁atento
▁carpeta
▁icono
▁reservar
▁mix
pula
▁cie
▁usarlo
▁puta
▁Obviamente
▁IVA
▁gubernamentales
▁gases
▁agricul
▁did
▁47
▁Cultural
mó
▁apres
▁compor
pón
▁ayuden
▁trenes
▁serlo
▁CV
▁limitar
▁corresponden
▁Defin
iosas
▁logran
▁tenis
trico
▁navegar
mpl
▁exponer
▁calef
▁tribut
▁ocultar
▁levantó
también
▁procede
▁glu
▁duele
ugh
▁Nex
▁sustancia
▁Park
▁corrientes
▁Villar
▁procu
▁trastornos
bus
▁digan
▁cumpla
ficios
ator
▁consag
▁iniciales
▁seca
▁SO
▁digamos
baciones
▁guapa
▁culo
▁nomin
▁Fra
▁besti
▁explí
dulos
▁anoche
▁Comple
▁Biblio
▁comedia
▁Estás
▁obes
diós
▁barreras
▁resol
▁manchas
TS
▁preparada
▁supl
7)
▁Medicina
▁devo
▁meditación
quetas
▁algodón
▁previos
reto
ellos
▁Católica
▁tomas
▁referentes
▁diré
▁bombar
pren
gramas
8)
3)
▁duras
Bo
▁vil
▁síndrome
▁Mucho
Está
▁religiosas
▁cruce
▁Alma
▁estabil
▁migrantes
usieron
▁preval
▁proclam
▁Gener
▁besos
▁aceptado
▁Aten
▁Alta
▁universitarios
▁personalizado
gante
▁saldrá
▁constitución
▁Toledo
▁saco
▁extensa
▁creativa
▁Marketing
▁intérpre
vá
▁temb
▁textura
▁Registro
▁competitivo
▁debilidad
céu
▁SS
▁lavar
▁Tig
▁limita
▁Texas
▁lenta
▁exqui
▁estabas
▁diseñados
istente
▁candidatura
▁contradic
▁internas
▁escuchando
▁físicamente
▁entornos
▁rodean
▁finalizó
▁exposiciones
▁Már
▁permisos
▁minerales
▁prohibido
▁lecciones
▁Yu
▁musica
▁intentan
▁lavado
▁USB
▁apropiado
▁binarias
▁core
▁yendo
▁trastorno
émon
▁defensor
▁interv
▁Precis
▁Feria
usal
▁públicamente
▁promesas
▁vínculos
▁creencia
▁prevista
▁láp
▁52
▁vitamina
▁Tab
▁ministra
▁ordenadores
▁complementos
▁bail
▁navidad
▁prefiere
▁th
ganda
▁fenómenos
▁verdaderos
▁gab
▁retirada
▁BM
▁Quin
▁irán
quilib
▁afirman
▁Estra
▁mur
▁guías
▁emplear
▁querida
▁acondicionado
▁conforman
▁petrol
▁rentable
▁típica
▁estrecha
▁incumpli
▁saludos
▁separa
▁algorit
▁Thomas
▁insta
▁tardar
▁mama
ADA
dam
▁sólida
▁stre
▁deshacer
▁triple
▁bancaria
tase
▁cansan
▁cómodos
▁coalición
▁mostramos
▁mural
ther
▁hectáreas
▁contemplar
▁capitalismo
▁Confi
▁2007,
▁licencias
▁determina
dem
▁meteor
▁reconocidos
▁plantear
▁Fuerzas
▁fumar
▁NBA
rillos
CH
fac
Ahora
▁Tomás
▁emitir
▁joyas
▁canto
▁seamos
orra
▁Jam
▁Ul
▁adolescencia
▁griego
ñoz
▁aportación
▁tenerlo
▁enmar
▁asegú
▁motiva
▁perdieron
—.
átil
▁cenar
gers
▁comprende
▁comercios
▁Zel
▁Valladolid
▁museos
▁recordado
▁queréis
▁compré
person
scar
▁concepción
▁Pes
▁concretos
Tienes
▁surgir
▁religiosos
▁basadas
▁pagando
ómicos
▁espectaculares
▁CF
▁egi
▁Cat
▁Street
zamos
▁operador
▁italiana
▁japonesa
▁didác
▁subje
▁premis
▁bicicletas
▁contagi
▁usados
▁molde
élgica
▁criminal
uerzo
▁dirigidos
▁galería
caso
uli
▁intimidad
▁preguntado
▁llegas
▁repas
úsica
▁estir
hía
▁Psic
▁períodos
85
▁Isa
—,
▁transmite
▁jubilación
▁pegar
▁pales
▁dol
▁denunciar
▁venezolano
▁cuerda
▁planteado
▁''
cientos
▁Asuntos
▁2012.
▁grasas
▁árabe
▁chileno
uj
▁data
ladas
▁lecturas
▁imperio
▁láser
▁Podr
▁Brus
▁estal
▁recibirá
▁aqué
▁descom
▁disponen
▁equivocado
úmenes
éctor
▁LAS
▁Lis
▁volviendo
▁recomendado
▁pones
semos
▁traves
▁Argent
▁apetece
ísica
dolfo
jate
▁solicitó
▁ocurren
▁puntuación
▁derrib
▁búsquedas
▁difundir
ali
▁deses
▁Crea
▁señores
▁Doctor
nar
▁concluye
Sabes
▁mega
▁mencionados
tter
xia
▁traído
▁aulas
▁verán
▁dedicó
▁acusaciones
▁Pueblo
▁videojuego
jados
▁pares
▁gros
▁primi
éndome
cosa
▁horizonte
toras
▁anda
gio
▁Resulta
Gracias
▁Justo
▁pasear
pita
▁profundizar
▁deterioro
▁considerados
▁Phil
▁Continu
▁Legisla
▁dudes
▁Ide
▁bolso
▁Campo
▁ubica
▁onda
▁dependen
▁inmigración
▁metido
▁motoci
▁policiales
▁decan
▁aprobada
▁angustia
▁Eva
▁CA
tarte
▁Movimiento
rác
▁abaste
urgo
▁desconec
▁preocupado
▁monte
▁comerciantes
ueba
▁Empresa
▁pasadas
▁USA
▁Muñoz
ciados
▁exteriores
▁criptom
▁terroristas
▁Ciudadanos
▁probabilidades
▁Gén
▁fiebre
▁desactiv
ólica
▁varia
▁inda
▁Fueron
▁alb
iense
ecemos
dela
▁académica
▁analiza
ross
▁insign
▁estarás
▁Guerrero
)..
▁enseñanzas
▁brecha
▁Ele
▁disputa
▁sólido
ñal
▁fallecimiento
▁sindical
▁inconveniente
▁herido
rimonio
▁estáis
Todo
ding
▁Eje
cuer
▁buscado
▁Paso
▁Joe
▁tortu
▁Pilar
▁ponerle
▁Galaxy
randa
▁autent
▁Medel
▁solía
▁incorrec
▁Gin
▁fuertemente
pias
▁admitir
▁reyes
▁jejeje
▁Mora
▁Corona
▁tratarse
pone
▁muchísimas
ivi
▁FIFA
▁Í
▁confirmación
▁mediodía
▁densidad
▁economías
▁far
opol
vila
iblemente
▁danza
df
▁Spa
▁fallos
unar
▁escribo
▁recomien
▁localización
▁cargas
▁ingenieros
cesis
▁obispo
▁filtros
▁alimentar
▁unirse
ositores
▁Alfredo
▁Hit
▁afirmación
▁dejé
▁Agustín
▁inclusive
▁cristiano
▁egip
▁exacta
▁tabaco
PR
▁formada
▁Descar
▁declarar
▁desafi
éndonos
▁nó
▁barrera
▁Recono
▁CEO
lanos
▁recompensa
biliario
▁flota
Rec
▁Carolina
▁libremente
▁arranque
▁acostumbrados
▁crucial
▁resulte
▁azules
▁nombrar
ecut
▁rojos
▁Héctor
▁anuncia
▁malestar
▁orgulloso
▁enfrentamiento
▁agrícola
▁reclamar
▁legi
▁divertir
▁justificar
▁demócra
▁llamas
▁obtención
▁telefónica
▁och
▁pinturas
▁sufriendo
?",
▁especialidad
▁cercanía
dijo
guard
tibilidad
alim
▁Ingeniería
entados
▁ángulo
enciado
▁Torn
-6
▁deseamos
▁falsas
▁patria
▁desplazamiento
Mo
▁Vega
▁hered
▁entendimiento
▁sirva
▁vecin
▁surgi
▁Felici
Pre
▁mentir
▁piano
▁sabían
ificados
▁Maria
dé
▁incendios
▁acercó
▁huir
▁despo
▁comprometido
abell
quera
▁medie
▁borrar
▁recip
▁queja
▁inspección
▁Estre
▁llaves
▁consiguiendo
▁cortas
▁Extre
▁persecución
▁Alicante
▁trasladado
▁ocupan
▁chan
▁mantenga
▁supuesta
▁íbamos
▁reconstrucción
▁extiende
▁corrup
▁Vel
▁Relaciones
▁Juego
▁horror
▁esperanzas
▁Jane
▁emocionante
▁hiciste
▁Sw
▁represión
▁originalmente
▁cansado
▁2013.
▁Supremo
▁Mem
So
▁horrible
▁Atlán
▁sencillamente
▁SI
▁Libre
▁rodilla
▁subiendo
▁proporcionan
moh
▁observaciones
▁secuencia
▁LO
usk
▁exportación
eban
ique
▁ruidos
▁Pacífico
Tra
▁dándole
dentemente
▁40%
▁Motor
▁sensa
▁incorpora
▁alas
▁mostraron
▁cubierto
▁cables
▁truco
▁advierte
biera
▁pelear
cá
▁exha
▁eficaces
▁demor
▁Chicago
▁arrancar
▁Ojalá
▁emprendimiento
direc
fri
▁olímp
▁asimil
▁medalla
▁burbu
▁subido
▁trasero
▁West
▁presos
▁emprendedor
▁integra
▁Adi
▁Xia
23
▁princesa
▁cobre
▁consolid
▁administrativo
▁encantaría
bs
▁cima
▁Integ
ónicos
▁TR
▁Sanidad
▁famosas
▁seguirán
▁Honduras
▁declara
▁bonitos
▁despro
aby
▁mentales
▁prácticos
▁virtudes
bloque
▁vaca
fol
▁ganan
▁inest
sable
▁rodeado
▁torneos
▁auric
ule
▁Bélgica
timas
▁administrativa
▁estro
▁reunió
▁EX
ótico
▁idén
▁sacu
▁Verde
▁Pág
▁Estatal
▁exitoso
istía
▁preferencia
▁inac
▁inglesa
▁Termin
▁dedican
celes
▁festiv
chester
▁sonre
800
▁Recur
▁;)
▁imprimir
▁turísticos
▁mentalidad
▁errón
▁causó
▁aguantar
formación
▁maíz
ampa
▁Octubre
▁Efec
▁Pascu
▁denunció
▁billetes
▁soport
▁Nicara
▁49
▁efectuar
▁primas
▁despleg
encialmente
▁milagro
▁atentos
▁intermedi
▁personalizada
▁establecidas
▁aroma
▁agujero
▁almas
▁Mary
▁Medina
▁corredores
▁dispuesta
▁187
▁delincuentes
▁Fuentes
▁11,
▁Smith
▁conductas
▁hem
▁sovi
4)
▁servirá
▁rigu
▁vestuario
▁operativos
▁detalló
▁integrada
ítico
▁bil
dure
trica
hí
elli
▁sincron
▁Charles
▁recta
▁cerrados
▁Entrada
▁reemplazar
▁entienden
▁debates
▁llenas
▁impi
izando
▁72
▁Islas
▁plus
▁Sitio
▁barata
Per
▁compensación
▁Agua
▁Art
Pa
▁corredor
▁poema
▁prenda
▁cumplan
▁encargados
▁Sun
▁molestias
zarse
▁reproducir
▁evidentemente
quidad
▁Bara
▁Silva
▁Nu
cuando
▁Bob
lorca
▁saldo
tock
▁busque
press
"?
▁atras
▁despedida
▁Polonia
▁anto
▁contagios
▁frecuentemente
▁financiar
▁registrados
▁valioso
▁exclusión
▁propósitos
▁PA
▁veas
Tenemos
TAN
▁contrar
▁Arturo
▁prisa
▁rodillas
▁espontán
▁Jerusal
clas
zu
▁pad
▁afortun
▁ejecut
▁periodos
▁Negro
▁alumnado
▁Nar
▁metab
▁estratégico
▁rama
tizado
▁sacerdotes
Eso
DI
▁perjuicio
gulares
estructura
▁Fac
▁contenta
▁débiles
▁41
▁ofrecido
▁rápidas
tone
▁pánico
▁Añ
▁Edad
▁editar
▁comenzará
▁facturas
▁Esas
▁penas
▁aceptó
▁comprador
▁planificar
bie
▁bello
▁conmemor
▁híb
▁Olímpicos
▁Ofre
▁contribuye
▁agradezco
▁cláus
▁pagina
▁roj
▁sofistic
▁lingü
▁Ado
▁mundos
▁pases
inux
▁recortes
▁fundada
▁ideología
Quer
▁tomada
▁otorgar
▁embal
▁campamento
▁espaldas
gam
▁sepan
▁obesidad
▁Bretaña
▁hábito
▁sustent
▁Green
tancia
▁Donde
IDA
▁democrática
▁Pub
▁estuvimos
▁Ortega
▁respectivos
▁ciber
▁Oa
▁orto
▁Calder
▁despido
▁fachada
▁testimonios
grafo
▁(6
▁tía
300
▁bacterias
▁entendemos
Ver
VD
▁Dice
▁Buena
▁extraer
▁involucrados
ZA
ast
▁permanencia
chill
▁Educa
▁cardía
uch
▁gratuitos
well
▁requerimientos
▁ministros
Creo
▁solas
▁deberes
▁veinti
UM
▁prision
óso
▁harina
▁gestos
▁centrado
▁Sabes
▁ademas
▁ambul
▁nav
▁incapacidad
▁desarrollados
▁almacenar
▁aliviar
▁administrador
nie
▁logística
▁inauguración
▁Cerv
▁Final
▁facturación
▁sucediendo
▁Agui
▁Za
rumb
PO
▁10.000
▁nutrición
▁Jan
medio
▁Times
▁PRI
▁psicológico
▁indemnización
▁Usuario
▁Ase
▁juguete
▁cerebral
ring
▁pedimos
▁estil
▁abarca
▁módulo
▁Vargas
▁abstra
▁denominada
▁manipulación
▁quej
▁2006,
▁notificación
laje
▁historial
▁reúne
▁tecnológicas
▁Niño
▁aeron
▁sindicato
▁mata
▁liberar
▁estarían
▁intendente
▁competidores
▁indicaciones
▁micróf
▁comandante
bida
▁Bruselas
▁empatía
?...
ture
▁enamorado
▁exploración
▁taxi
▁XVIII
▁muchacho
▁bajó
▁rell
▁héroes
▁escasos
▁escasez
▁dí
▁valiente
▁Cuanto
▁cansancio
▁Rubén
▁arquitectón
▁186
▁federales
▁rega
mante
icóp
▁genética
▁maternidad
amanca
▁kg
▁realista
vena
fónica
▁CC
▁oídos
▁huellas
He
▁Maestro
▁detallada
▁ambientes
▁pilares
▁experimento
▁reclamo
▁distinción
▁regalar
limin
▁Open
▁aclaró
ruecos
▁quemar
▁negras
▁lamentablemente
▁seguida
▁lú
desde
édito
ámico
ométr
▁linda
iness
▁tiros
▁curar
▁DES
▁camisetas
▁Dominicana
▁podíamos
▁soñar
Fue
tate
▁curr
▁habia
▁acierto
▁eterno
▁ponerte
▁depender
Car
étera
tiner
▁atentado
tiga
temos
itz
▁costar
rúr
heim
▁Dor
▁examinar
▁diera
secre
▁rean
▁Paco
▁reactiv
▁implantación
▁llevaban
▁reparar
▁mató
▁mentiras
▁Sel
umo
▁farmacéu
▁bul
cta
▁Gi
capié
▁placas
hel
▁produciendo
▁out
naval
ianas
▁socialistas
▁consideramos
▁elevar
▁protege
▁drá
▁modernas
▁intensi
▁tope
▁extinción
▁construyó
gráficas
TP
▁acumulación
▁Vasco
▁vist
▁pondrá
▁cabezas
▁preocuparse
▁Selec
▁demasiada
▁depósitos
▁conseguirlo
▁roca
▁jaja
▁confron
▁Bitcoin
▁neuro
▁sensibles
▁traduce
sor
▁aspir
▁brillantes
▁alberg
drez
enciana
ICI
puso
▁convirtiéndose
").
▁Greg
▁Ases
mada
▁construida
▁Jorn
cistas
▁colecciones
cian
▁peticiones
▁modal
▁Lí
▁rincones
▁sobrepas
▁paralelo
▁Reb
▁relativas
▁Bale
▁elegidos
▁defiende
▁leerlo
▁vuelvo
▁aplicado
▁Descubre
▁subvenciones
▁primo
▁resur
▁considerarse
▁Lament
▁universitaria
▁Puedo
▁lema
▁pasé
▁Medellín
EF
▁contex
▁Opera
▁54
▁transcurso
9)
▁sumó
▁capitales
▁rele
▁miras
▁dormitorio
▁turística
▁Palma
dré
▁eterna
▁predic
vista
▁Nicaragua
▁Óscar
▁2.0
▁recuerdan
▁agradecido
PU
▁iP
22
▁realizamos
rome
▁estratégica
▁reembol
▁Vázquez
gencia
▁Segundo
▁bla
▁Video
usion
▁rompió
▁intes
▁ordenado
▁quise
▁salvaje
▁macro
▁componen
▁Federico
▁herman
▁dibujar
▁extraños
▁estup
▁ahorros
▁intervenir
▁Últi
ige
▁Esteban
▁cuántos
pri
eis
▁GB
liga
▁hac
▁pertinentes
▁peregr
▁reaf
▁laterales
▁Excelente
▁85
▁primor
▁Precisamente
▁dinam
▁reten
▁académicos
▁Llev
▁aprovechó
▁muerta
▁900
fen
▁confiden
▁cardio
▁acelerar
▁impec
▁doctrina
ánicas
feras
uevas
▁desconfi
▁pleg
delo
▁usamos
▁multa
▁libras
▁gargan
▁export
▁exci
▁mail
▁recompens
▁matr
▁autobuses
▁apps
▁aliado
▁Ham
▁carbón
hasta
▁amas
▁juzgado
▁Habrá
▁territorial
idro
▁Sir
▁etcétera
▁borra
▁90%
▁posicion
▁Chan
dismo
▁jerar
▁descal
ville
▁Salón
rita
▁vendrá
▁Spi
▁divisas
▁sanidad
ribuciones
▁colocación
Has
▁espu
▁Cami
caban
Man
▁marcada
▁civilización
▁Iber
darse
Desde
▁reflexiones
rari
▁ciclos
▁solares
▁Sum
▁Equipo
▁cheque
▁recolec
▁disciplinas
▁ilí
▁carn
▁grito
stima
▁apuntan
▁advers
▁Bran
▁degrad
▁Vent
unt
▁Nota
▁suelos
▁Anterior
▁variaciones
▁Moto
▁hincapié
icias
▁destina
éricas
▁volunt
▁delantera
▁ov
▁coca
oto
kel
▁Teniendo
▁universitario
letín
▁cil
▁camisa
▁tomarse
▁reglam
▁digna
poración
▁desorden
▁buro
▁cumbre
▁exigencia
▁variedades
▁subrayó
▁fotografi
▁Ríos
tillos
▁MI
▁democrático
▁pól
▁fatal
▁Camino
▁facultad
▁acontecimiento
▁Tokio
▁provecho
▁2011.
▁llamamos
hes
▁abundante
-200
▁dial
▁repite
▁esconder
▁cálculos
▁extracción
laba
▁auge
▁70%
▁ave
▁Global
▁Cristiano
▁acabe
▁oriental
▁eficientes
▁solicita
Así
▁abo
▁Jord
▁helicóp
▁frustración
▁Éste
pico
▁rabia
tienda
fan
▁describ
▁vence
amental
▁visitado
▁anime
▁varía
▁13,
▁tubo
sey
▁sentim
▁aplican
▁espectáculos
▁incomo
▁sed
▁errad
▁MA
▁Andre
ilio
▁gua
▁domicili
▁2.000
▁inund
▁Mallorca
▁producciones
▁aéreo
pertura
▁ahi
SI
▁liberal
ejo
PC
▁Financi
▁Caball
LC
▁repent
▁almoh
▁supe
▁evacu
▁mérito
tch
▁deriva
▁sanitarias
▁tremen
▁votantes
▁Kim
▁índices
▁enfrente
▁Prin
▁Guz
▁nacidos
▁quirúr
▁Sofía
▁escasa
▁rendir
▁reside
▁inalámb
▁corrección
▁sabores
▁privilegio
▁coordinador
cialidad
▁presa
▁sentarse
▁separados
kar
▁cobran
▁toro
▁pongan
▁(18
▁miró
▁inus
▁aliento
▁aplicable
▁Jard
NI
▁antici
ñera
▁XD
▁regresa
inosa
▁portugués
▁util
▁coinciden
Deb
▁informaron
▁envejecimiento
▁comenzando
distas
▁sucesos
▁barba
▁profundas
▁glor
▁Veracruz
▁hemb
▁influy
▁materna
BS
▁desear
▁conquista
▁ofensiva
▁desarrollada
▁App
▁siguieron
▁armados
▁detuvo
▁Diputación
▁emperador
Vamos
▁trabajadora
▁Rojas
perci
▁(199
▁Llam
▁hayamos
ívar
▁desvel
▁invitamos
▁Joan
quete
▁Declar
▁Holanda
▁vela
▁SER
▁modalidades
▁sois
▁Ala
▁Rib
▁mati
▁autónoma
▁desmon
▁Ze
▁cuerdas
zona
▁Toy
roga
▁matrimon
▁suceso
▁canad
▁invito
ribles
▁2010.
tex
cilla
▁exca
claje
▁botellas
▁atletas
▁variantes
▁Categ
▁trabajadoras
▁compartimos
▁Patrimonio
▁20,
▁Personas
▁santa
▁charlas
▁expuestos
▁^
▁deseando
▁Ang
▁coco
▁cica
–,
▁lograrlo
▁secretaria
▁lazos
▁idio
▁venezolanos
▁Convenio
Par
lara
▁marí
▁risas
▁filóso
▁Marruecos
▁tendré
▁restable
▁poemas
▁Cy
▁Calderón
▁regula
▁agrícolas
▁sexualidad
▁CH
▁elegida
▁tesoro
▁bajada
▁simbol
▁MAR
▁Cra
▁muros
▁obligatoria
itat
▁invitar
urt
▁Agra
PF
▁Bau
▁info
▁agrupación
▁fós
▁colombianos
jug
▁bí
▁Empresas
die
▁Top
▁queríamos
▁verificación
▁azo
play
...).
▁colocado
▁Profesional
▁entrando
▁limón
▁veamos
ases
▁vendedores
▁cosech
▁Pok
▁acostumbrado
lina
▁aérea
▁sesenta
▁Guad
▁GPS
tha
▁estudiado
▁Zona
▁perfectas
▁Gonzalo
▁13.
▁océano
▁53
▁afil
▁apoyado
▁transportar
▁excesivo
▁dividen
▁tui
untamientos
▁conectados
jam
▁paneles
▁precedentes
viente
▁hagamos
▁TI
▁muñeca
▁cancelar
▁miradas
ximo
ken
▁Lucía
▁desgaste
▁hardware
▁austral
▁capturar
▁impuso
▁escape
▁traducir
ady
▁columnas
▁incapaz
▁pedag
▁demonios
▁articulo
▁disparos
bara
▁destinada
ago
▁perfectos
▁comprando
▁invasión
▁llo
▁regen
ericor
▁exhaust
▁estupendo
▁campeona
▁Afortunadamente
▁pintor
▁diagnosti
▁pato
▁venían
▁Obje
▁IR
▁vegetales
Sin
BO
▁admite
▁típicos
ecería
▁salarial
▁Juz
gáis
▁nor
▁Racing
▁Salamanca
▁completos
▁sill
▁bote
▁cuader
▁Ty
▁superó
▁discusiones
▁Enfer
▁superficies
▁desemb
▁preferido
unos
▁migración
▁primordial
▁parecían
▁suscripción
▁cosecha
▁compró
▁activamente
▁calefacción
▁sientas
▁rusos
▁naturalmente
▁Emilio
▁saberlo
▁dominar
▁Online
▁actualizado
▁aumentan
26
oración
▁resistir
▁desf
▁tropic
unya
▁afecto
▁alivio
▁185
▁tumba
▁construyendo
tation
▁reportaje
ificada
▁atar
▁permitía
oth
▁escuad
▁plug
▁frac
▁villa
▁gramos
▁alejado
▁sonar
▁cubanos
▁rollo
▁Caracas
▁registra
▁competente
inc
▁Música
áfrica
▁cancel
▁entregas
▁congreso
▁cuente
sobre
▁adoptado
▁rodaje
▁extrañ
lita
▁invertido
▁difici
▁influir
CD
▁acercamiento
▁tóx
▁interesadas
▁1999
▁fores
▁cementerio
▁certamen
uracán
uz
▁mio
▁multina
▁identifica
▁parroquia
▁covid
▁360
▁linea
▁Youtube
▁enfocar
▁vinculados
▁instrucción
▁terremoto
▁encuentres
▁bombas
▁explotar
▁Hua
dum
▁madurez
▁niega
CR
▁emer
▁itiner
▁británicos
▁manzana
▁estres
▁afiliados
▁recomendar
▁fresca
▁Fron
▁mandó
▁Jerusalén
quitos
▁interactuar
tif
▁Cali
▁conjuntos
xido
▁obligada
▁Master
▁recicl
Crees
▁pasaje
▁dirigidas
▁alquilar
▁reaccion
▁PDF
▁celulares
▁Minist
▁56
▁distanci
▁15,
▁Directiva
▁acompañados
turb
▁caídas
▁escudo
▁fué
viembre
▁cambie
▁asamblea
▁movilización
thon
▁cinturón
ensas
boa
▁varones
▁variación
▁dile
▁delegado
▁Pul
▁Palabra
gráficos
discip
▁cancelación
Ro
▁desaperci
.).
▁luchas
▁puertos
▁hermosas
▁habrán
ceros
▁despierta
▁sumado
▁postre
▁aportaciones
éndez
cepto
▁2)
▁neutr
▁árbitro
dona
▁resaltó
▁antelación
▁Perio
politana
▁temporales
acos
burgo
▁estaré
▁hip
▁Consejería
▁contundente
▁taza
esis
▁procesador
▁reconst
▁Siendo
▁aseguro
▁extranjera
▁centr
éspedes
▁insectos
▁period
merce
▁custodia
▁mobiliario
▁cotización
stro
▁Exteriores
▁fabricar
▁audiovisual
▁asesinatos
▁lejano
trá
▁ganadora
▁dejas
idan
litos
400
▁convierta
▁emocionales
▁Guzmán
▁expresado
▁trampa
cast
"),
▁Ly
íticas
Sal
▁trajes
▁contagio
▁soldado
▁anón
▁acciden
Cuándo
▁milagros
dicción
▁construcciones
▁Pepe
éstico
árse
▁batallas
tat
▁oculta
▁1)
▁echa
▁Austria
▁lidiar
ERO
▁enormemente
▁arrib
▁Sor
▁regularmente
▁fantástica
ctores
▁americana
ally
▁rechazar
▁fundó
▁Day
▁presentará
▁Cuerpo
▁desfi
▁hueso
▁comunitario
iss
▁Mont
▁máscara
▁creados
▁BB
,"
▁galletas
▁homicidio
ream
▁esfera
▁derrumb
▁ponerme
▁integrante
▁seguras
▁instancias
▁Libertad
▁vitaminas
▁cargado
▁Tenerife
árselo
▁Fórmula
▁provocando
▁Andrea
▁maneja
▁Bomb
▁suaves
▁compartiendo
▁inquietudes
▁presiones
▁computadoras
▁tablero
▁off
▁pretenden
▁Will
▁favorece
▁Industria
▁circul
▁Link
▁vendidos
▁goma
crania
▁calcula
▁Contin
▁congres
ison
▁analistas
▁Clín
▁Lec
ctos
▁ilegales
▁precisó
▁robots
▁criaturas
▁insistió
600
▁Estatu
▁poderosos
▁admiración
elia
▁pesa
guo
▁caros
▁mensajería
▁Estad
ertan
orth
▁reaccionar
▁vengo
▁matric
▁estupenda
▁chor
▁distor
▁100.000
▁2005,
▁Públicas
▁desapareció
▁Tol
▁peg
▁demand
itada
▁escalera
éase
▁Decreto
▁Estadio
▁lleven
▁chis
▁acú
▁rescatar
▁exacto
▁News
▁pidieron
▁Conf
▁abren
▁kilo
▁viejas
camp
▁GR
▁Aeropuerto
▁convicción
▁trasladar
▁oscuros
▁cén
▁ib
▁bl
▁armar
▁Infantil
▁complejas
▁americanos
▁permitirán
▁tocando
▁Catedral
▁Dub
▁Trabajadores
▁fina
▁comencé
▁Serie
▁Personal
▁sonora
▁supre
▁lap
inidad
▁2021.
▁penales
▁renovables
▁contratado
▁cuchillo
▁Aprovech
▁líquidos
▁Mike
▁promueve
días
▁Guía
ERA
▁Junior
▁mueven
▁Vaya
▁entrenadores
▁Cho
ficia
▁disfrutado
▁Nieto
penas
▁adaptado
zob
▁humildad
▁Labor
▁adu
▁mañ
▁Dicen
▁impone
▁personalizar
▁Gor
▁escar
esco
grada
▁convencionales
▁pasaría
lateral
▁compuestos
▁sinceramente
▁trauma
buen
péu
sionistas
▁ochenta
▁camioneta
eropuertos
▁Quería
produc
▁urbanos
orias
▁interpreta
gh
▁Lui
▁asesoría
▁vulnerabilidad
▁Irak
▁Eric
viste
▁séptimo
▁lentes
▁golf
▁disponemos
▁Marvel
▁retroce
far
▁mercancías
▁FA
▁eviden
▁conecta
▁2000,
▁Taller
▁económicamente
▁corro
▁preguntan
▁acusación
▁almuerzo
▁destinadas
CN
▁sep
zano
▁convirtiendo
▁cere
▁Recursos
▁Previo
▁coincide
▁devol
▁estimular
▁Ev
▁Monter
▁14,
▁discursos
▁utilizamos
▁Carre
▁pasen
▁Agric
▁use
ava
▁pecados
▁desencaden
▁excepciones
pur
than
36
▁Varios
28
▁subray
▁minería
▁terminaron
▁norteamericano
ineros
▁altern
izador
▁Necesito
▁Cambio
▁lucro
▁Lá
▁caen
Hoy
▁radiación
tál
▁She
▁garganta
▁Jaco
▁Guardi
▁ala
▁Países
▁eligió
▁prejuicios
feo
▁Márquez
▁éramos
▁tern
▁Fox
▁Eugen
▁criminales
▁sustitución
▁Henry
▁influye
▁apuntar
▁combinado
▁suponen
▁cómic
▁elegancia
▁Plus
▁válido
▁monumento
VO
▁Cartagena
▁57
▁especific
▁sometido
▁enfri
▁Hil
▁arreba
▁ino
▁Geor
27
vemos
▁completas
▁PU
▁recaudación
▁arren
▁locos
▁donación
▁misa
▁sta
▁comunitaria
camente
-7
▁procedente
▁asalto
▁vientos
▁adel
▁Forex
vistar
asterio
▁carteles
▁presencial
▁vinculado
▁autónomo
▁VIH
▁vanguardia
▁césped
está
▁inmuebles
▁incluyó
▁barras
▁conociendo
▁pestañas
▁cariños
verde
▁SA
▁credibilidad
▁expedición
cino
▁violaciones
▁Iden
▁pedirle
▁Patricia
▁planteamiento
▁Ud
TOS
▁establecen
▁compla
Entonces
▁Catalunya
▁innumer
▁aplas
doro
▁Mancha
▁obtienen
espe
▁recomiendan
▁Universo
▁separar
gru
carril
▁establecida
▁hostel
▁proli
▁preservar
▁obligar
itó
har
▁comuna
▁incorporado
gle
iría
▁Mucha
▁Juárez
▁lujos
▁adher
▁Gl
▁agricultores
▁discípulos
▁impresiones
guesa
▁pierda
▁conozca
ciano
▁Tus
?)
▁poseer
▁Compañía
▁venganza
▁módulos
▁Pensé
▁ignorancia
▁practica
▁gestiones
voca
ited
dicamente
▁explico
▁puri
▁distribuir
xel
▁Calidad
▁aprovecha
▁ríg
▁Ambas
omento
▁aero
▁visuales
tions
ieran
▁incumplimiento
▁Ferrari
▁dividir
▁visibles
uar
▁Aplic
▁velas
▁RA
▁asume
▁atraviesa
▁desinfec
▁secundario
versa
▁Py
▁falsos
▁continuará
▁Alicia
VE
ticano
▁levanta
▁Bolívar
▁DVD
▁Evangelio
▁cabecera
▁estatus
▁ayudarle
▁pilas
▁Cora
▁Ucrania
▁corren
▁racional
▁peligrosa
▁gem
▁mero
▁lente
▁considere
▁adquisi
▁Judicial
▁Colón
▁contamin
▁consolidación
yente
▁Brown
▁ganancia
▁cep
▁Observa
▁desequilib
▁usada
▁inconsciente
▁campesinos
▁adquiere
▁potentes
▁supuso
▁inolvidable
▁adelantó
ditos
▁roles
inaciones
▁realidades
▁Universal
▁visualizar
▁orejas
▁USD
▁plantillas
▁mision
▁ejes
▁aportes
▁cintura
for
▁Miemb
▁dibuj
▁Paula
udí
▁indefin
▁py
▁radica
▁Navarro
▁Septiembre
▁volví
▁Consejos
▁Recientemente
TOR
▁realicen
pot
crito
gregación
▁Toma
▁arra
▁dañar
▁cerra
▁fortalecimiento
▁unió
chen
▁concesion
entaciones
▁presentados
▁genio
▁alcaldesa
▁pren
▁disculpas
▁defensores
▁Sudáfrica
fique
▁diversi
▁aplicando
▁suicidio
vana
▁Biblioteca
▁abandonó
▁Mañana
▁casado
33
▁infinidad
cuerdo
▁arrepent
▁buce
▁maleta
▁Jal
▁....
▁Asegu
▁alimentaria
▁Informe
▁tomen
▁Inten
gusto
▁accesibles
▁protegido
▁ilimi
▁Grandes
▁toros
▁terrorista
▁inocente
▁esclavi
▁aceptable
▁Vill
▁caris
▁adapte
loud
▁esperas
▁reflejan
ferente
▁absten
▁tuber
▁Extra
▁COM
▁resuelto
▁Conoce
board
▁Opin
▁máximos
▁mortalidad
▁envíos
▁60%
▁exigen
▁seleccionados
▁adelga
▁Jar
▁espar
▁Yan
▁japoneses
kia
▁OS
▁Democrá
▁impresionantes
xima
▁magnífico
lería
▁Ec
▁ef
ianismo
▁altar
bon
taño
▁Pron
▁vocal
▁escritora
iada
▁médicas
▁interesar
▁adelantado
▁osci
▁electr
▁presentaba
▁Mediterráneo
minente
▁Pienso
▁Torneo
▁restantes
▁tamb
▁crecen
▁finca
▁Almería
▁imb
▁jabón
▁orilla
▁respectivas
▁cobro
lom
ÁS
▁ordenar
▁faltaba
▁estudia
úmero
▁Cic
▁asumió
▁sueldos
▁Claudia
▁Premios
▁auriculares
San
▁semifinales
omal
▁Ok
▁lactancia
▁ponerlo
taro
▁metió
▁invas
▁musulmanes
vy
▁Belén
▁bendición
▁gustar
▁Rojo
▁Fen
▁Obras
▁imperial
▁referirse
▁reflej
▁fic
▁matan
▁Municipio
▁sudor
fr
▁adivin
▁tolerancia
▁vial
▁recuperado
▁masivo
▁ratón
▁star
▁decirme
▁notificaciones
▁Etique
▁crudo
▁gr
▁quedaría
▁Nego
abar
▁temo
▁cuchar
▁̈
ee
▁dedicados
▁2021,
irámi
▁bomberos
▁sensores
▁absurdo
▁cayendo
▁desech
▁inspirado
▁añadiendo
▁DC
iá
▁peligrosos
▁Abril
▁apoyos
▁Eran
▁aban
eraciones
▁desbloque
▁imprescindibles
▁programar
▁eh
▁Dici
▁promocionar
ect
▁Pic
▁voluntaria
▁conquistar
▁expectativa
▁túnel
▁opuesto
▁sever
▁Rel
▁dimos
▁narrativa
▁hospit
▁dados
▁Marte
ericordia
gulos
▁unen
ulario
usura
▁horizontal
▁comiendo
▁olvida
▁remate
▁Sie
▁Publicado
▁Jackson
▁óptimo
▁muchísimos
▁Suprema
▁Game
▁Pod
asis
▁dila
▁patatas
▁curvas
▁Allen
PD
▁20.
▁Chris
▁TIC
▁Cru
▁personalidades
▁inflamación
▁Molina
ENA
▁Tay
▁Puente
▁envidia
▁conectividad
▁muchachos
posi
▁registraron
▁certificados
▁Avi
▁compositor
▁Unas
NA
ciosos
▁catedral
▁divina
▁Wo
▁ingresó
erato
áu
▁terapéu
ciadamente
▁Electoral
▁casarse
▁jer
▁vecina
▁expulsión
▁fiable
▁traigo
▁PAN
éndola
▁cartón
-8
▁olas
ometraje
▁dificil
▁llevada
apro
▁diab
Hemos
▁reunirse
▁electrodom
▁embajador
▁inscribir
▁comprobado
▁Fire
▁aparecido
▁avanzados
▁legisladores
▁psicológica
lia
▁calentamiento
▁juicios
▁globales
rma
rus
▁retomar
trio
▁educar
▁legalmente
▁asfal
▁limitación
▁trai
▁25%
brar
core
yac
▁envol
▁trono
udal
▁recrea
tics
▁Arquitec
UA
▁58
▁academia
▁acari
▁Kan
▁Atlántico
▁censura
enciación
▁ove
▁Asegú
▁relativos
▁debidamente
▁Geo
▁Christian
▁Siento
▁tonto
▁conting
▁supermercado
▁pedí
▁diferenciar
▁ondas
▁principi
▁repercusión
▁Bul
▁digas
▁Store
▁vinieron
▁gabinete
gente
▁productiva
▁fér
inoso
▁confesó
▁emplea
▁extenso
▁5%
▁fantasma
▁14.
▁reanud
▁Bull
▁mitos
▁colega
▁innumerables
▁1998
▁tuvieran
▁alerg
▁prestado
▁Cier
▁cartu
▁impactos
Todos
▁aquél
▁descargas
▁Power
▁millas
▁soberanía
34
▁carros
▁dinámico
▁enseñó
37
mones
▁desliz
▁By
▁Trin
▁oraciones
▁Mate
fín
▁Adam
dre
▁molesto
▁ojalá
▁presunto
▁dud
▁kit
tár
▁colombiana
▁dijiste
▁medicamento
▁Noviembre
▁déj
▁Mediante
▁salgan
▁denominación
▁pesada
venidos
▁integran
▁salimos
tículos
ímetro
▁proxim
▁Rum
▁actúan
▁CAR
▁bolas
▁previsión
▁divertidos
▁legen
▁faltas
▁despedir
▁surgido
▁Ortiz
▁Jones
ivar
▁facial
▁antemano
sapp
▁alfombra
▁gall
▁Arro
▁inunda
▁Steph
▁verlos
▁asignación
▁mortal
yer
▁3.000
grante
teres
▁fijado
▁Feliz
▁obstáculo
▁reconcili
▁tomadas
bras
▁puentes
▁Soci
▁Huel
▁invitó
▁diámetro
▁maravillas
amba
▁rigor
▁Steve
▁submar
▁bolivi
▁estereo
▁controlado
▁mel
▁Ernesto
▁jefa
▁manifestado
▁colgar
▁ayudarnos
▁celebrada
riga
▁coleg
▁almacén
▁ances
▁grano
▁recopilación
▁Ejemp
▁tortura
mora
▁compartida
▁eliminado
▁romántica
guido
▁criticar
▁elenco
▁Wiki
▁esperaban
▁operan
▁agradeció
▁tarda
citas
▁emitió
▁ost
▁cautiv
dilla
▁depre
▁Cle
▁reducida
TRA
▁Cinco
▁despliegue
▁oportuno
▁mágica
▁campeones
▁visitó
▁(¿
▁velocidades
▁presentadas
temporada
▁pasillo
une
▁casual
tuosa
▁peli
cesor
▁semanal
▁llame
▁Ron
▁flash
▁serios
zaro
▁peques
▁Tin
▁lesion
▁guantes
▁delicado
▁protector
tificar
▁casinos
▁usó
▁obreros
▁Burgos
▁fijos
▁anotó
▁Dependiendo
▁rap
▁confiable
algo
▁66
tráfico
▁patri
▁sospechoso
pez
▁adiós
crib
cuál
▁becas
▁disminuye
▁intelectuales
▁Dej
ogén
culan
▁consume
▁extras
▁cubiertas
abi
▁controla
▁Vaticano
▁aeropuertos
▁directivo
DS
▁consiguieron
▁combinaciones
▁inútil
▁convirtieron
▁rumor
▁(@
ósticos
mental
▁abriendo
▁Manchester
▁apoyan
pers
▁Saint
▁degust
▁Linux
▁serpi
▁BMW
▁notado
▁celebrará
▁temáticas
▁parecida
▁recibo
▁Ky
▁Universitario
▁creas
cinco
▁Cár
▁comenzamos
▁llegara
▁atrae
▁Anal
éricos
CIAS
▁vasos
calización
▁reconocen
lio
▁Moder
▁perpetu
▁innovador
▁1990
▁atrop
▁Fé
▁ultimo
▁^^
ibur
▁Ep
▁asociadas
▁vano
▁dejarse
▁ángeles
▁demostrando
▁resistentes
▁conseguimos
▁fundamento
tenible
▁llamaron
▁minimizar
▁Williams
rive
▁sensibil
▁perteneciente
▁retención
erado
rona
▁Lamentablemente
▁pregunté
▁(7
▁vivían
▁acordado
▁Johnson
▁exigente
▁vuelvan
▁prema
!".
▁tinta
nis
▁pozo
▁soltar
▁mantendrá
▁Fá
▁tenías
▁pastillas
▁riego
▁encargar
▁Amar
▁legitim
hist
trabajo
doras
istades
▁bolsillos
▁crearon
▁exhibición
▁excesiva
▁invir
uco
▁sustra
▁Docu
▁trasladó
▁rocas
▁novios
▁Militar
▁streaming
▁parce
▁sera
▁preocupante
▁billete
rill
VI
▁deseen
▁previas
▁Necesitamos
▁Agricultura
▁jugo
▁Terri
▁rosas
▁lámparas
▁celebraciones
▁equipaje
▁presentando
ículos
▁escand
▁miraba
▁refuerzo
▁provenientes
osó
▁rotación
Puede
lab
▁aceites
▁Diciembre
▁produzca
▁previsiones
▁repartir
▁traen
umbre
▁conoz
▁monumentos
▁encom
▁aprendí
▁Albert
▁determinante
▁Dani
▁dobl
▁aparezca
▁ajedrez
▁esclavos
▁ber
MC
▁reutiliz
ándolas
▁Jordi
▁científicas
▁ral
▁pur
▁investiga
▁romanos
hos
Di
▁doctora
▁cuántas
▁bandeja
▁permanecen
▁demasiados
▁condado
entó
▁Análisis
▁sepul
▁Avenida
pool
▁experimentos
▁hipoteca
▁viable
astas
€.
sivas
▁fallecidos
▁músculo
▁coherente
▁obligó
titos
▁demostración
▁Sex
▁partid
▁citar
▁EP
▁acompañan
▁estadística
uts
▁Mit
▁demasiadas
▁comparto
▁costas
trad
▁51
ufac
tage
▁GRA
▁Leonardo
▁Noruega
▁Orig
▁Kirchner
▁tensiones
ween
ridas
▁península
gur
▁compre
▁remoto
▁rem
▁comunión
▁2008.
▁fino
▁propagación
▁dental
▁literaria
▁externas
▁asociada
▁encuestados
▁miti
minas
▁compañeras
▁Baja
▁United
▁cayeron
iados
date
▁Jon
denal
▁hermosos
▁autorizado
▁enfad
iena
▁divide
▁indígena
▁profe
▁hack
▁Menos
lebre
▁Rioja
▁optimismo
▁acumula
▁Curso
▁disfrutan
cipación
▁expone
▁Innovación
▁avanzadas
▁construye
▁reduciendo
▁portería
▁hospe
▁automovil
▁Ku
▁15.
▁Comien
▁caña
▁acababa
▁iremos
▁confía
his
▁jugaba
▁pistola
▁romántico
▁peron
▁Industrial
▁imagina
▁judío
▁buscadores
▁espectro
▁fallas
▁comúnmente
▁concejales
cus
▁influencias
▁volúmenes
▁adicción
▁previstas
▁menstru
▁Chu
▁tranquilos
▁apoder
▁Económico
▁pertenecientes
▁admitió
video
gg
▁noventa
▁narración
▁satisfechos
▁quedarme
▁Sole
▁informáticos
cie
▁criptomonedas
▁sexta
▁referido
▁supermercados
▁infinito
mex
▁chal
▁discapa
29
madura
▁pack
▁curs
fice
▁rese
▁QU
gase
▁neol
▁disparar
▁podréis
▁Tuve
▁Hora
▁Marc
▁monstruo
▁quedas
▁suceda
eh
▁Scho
▁amado
locu
▁2004,
▁comarca
vs
▁bajado
▁fidelidad
▁Línea
▁vigentes
▁lamentable
▁peruano
▁"...
▁suscep
▁1-
Vi
▁Mexicana
).-
▁Transporte
▁beneficiarios
▁étn
tualmente
▁Junio
▁dirá
Station
▁setenta
▁Cri
▁valiosa
▁razas
▁naves
tnam
▁festivales
gía
▁dominante
▁comparti
▁invisible
▁Aca
▁Music
ógicas
▁presidentes
▁Milán
▁Libertadores
▁consideraba
▁vam
▁gel
gela
▁relajación
▁Capitán
▁eró
▁desconoce
▁Ayuda
▁dialo
▁()
▁Capa
▁motocicle
▁rechazó
▁160
],
▁anul
▁libertades
▁relata
--
▁ecosistema
▁Gobernador
▁Next
Siempre
contra
▁excursión
▁propaganda
▁estimado
▁(¡
▁alucin
▁molestia
▁parcialmente
▁helado
colar
▁estrenó
▁cuna
▁2009.
▁esconde
▁prelimin
▁16,
JO
foro
▁enfocado
now
ayo
▁élite
▁queramos
cete
▁ejecutivos
caras
▁óptima
▁Imag
▁obede
▁MU
▁frá
▁rota
▁Team
▁paraíso
▁stan
▁Presupuesto
▁ritual
inero
▁ocurriendo
▁Alcalde
▁Duque
▁enseñado
▁viaja
▁óptica
▁orientar
▁Monterrey
utin
▁revolucionario
▁coy
▁Marzo
edora
▁preventiva
▁Lil
▁aparente
▁geográfica
entando
▁eval
▁funcionalidades
▁recibimos
glos
▁Encuentro
▁freno
wei
ológicamente
▁agregado
▁facebook
▁!!!
▁Declaración
▁130
hite
▁sinónimo
▁Ruta
▁remode
▁Montes
▁criatura
▁vitales
▁arquero
▁Valentín
▁Ésta
▁aprecia
ball
▁activas
tienden
iti
▁descubrí
▁trigo
▁aficionado
▁invad
▁ilustraciones
▁sinton
ariedad
▁relie
▁acumulado
▁revelación
▁brus
ógicos
▁anotar
▁Fidel
▁sigues
▁tutorial
▁Ello
▁administrativos
▁Pach
▁catástro
idora
▁Biden
▁inyección
▁procur
▁previstos
▁ciruj
▁gripe
▁av
▁tremendo
▁estructurales
▁sacando
▁volvía
▁veían
Tengo
voces
▁buscó
▁competiciones
▁Kat
▁facultades
▁empeño
▁concursos
▁Rin
▁CL
▁cuidadosamente
▁Tam
▁chilena
▁literario
▁planteó
ritas
▁pesados
gara
talgia
▁rojas
▁consolas
▁tramos
▁lealtad
▁retrato
▁variados
▁casó
▁gobernar
▁interesada
▁apoyando
▁95
▁incondi
▁sutil
▁cubana
▁aparecieron
▁Vidal
▁baratas
▁pedía
▁anterioridad
pito
▁fárma
ciada
▁emitido
▁Wood
junto
cao
▁magnífica
▁ceder
▁impecable
▁masac
ALES
▁abdomin
▁significativos
▁ajena
lice
▁volvemos
▁romano
▁cuen
▁busco
▁desconocidos
▁arbitr
▁sá
▁Vice
▁replic
▁ID
▁pasaporte
▁Cuen
ásico
eses
huana
▁ole
▁engañar
▁concretar
▁alianzas
▁acabados
▁estrictamente
▁Activ
▁gritar
▁consciencia
ollo
▁gremi
▁dependencias
▁Hitler
▁Vene
▁inquietud
▁detallado
▁provisional
▁Sección
▁puntual
▁accesibilidad
uyeron
▁Michel
▁fichas
TES
genos
▁posturas
▁selecciones
▁vendiendo
▁dama
▁leyendas
▁acusados
▁suba
▁optimización
▁echo
▁espuma
Res
chillerato
igas
▁planetas
▁rastro
FC
mus
▁Siguiendo
▁184
ísta
▁minas
▁existían
▁conjuntamente
▁Apenas
▁encargo
▁auditoría
▁Alvar
▁Matt
tizada
▁Lon
inf
▁masculina
▁Primaria
▁termino
▁Test
▁atracciones
▁embarazadas
▁maltrato
▁girar
▁cueva
▁stock
▁estand
▁círculos
▁niñez
▁pronóstico
▁venimos
▁reclamación
▁Are
▁evangel
▁secos
▁filme
▁nova
Os
▁católicos
▁CS
▁vayamos
▁recibidos
▁quedaban
▁Roc
▁portátiles
Ca
▁donaciones
restres
sol
▁gozar
▁tacto
▁Kevin
▁consistente
▁profundos
▁metales
▁Mill
▁ído
▁Lara
▁Barrio
▁ágil
▁relleno
▁actualizada
portes
▁Área
▁caballero
▁revelar
▁escribí
▁disputar
▁amistades
▁especializadas
▁ejerce
▁mencionada
▁resid
alizarse
▁desaparece
▁bajando
▁inmenso
▁colchón
▁debil
▁impo
cetas
pá
▁asocia
▁encender
▁Confe
▁responden
mulas
▁amarilla
▁orquesta
▁justificación
▁telefonía
▁Juventud
▁Dur
▁satélite
▁extendido
isés
▁Niños
▁patente
▁comprometer
▁Virgin
▁coach
▁fábricas
Neces
chel
▁interrup
▁equipar
▁68
▁emergentes
▁fabul
▁afán
ragones
▁suspender
éndote
cif
▁ente
vidas
▁perca
▁mp
▁18.
▁mortales
▁podio
▁desesperación
▁Nú
▁aldea
▁hablas
▁CI
bul
▁Afgan
▁Fri
▁Bir
▁elevados
▁nombramiento
▁gam
guer
▁acop
▁viste
▁filosó
▁Quienes
▁observado
tiempo
▁estrope
adecu
▁escogido
▁filial
▁reson
▁fór
▁hígado
▁Center
▁revuel
▁contestó
▁Oeste
▁poster
▁impunidad
▁iPad
▁pavi
▁variante
ímulo
▁varían
▁compran
▁oscuras
▁ajeno
▁licitación
▁incidentes
▁valora
▁Dispon
▁resultaron
▁atendiendo
▁maxi
zaciones
▁rot
olencia
▁grabaciones
▁pájaros
▁paradas
▁ruinas
▁UNA
CIONES
▁retirado
▁cerrad
▁Nis
▁pequeñ
▁estuvieran
▁Manten
▁secuestro
▁Hom
▁muñecas
▁racha
guirre
▁sospecha
▁5.000
▁XVII
▁dinámicas
▁Nobel
urs
INA
▁Claudio
mira
▁plana
▁adulta
▁Brad
▁carece
erios
▁diálogos
▁expresamente
▁voluntario
▁59
▁ecuator
▁organizadores
▁Estudiantes
▁llamativo
▁Pere
▁vegetación
▁nietos
ciando
▁expuso
▁asever
▁transacción
▁expresidente
▁brindan
ii
▁Reserva
▁intac
▁robos
sabilidad
▁ingleses
ésimo
iki
▁pizar
▁proteína
xs
▁intermin
▁presidenciales
▁IA
▁gratuitas
▁consign
▁ED
▁grueso
▁Anna
lago
▁huéspedes
▁seguidos
▁19,
▁deportista
▁Wars
▁premisa
▁iré
▁pausa
liquen
▁ciclismo
▁dudo
lé
▁competitiva
▁intérprete
▁asequible
38
▁escuchó
▁lobo
▁escaso
▁ped
arquía
tienes
▁Fort
estes
tta
enció
▁compatibles
donde
lites
▁emergencias
▁Extremadura
▁Bolsa
▁Caja
▁animo
▁encontraremos
uevo
▁rutinas
▁encargó
▁santos
▁tocaba
ormal
▁fomento
ficiencias
▁cálido
rara
-)
peso
▁basan
▁Dia
▁irme
▁inmobiliario
▁Generalmente
ueras
▁19.
▁suponía
▁Tags
▁mostraba
▁denunciado
abellón
▁PlayStation
rime
▁coman
▁síntoma
▁actuando
▁devas
▁Mónica
▁delicioso
▁adorn
▁geniales
▁serás
osamente
▁manuales
▁Chil
▁Arti
▁Occidente
▁egres
arre
▁Compe
▁diablo
andés
▁American
sy
▁acent
▁St
▁relajar
▁Pier
▁amanecer
▁aportando
lah
▁Estudio
▁Marg
▁aventur
▁140
▁jurisdicción
▁valoraciones
▁sombrero
▁creaciones
▁méritos
EO
▁critic
▁potable
▁validez
etti
▁productora
▁aparcamiento
▁cuadrado
valo
ajar
JA
▁decirles
▁estrech
▁Represent
▁Wol
▁traemos
▁evidencias
▁Afganistán
▁religiones
▁viajó
▁Paulo
drían
Soy
▁llegaría
▁Ronaldo
▁1997
▁caracteres
▁Tercera
▁iría
▁utilice
▁compensar
▁recibida
!)
▁narcotráfico
▁afro
▁viral
▁copiar
viedo
▁Walter
▁decida
▁Concepción
▁recibirán
▁Vigo
▁curiosa
▁gotas
▁divertidas
▁llamando
xaca
▁matices
set
▁18,
▁concentrar
▁estructural
▁Podrás
▁diseñadas
ariciones
▁recesión
▁Clara
▁patrul
untu
▁1995
▁consolidar
▁catalana
íen
▁meterse
▁amplias
▁diam
zamiento
▁advertencia
▁Evidentemente
▁chaqueta
bile
vían
▁Cán
▁perdidos
▁significar
▁dividido
▁mina
áramos
▁revelado
▁obteniendo
▁peleas
▁2003,
▁Xiaomi
héro
rirá
culaciones
▁sincero
▁eu
▁Corn
▁estudian
pación
▁agrupa
éisbol
▁estudió
▁Alan
▁exhib
▁1:
▁repaso
▁sentimental
▁volvería
▁constituir
petas
▁Enero
▁Besos
▁RAM
▁observando
▁comando
▁sucesión
▁recogido
▁destacadas
▁cerámica
▁oye
▁dadas
▁diputada
▁aburrido
▁Coruña
▁mueble
▁Nuestras
▁pluma
▁anexo
▁tomate
▁mascarilla
▁abe
▁Psicología
Ne
▁17,
▁Mens
▁valent
▁impulsado
▁Vegas
▁preciosas
vidos
▁ETA
gir
▁trozo
▁sumando
▁adelantar
▁Curios
▁causando
▁mecánico
▁introduci
▁luce
▁(20
Nosotros
▁retiró
onado
vor
▁Oye
▁profesionalidad
▁Perman
Bar
▁blanque
ñada
▁suelta
▁optimista
kins
▁Técnico
▁ladrones
▁espirituales
▁endeud
▁maniobra
▁Invi
▁afer
regó
▁percibe
cente
▁Honor
▁indiscu
▁acta
▁Wall
PI
Foto
▁Ath
▁coherencia
▁Matías
▁aprenden
▁Inst
▁Grand
▁dedicarse
▁numero
▁Simón
▁cerradas
▁inminente
▁gentes
▁gin
▁dren
tona
▁Dinamarca
▁ubicados
▁implicados
▁genu
tense
loween
▁merca
▁aerolínea
▁Deleg
▁cabina
▁clínicas
▁NASA
▁Map
▁Nico
▁disparó
▁empiece
▁clandest
▁fronter
▁dietas
▁utilizarse
▁ayuntamientos
canes
EG
▁prohí
32
▁cremas
▁clasificar
▁Inteligencia
▁gubernamental
▁efectivas
oni
▁nostalgia
▁multas
▁abundancia
dónde
▁sinté
▁tarta
▁Mateo
▁venció
▁enre
▁Scott
cierto
▁Julia
▁logramos
Más
▁laboratorios
▁Archivo
▁Kong
acas
▁marrón
landés
▁sólidos
▁prometido
▁cielos
▁Hill
ximamente
▁Empres
▁estímulo
Ven
▁Tony
▁Llegó
▁comprometidos
▁consecutivo
▁seriamente
▁clásicas
Fel
▁entraron
▁implicación
▁cra
▁Renault
▁Zamora
dill
▁Jona
▁oliva
▁selva
▁ple
dadura
diste
▁vinculación
ieta
▁pintores
▁asignatura
▁legislatura
▁aparecerá
▁dispara
▁derrotar
ifique
▁67
▁pedazo
▁extranjeras
▁invo
▁incul
▁goleador
▁proponemos
▁acudió
▁preguntaba
billo
▁definen
iner
▁aconsejable
▁cadu
tigu
▁radicales
▁psicólogo
▁recolección
▁77
▁dependiente
▁derrotas
▁monetaria
key
▁desb
Puedo
énico
▁contraria
▁acoger
▁convocar
▁sabia
▁fórmulas
▁mentes
▁Comentarios
▁experta
lista
▁15%
▁16.
▁Brig
▁preguntando
▁cooper
blar
▁cintas
▁ates
▁increíblemente
▁puestas
▁ridículo
▁vendió
▁Ace
dicto
▁vacía
▁comience
▁instantánea
▁orgullosos
▁Robin
▁maletas
▁conversar
▁contribuyen
▁permanentes
▁Cuenca
▁compone
▁decisivo
dole
▁SAN
▁zar
▁organizó
▁favorables
▁Estar
▁innovaciones
forme
Nunca
peuta
▁mueren
▁observó
▁sencillez
▁Tech
▁ritmos
▁piense
▁insiste
▁Zu
▁ricas
siempre
▁inventario
entada
▁vientre
▁tripulación
▁gremio
▁resoluciones
micos
rillas
▁introduce
▁Prevención
▁refieren
cesos
▁especula
▁afe
dren
▁atas
ibil
▁margin
▁Bienes
▁hierba
▁residente
old
▁ecológica
▁Pokémon
▁Nik
▁Veamos
▁lámpara
▁convenios
▁Juzgado
▁caballeros
▁Constitucional
▁abanico
▁Movistar
▁asumi
diver
▁corporativa
▁recupera
▁ocupó
▁OC
vich
▁Susana
▁copas
▁relaciona
▁epidemia
▁Reforma
bierto
▁divino
▁Boston
▁combin
idalgo
▁pasas
▁Omar
▁NA
adillas
queño
▁Seguir
▁hipotec
▁Moisés
▁miseria
▁asiático
Bus
Tiene
▁pelos
▁sales
▁insuficiente
▁pana
alizamos
▁autónomas
▁robado
▁Paris
▁iniciaron
▁naz
▁marihuana
▁informal
▁Smart
▁parroqui
▁vej
▁sacarle
▁Oviedo
▁terminales
▁romance
▁PL
▁árabes
▁protegidos
▁designado
▁sabíamos
▁solv
▁entretenido
▁artil
▁Campos
▁encarcel
▁mañanas
▁domingos
▁requerir
▁valorado
NO
visa
▁permaneció
olor
▁Félix
view
▁apartados
▁Febrero
▁bloquear
urí
▁Estable
▁dictamen
▁engaño
▁enfrentamientos
▁vocab
▁televisor
▁delincuencia
▁Haga
órica
samente
TAS
▁Out
▁granos
▁figuran
eado
▁Oaxaca
▁abiertamente
▁productivos
▁afueras
▁valenci
▁permanentemente
▁reflejar
▁infierno
▁proveer
▁Lab
▁eman
▁dormido
▁fichaje
▁combustibles
▁agujeros
witch
▁incómodo
tooth
▁conozcan
▁representado
▁palos
▁producida
anca
▁Rad
▁confundir
▁Spo
▁Shi
▁trazado
▁17.
▁tentación
▁Centros
▁directrices
EX
▁militantes
▁complementar
▁Desaf
5)
▁Aé
▁Morena
▁sanguín
▁progeni
▁finalización
▁variadas
▁medieval
zará
▁contribuciones
cionalización
▁99
▁circuitos
▁uruguayo
▁enviados
plica
▁maquil
▁Ces
▁interesan
▁desagradable
▁Bajos
▁eras
▁és
▁reservado
▁superan
▁creativos
▁históricas
▁melan
▁defendió
▁multimedia
▁anualmente
▁Intel
comun
ceres
▁Restau
▁billones
▁aerolíneas
▁lon
▁dorado
▁evaluaciones
▁1996
▁DT
▁patron
▁válida
▁comparado
▁Pregunta
▁coronel
▁lástima
▁joya
▁Intro
▁fascinante
▁mascarillas
▁intra
▁recordando
▁decente
titas
▁procesar
▁lápiz
▁MP
▁investigando
▁Impuesto
▁RES
ming
▁romp
ficador
▁pasajes
▁capitalista
▁haciéndolo
ARC
87
▁notablemente
▁otorgado
▁coma
▁hincha
▁deliber
▁violento
▁divulgación
▁competitivos
▁brind
▁*
ons
▁occidentales
▁compi
▁formaciones
▁involucrado
tabria
inger
lora
▁ardu
▁pantalón
700
▁aceptan
▁350
▁Física
▁viajero
39
▁artificiales
▁descrito
▁76
pila
▁—¿
▁rebajas
▁pestaña
▁edil
Hasta
▁candidata
▁provocan
ogado
▁plantean
▁Busca
▁prometió
▁temer
▁Vig
▁transmis
▁estacionamiento
hara
▁torres
▁reciba
copa
loj
nación
▁defensas
▁mencionadas
lus
▁jubi
Can
▁pertenecer
1]
▁aspiraciones
▁incentivos
▁OMS
▁presionar
▁gent
▁maripos
▁enca
▁importación
▁Limp
▁existido
▁Gloria
...".
▁Playa
▁desarrollarse
▁Situ
▁proponen
▁Vía
▁anillos
▁Miranda
▁terrestre
▁doméstico
▁Estación
▁Jas
▁Proto
parse
▁puntuales
▁destruc
▁ambición
ilandia
ispos
▁asesores
untura
▁BBC
▁Business
cano
▁repertorio
▁vais
▁Jeho
▁colocó
▁sugerencia
▁Sovi
▁cuantía
risas
▁impa
▁quema
▁superando
▁superación
▁contemporáneo
▁micrófono
▁Embaj
▁1994
▁IB
▁apell
▁provienen
▁semilla
▁umb
▁cristianismo
tabilidad
▁pirámi
▁válv
▁hallazgo
▁Prác
▁estrecho
▁vulnerable
▁usas
▁Fla
▁encantados
▁Diana
▁asom
▁personalizados
▁atrapar
▁participando
▁griegos
lona
teado
▁Valenciana
▁nucleares
▁síntesis
▁ciclistas
▁Avan
▁antrop
▁oreja
domen
▁Municipalidad
▁inundaciones
▁tomará
▁innovadoras
▁marcan
▁colonias
▁agradece
▁banquillo
▁desar
▁reflexion
tizados
fort
▁Huawei
▁agr
▁coraje
▁Ever
▁hierbas
▁Flo
BRE
Alguna
▁ferrovi
▁índole
sex
▁irregularidades
erial
▁Página
▁Hablamos
chadas
▁Vietnam
▁finalizado
▁Zapatero
▁Julián
ners
▁Príncipe
▁Nick
▁indios
86
▁asilo
▁desfile
crí
▁convocado
▁cristales
▁ISO
▁usarse
▁Av
▁liqui
▁Creemos
▁catas
▁influyen
▁llevaría
▁decides
▁desees
▁feo
▁redujo
▁pretendía
▁beca
▁violenta
ésticos
▁bellas
▁virgen
▁1,5
ordinación
utrición
▁trece
▁capilla
▁aber
▁tox
▁Gam
▁manufac
▁MS
▁desemple
▁independen
▁reciclaje
▁fatiga
▁dedicadas
reos
▁logre
▁Spe
▁miser
▁escapa
▁tremenda
▁templos
▁sagrado
daf
▁nómina
ahora
▁Hong
▁bancarias
▁Fui
▁descans
▁limpias
▁hablaremos
▁arrastr
▁metabol
▁rebotes
▁exal
▁turnos
▁Zelanda
▁administrativas
Será
▁desempeñar
elly
úo
▁monstruos
▁mercancía
▁acompañó
BL
▁explicamos
▁Personalmente
tificado
óbal
▁alcanzan
▁librería
▁Pit
▁realizarán
▁contabilidad
▁alba
▁culpables
inten
▁arquitectos
▁existan
gunas
▁pesadilla
▁Ak
▁Sign
▁ofrecerá
▁importaciones
▁centrarse
▁Sna
▁jugos
▁electo
pr
▁VII
▁2002,
▁́s
lot
▁publicadas
▁Herman
centr
▁toques
▁escán
mad
▁delimi
▁seguiremos
▁anécdotas
▁atributos
▁involucra
▁rub
▁orgánica
▁2:
▁cocinas
▁aplaudi
▁equidad
▁restricción
ervo
▁vivencias
▁ganaron
▁registrada
▁",
▁sucur
▁inadecu
▁Lew
▁fauna
▁guardias
▁abrigo
▁Imagen
▁regulares
▁quedarán
▁vér
▁Cristian
Cono
cidental
▁italianos
vero
▁reza
▁2001,
▁calificó
▁Eco
▁ayudarlo
▁urbanas
uber
Porque
▁Recomend
▁envían
▁Estrateg
senal
▁cantando
▁anécdota
ramento
▁canta
▁permitieron
▁olla
eridad
▁dobles
abeth
▁sindic
▁Pacto
éndum
▁Nan
▁cerdo
nan
▁Aum
▁FM
▁subvención
▁hacerlos
▁destacando
▁debatir
▁jugará
▁visualización
▁amplios
▁URL
ciller
▁nativos
weet
iw
▁arreglos
▁conde
▁predis
▁perseguir
tensión
▁griega
▁intoler
▁comunista
▁carril
▁Eleg
▁hilos
▁durabilidad
▁Agosto
▁Rick
▁Llevo
micas
▁piscinas
▁competentes
▁Enten
▁padecen
▁Presidenta
▁Conocer
▁convivir
▁verbal
▁justifica
▁minoría
▁Garan
ors
▁Recordemos
▁falda
▁FMI
az
rimido
▁bró
▁canadiense
▁lea
▁tendríamos
▁profesorado
▁seriedad
▁halla
▁Ox
▁recurrente
▁Honda
▁permitiría
▁empezaba
▁ancha
adona
▁74
▁revisiones
▁geografía
▁tips
▁buque
▁Bin
▁hormonas
▁extendió
▁calificado
acán
▁Espec
▁rellenar
▁Cient
▁jazz
pole
▁frescos
▁conceder
89
▁posts
▁defensiva
rededor
▁chef
▁abdomen
▁Prueba
▁institucionales
tegra
▁preocupados
▁Samuel
▁Tesla
▁Hidalgo
▁coordinar
ORA
ANA
▁patrimon
star
▁Explic
▁biz
▁reclamos
▁asignado
▁contabil
▁Olimp
▁simultáneamente
▁alberga
▁tomé
▁Izquier
▁peligrosas
▁resuci
▁desconocida
▁tratamos
▁Noche
▁rodar
▁Compartir
▁revo
▁prolifer
▁tatuajes
▁globo
▁reconocidas
▁inesperado
▁telas
▁banderas
▁matriz
▁comicios
▁desbord
▁valentía
vados
▁epidemi
▁biografía
▁Aran
▁Canaria
itis
▁repetición
▁abrirá
▁siemb
▁accede
▁Revista
▁planea
▁compu
▁venezolana
▁trilogía
tarnos
▁estatua
▁oculto
igual
▁ajo
▁enfermera
▁padecer
▁cotidiano
▁revesti
▁Silvia
▁obsesión
oroeste
▁dies
▁crónicas
▁encontrando
▁desventaja
▁escritas
▁planeado
▁Capítulo
▁receptor
-9
▁manifestantes
billa
▁tablet
Quiero
ced
tosa
▁Cristóbal
▁nevera
▁monopol
Oh
▁vinculadas
ciosas
▁retener
▁Sá
▁Ávila
itivamente
▁difícilmente
▁rostros
▁afectando
▁Dic
▁bando
ambul
▁matrícula
▁trom
▁sincera
ose
▁Punta
▁Veo
▁veterinario
▁Piensa
cionan
▁sierra
▁nocturno
▁Cortes
▁indicando
▁Gib
▁paseos
▁chilenos
▁reporta
▁cáp
▁Toyota
▁intentaba
▁Trib
▁delicada
▁cuida
▁Clin
▁aclara
▁rena
▁caridad
▁relieve
según
quista
▁110
▁gobernantes
feros
▁socialismo
▁Beb
▁llantas
ridades
▁Ocho
▁sinti
▁ocupados
▁Misión
rógeno
▁forzar
▁Pronto
▁hur
▁tóp
▁Concejo
▁caiga
▁recordaba
▁encendido
▁acabamos
▁mostrará
HA
▁desfavor
▁accesos
▁suciedad
▁informático
▁típicas
▁opina
▁persever
▁cómics
ampar
▁Johan
▁agradables
▁dudar
▁abrum
▁exclusivos
▁producirse
▁tanque
▁teniente
▁granja
▁muel
xeles
▁reemplazo
▁vives
▁Básicamente
▁usaba
▁Generales
cionando
▁emite
▁Dicha
guno
▁cubiertos
▁).
itados
▁artísticas
diencia
▁llegaban
▁male
▁característico
pare
▁incluía
adro
▁persegu
▁Encontrar
osotras
▁crucero
▁sabrás
▁misericordia
▁tracción
▁defra
▁Efectivamente
▁Editorial
cionadas
▁elegantes
▁sentirte
▁Barran
▁revertir
▁tramitación
tanto
elar
▁recorte
Tú
▁decirse
▁centa
▁desgar
-10
▁probando
▁Fiesta
▁mejoramiento
lay
▁enferma
▁IU
▁cómodas
▁Crim
▁daremos
▁editoriales
▁animado
▁vistos
▁positivamente
▁Jehová
▁Telefónica
▁Conten
▁Gerardo
▁míos
▁pulso
▁Procur
▁nocturna
▁accesorio
▁reportes
▁vegetal
▁semanales
wagen
orros
▁demora
▁desastres
▁violentos
▁bondad
jugador
torce
▁obse
banas
▁Tama
▁promul
itudes
▁privilegios
ipol
▁Prensa
▁convertirá
▁perderse
tramos
▁deso
▁morales
ingue
▁brote
▁miro
▁adhesión
▁sacan
▁atiende
▁precaución
▁seguían
acia
▁valen
▁vincular
▁maravillosos
▁funcionó
▁totales
▁paradigma
may
▁Comunidades
taste
turación
▁Batman
▁locu
44
▁Cala
▁progresiva
▁Quisi
▁blin
▁recordamos
▁Edward
▁2007.
▁cambiaron
bina
▁hongos
▁°
▁Bravo
▁Bár
▁Debo
▁detectado
▁bibliotecas
▁Televisión
▁enun
▁disputado
▁fallar
▁aplicada
cuán
▁mantenía
▁Cooperación
▁him
▁preguntarle
▁Benito
▁Audiencia
▁Bow
▁bodega
▁Núñez
▁compasión
uga
▁insa
▁vendría
itenci
▁Magn
▁empeor
▁montado
▁Aguirre
▁mínimas
▁innovadores
▁Entiendo
▁frecuencias
▁21,
▁determinó
▁escultura
éndoles
▁percep
▁parados
ficial
▁orientado
▁intercambiar
▁extrañar
▁Up
▁Armadas
▁aspirantes
▁raras
▁tenés
▁maravillosas
tlán
▁Uribe
▁Marx
▁audiencias
▁fundamentos
▁asesinados
▁Bang
▁pó
íp
acía
▁esplen
▁nacen
▁Filip
▁detiene
▁crianza
▁Previous
▁empleador
blación
▁chip
▁Resolución
▁kilómetro
uan
▁compromete
▁indicios
▁Ún
▁catalanes
▁miran
▁Generalitat
▁retirarse
▁orgánico
▁volando
▁dirigirse
bias
sita
▁dure
▁trozos
▁porción
▁gustaria
áneo
▁celos
▁Total
mension
▁disputó
▁International
▁prefieres
▁olores
▁escuché
▁pareciera
▁equilibrada
riera
▁auxiliar
▁Montevideo
▁liquidez
▁Sandra
▁celebran
▁3)
▁sentada
▁¡¡¡
▁luminos
▁arterial
zobispo
▁Deporte
▁teórico
dible
▁romana
▁jugadas
▁colonial
▁aña
▁calentar
▁fabricado
▁caracterizan
▁carnes
▁ponernos
▁intermedio
▁Corazón
▁pagó
▁programado
campe
▁aran
ium
▁anciano
▁sanos
▁llorando
▁ecológico
uter
▁prosperidad
▁reunido
▁natación
▁pc
uidos
▁ultima
▁Clínica
▁flexibles
▁instalada
▁fotógrafos
▁Ponte
tens
▁planific
▁cilind
▁arrugas
hidra
▁Técnica
▁Group
▁cruzado
habil
▁norteamericana
▁Gold
▁mutuo
mitir
▁Halloween
▁→.
▁papás
▁inocencia
TAR
▁Igualdad
▁distritos
▁ventilación
ticia
▁CAM
▁doloroso
quino
▁Benjam
▁atenta
animidad
▁sufrieron
▁consecutivos
▁estimación
▁ocupada
grar
▁alcaldes
alan
▁alien
▁desalo
▁enfrentó
▁63
▁mejoran
▁Dun
▁Cantabria
▁Alexander
Pe
▁apagar
▁citada
▁acogedor
▁liquidación
chó
▁agresiones
▁molé
▁asistencias
▁recort
▁creadas
▁intente
▁Consider
▁pedia
▁Espacio
▁definió
▁parecidos
▁ajusta
▁reba
tricas
▁corresponda
▁funcionales
▁desplazamientos
istir
▁Volver
▁elá
intana
▁especialización
▁notables
▁modificado
▁cardiovas
▁fragmentos
▁espan
zy
▁excesivamente
▁generosidad
▁AG
▁reposo
▁farmacia
▁Comprar
▁causan
▁proyecciones
▁esquí
atiz
▁Finanzas
▁ina
▁referéndum
▁meti
▁participante
▁Arabia
▁ferrocarril
ival
try
onde
wo
▁cultivar
▁mandos
▁intentarlo
▁Guan
▁pretemporada
íqu
▁injusticia
▁manifies
▁preciosos
▁reparaciones
Pal
▁primarias
▁Ejer
né
▁vís
▁gota
▁tatuaje
▁veis
▁verdaderas
trales
▁Proyectos
▁ilusiones
▁detalla
▁pila
▁eligen
▁Iba
▁Lisboa
▁fríos
amilton
▁cuenten
▁analista
▁pintado
▁autó
▁llevarán
▁racismo
▁pasara
▁feminista
fobia
dieran
84
rimos
▁legalidad
ómetro
vío
▁pulmones
crim
campista
▁estancias
▁referimos
▁madrileño
deses
▁globalización
▁Vé
▁62
▁beta
▁sendero
▁poblado
▁humanitaria
▁vivi
▁sud
▁rechazado
ustos
▁acercan
▁reta
▁intentamos
▁enhorabuena
mulos
▁enfatizó
▁rebote
uesca
▁divisiones
▁cohe
▁fundado
▁reconstruir
▁calmar
▁creyentes
▁(1)
▁preso
▁Especialmente
▁asistió
▁aplicables
▁Metal
▁honestidad
cilia
miendo
alor
▁esferas
▁69
ób
▁Down
▁acento
▁desplazarse
▁afirmaciones
▁buscará
▁interlocu
▁predecir
▁memorias
▁rector
rául
less
▁ramp
ondo
itaciones
▁agrado
▁noción
▁núcleos
▁plantar
lanco
▁Ferro
▁favore
!",
▁alejar
▁minimal
▁texturas
▁Sk
▁artesan
▁utilizarlo
▁descubriendo
▁Días
ití
AF
▁articul
▁familiari
▁personalización
▁Recu
▁marcando
▁IC
▁isl
▁gane
▁Dro
▁contemporánea
▁amparo
▁nadar
▁extrañas
▁cebolla
▁mayús
▁adquirió
▁exactitud
▁Guin
▁bordes
ondas
▁cajón
▁indud
osau
▁convencidos
▁evo
pección
▁habrás
▁Quito
tecn
▁exigentes
▁describió
▁descartar
lem
▁Live
▁giros
texto
▁30,
▁sucesor
kswagen
▁pasaban
lick
ink
traciones
▁pymes
▁surf
ak
▁imposición
▁aumentos
▁mera
▁Socialista
▁contribuyentes
terránea
eando
▁tranquilamente
▁larg
▁(10
▁1992
▁Blas
cillo
▁esquemas
▁solemos
▁apunto
▁cláusula
▁maratón
▁prol
▁Maradona
▁Inver
▁Alf
mber
▁Viena
sterdam
▁complicados
▁renovado
▁Jalisco
▁bona
▁extrater
▁relacionar
▁Puerta
▁economista
▁Ministros
▁vocabulario
▁digitalización
▁vertic
riba
dalena
▁compacto
▁1.-
▁inverna
▁comprometida
▁Marca
▁ajustado
▁cupones
▁Estim
mosa
▁acertado
▁agresivo
▁introdujo
▁andan
rencia
▁habías
▁Roger
▁macho
▁twitter
▁maximi
▁helicóptero
▁Joseph
▁corrió
▁esencialmente
▁beneficioso
77
▁posicionar
▁Independencia
▁plásticos
▁comenzaba
emento
eamiento
▁controlada
▁chist
izaron
yes
▁Pamp
óstoles
▁derivado
▁señalando
▁Humanidad
▁suyas
▁maestría
▁Vivienda
▁remedios
▁sintiendo
▁israelí
▁Rap
▁remol
▁queriendo
▁Esperanza
▁comprendido
▁reflejado
ometría
▁comento
▁Haw
▁sometidos
▁cereales
▁podré
▁up
▁activistas
▁ciclista
▁Correa
▁prototipo
▁mire
64
▁Incluye
▁rú
▁Ras
▁verdades
iverpool
▁irrespon
▁décimo
▁genes
▁dotar
▁cí
▁jerarquía
cidio
▁Press
▁eventualmente
▁Adrián
▁Agu
)...
▁bea
▁actú
▁Aren
roll
▁peruana
▁pieles
alupe
malte
▁cines
▁medallas
▁interacciones
gicos
▁GT
▁Escocia
▁estimaciones
▁↑
▁república
▁«¿
▁reducen
▁recuperarse
▁usadas
▁Free
▁aplicarse
▁reclamaciones
diéndose
▁fontan
▁modernización
▁oli
▁descont
▁directorio
▁suministros
▁estético
mundo
▁Pino
▁apartamentos
▁juveniles
uciones
dés
▁dominic
▁esclavitud
▁tic
▁engaños
▁estí
▁consideraciones
▁champ
▁Love
▁pertinente
▁directas
▁íntimo
▁beneficia
▁Hea
▁hacerlas
jala
▁llegarán
▁20.000
tisf
▁opres
ít
▁puñado
▁desaparecidos
▁parrilla
▁destacada
▁Acos
▁preocupan
▁imposibilidad
▁recipiente
▁mineral
▁injusto
▁Aguas
▁volcán
▁Gobernación
▁Alcalá
▁despertó
▁Aquellos
▁astron
▁cafetería
iberal
▁Mez
▁informativo
▁rubro
▁Louis
erica
▁consumen
▁demonio
acar
▁pongas
▁sujeta
▁XIII
▁publico
▁poses
▁sinte
▁enriquece
▁secreta
▁variado
▁Massa
▁turista
izarse
▁chic
▁garaje
ory
▁articulaciones
rosos
▁Producción
▁produjeron
▁Soto
íficamente
cipes
▁variada
ículum
▁Patr
▁aparecía
cht
▁School
▁2-
▁logotipo
▁House
▁Atlan
▁aprovechamiento
▁automatización
▁abrieron
▁LG
cimos
▁marina
▁impulsa
▁anfitrión
▁misterios
▁innovadora
▁cese
yug
▁Eusk
▁hambur
▁orgullosa
▁AT
caj
▁potencialmente
▁Abraham
▁Tailandia
▁ascensor
ai
▁fuiste
▁reemplaz
▁puntas
▁políticamente
BR
▁necesiten
▁resign
▁analizando
▁antioxid
▁manipular
▁fisi
▁reglament
▁presenten
Uste
QUE
▁Dy
▁Aguilar
▁ingrediente
itando
▁desconfianza
titis
▁calientes
▁Games
ínguez
tativo
▁google
▁atractivas
▁acuden
▁pegado
▁muchísima
▁sevil
▁obsequi
chando
▁fantasmas
▁explicando
nio
▁Nel
tricos
▁contrarres
▁Pleno
gem
▁esclar
▁dijera
▁Virginia
▁hinchas
▁mantequilla
▁inca
bación
▁incluya
▁Vista
▁prór
▁animar
▁alt
parti
▁preocuparte
▁procedencia
▁Cualquiera
▁Quintana
▁tiran
▁Condiciones
▁relató
▁livi
▁valer
Eres
▁lác
▁fiabilidad
▁manifestar
▁senda
Cuántas
▁Hung
cribe
diversidad
▁apropiada
▁estúp
▁proximidad
▁hallazgos
▁atravesar
▁motivado
▁aprendió
▁asegurando
▁suben
Dios
▁HA
▁contribuido
▁MX
▁plancha
▁Administra
▁afian
bby
▁Alcaldía
▁postal
amen
▁republicanos
▁alea
▁decepción
▁intentaron
▁».
▁devoción
curio
▁inversor
nab
ush
▁Enter
▁Lau
▁ball
álogo
▁Victor
IZ
▁psíqu
▁rodeada
asi
▁organizados
▁Acabo
▁comentaba
▁alteraciones
▁1980
▁bord
▁aprovechado
▁Fomento
▁Pad
rino
▁astro
▁incan
átiles
1).
▁doméstica
▁equivale
▁afirmado
▁resuelve
.),
▁centrada
▁elef
▁versa
▁realistas
▁sequía
▁incrementado
▁gracioso
▁Bella
▁centenar
xis
▁levantarse
▁Casas
▁enseñan
▁coincidencia
▁carencias
▁mediación
▁poste
▁conveniencia
▁manejan
▁utilizo
▁eleva
▁Soviética
alizas
▁facilidades
▁Nació
▁evolucionado
▁Fantas
▁Económica
▁bolsos
▁coincidir
▁definida
▁desventajas
▁susci
▁alternativo
▁Bun
ika
▁back
▁Hamilton
▁Rocío
arela
▁aires
▁sostienen
▁suceden
▁infracción
▁seminario
▁hacerles
▁!!
▁requerido
erna
irme
▁atleta
▁atro
▁tempran
▁llevarla
▁iran
rerías
▁Añad
▁Rural
▁opinar
así
▁Seguimos
▁elaborados
▁ator
▁metáf
▁peat
▁Armada
▁estratégicos
▁tardó
▁burbuja
▁volverse
quísi
▁Nadal
▁balcón
▁identificados
rentes
derías
▁serias
aboraciones
▁sopa
right
quis
▁Volkswagen
▁vivieron
▁lana
▁asturi
▁ecles
▁legislativo
▁comprarlo
,,
▁Confederación
▁potencias
▁visa
▁compatrio
▁facilitan
▁cometidos
▁antepas
▁molestar
▁campus
IE
▁White
▁obso
▁abrazar
▁operativa
▁preparan
renda
▁levantamiento
▁Cama
▁Ciudadana
▁ayudaron
solo
medios
▁zan
▁desplazar
▁preco
▁fec
▁obtenida
inho
▁bestia
▁accionistas
▁acusó
▁Corporación
▁Acer
▁sugieren
▁premium
▁andando
▁asesinos
▁respetando
▁presento
ólicas
▁verme
lyn
▁algoritmo
▁Brook
▁escucho
▁fibras
▁viceversa
▁peinado
PP
▁Agre
▁medioambiental
zaje
▁paula
▁desprende
cencia
▁Pep
▁estímulos
▁moción
▁evangelio
▁Ries
▁autocon
▁desembar
▁Bahía
▁probarlo
▁protegida
▁hicieran
▁Coron
▁adquiridos
▁levantado
▁desconocimiento
▁historiador
▁ads
▁guiar
▁asegúrate
▁controversia
▁gordo
▁neo
▁Orlando
▁viabilidad
alia
▁transferencias
▁Liverpool
▁Aman
▁Coordin
▁125
▁Data
gentes
▁suscrip
▁Carl
▁Mérida
▁marcos
▁inauguró
▁vinculada
▁PAS
▁recibí
igue
▁colapso
▁reportó
▁temporalmente
▁buques
▁hormigón
Gran
▁adelanto
▁Pastor
▁21.
▁Ner
▁aislado
▁nerviosa
PG
orcio
▁rentas
▁Margarita
▁carrito
▁tuberías
▁significativas
▁rebeldes
▁titulada
▁Guadalupe
▁Way
▁78
▁senadores
▁ilustración
▁estricto
▁Eliz
▁reclut
▁afectó
urada
▁armada
▁ligado
▁TE
▁entrañ
▁recorridos
▁carencia
▁creamos
▁artesanal
▁atentados
ende
▁opa
▁echado
▁impresora
▁UC
▁ofrecerte
▁afortunadamente
casa
▁Ibi
fón
▁reunieron
▁2.-
▁atardecer
▁marx
alta
▁daré
▁padece
▁Venecia
ads
▁Enhorabuena
▁Taylor
▁corporación
▁arriesgar
wich
▁visitan
▁regularidad
▁Pales
▁terminando
allas
▁Eri
▁ganarse
▁firmeza
▁deficiencias
chet
▁cerro
▁jamón
▁Ín
asia
▁penetración
▁verific
▁Roca
▁lanzamientos
▁enum
▁salí
fiere
▁Toro
▁aspira
▁tirado
cisión
▁1.500
▁pedi
▁amplitud
▁intensos
▁desfil
▁remarcó
itariamente
▁prepararse
vina
▁prisioneros
▁Nivel
eléctr
sche
▁creativas
▁recomendó
▁huracán
deza
▁gus
▁esplendor
lera
frad
árqu
▁dureza
▁excursiones
▁advertir
▁pilar
ogados
▁Brian
▁contaminantes
▁conocieron
▁pasillos
▁clasificado
▁curric
▁instinto
▁incompa
guila
▁expandir
▁firmemente
guió
▁deliciosa
▁conmemora
mados
▁triunfos
▁enamorada
▁1993
dioso
▁Show
▁breves
▁catorce
▁requiera
▁Evaluación
▁actualiza
▁debilidades
▁medianas
▁mantuvieron
mond
▁Fred
▁caba
▁portales
HO
▁ignorar
▁tirando
▁acabaron
▁Cervantes
▁jurídicas
▁acordó
xit
▁restaurar
▁exilio
▁cib
▁Miembros
▁Propie
▁Cris
▁coro
▁excusas
▁hábiles
▁Ney
▁pasiones
▁honesto
▁correctas
▁caluros
▁flujos
▁ligas
▁Dolores
▁DJ
▁deseaba
▁Chap
▁consideradas
abamos
▁Nacionales
▁salones
▁Ash
▁mud
▁redonda
▁allan
▁máster
▁gráficas
▁prescin
turados
▁entendía
▁entienda
▁Tuvo
▁precisas
radoras
▁Carrera
▁pienses
▁pobladores
▁cambiará
▁fero
▁Charlie
▁Multi
▁colaborador
cui
▁homo
▁Domínguez
▁misterioso
▁censo
▁Atenas
▁reestructura
▁84
▁corporaciones
▁sobrecar
Recuer
rará
▁publican
▁estafa
▁asciende
▁gratitud
▁Delgado
▁Lux
hip
▁Años
▁remota
▁Sudamérica
▁Agregó
calip
▁Germán
▁marino
▁olvide
prim
▁atrever
▁felicitar
▁ópera
gerir
▁fundadores
▁atendido
▁Jornada
▁sabrá
▁ubicar
▁aéreas
▁carbo
▁Javi
▁cata
PL
▁inserción
▁varón
▁balanza
▁Emb
▁activista
veno
▁aga
▁calce
▁contención
endamente
▁acusa
,.
▁VER
▁usarla
▁Huelva
▁Opti
▁Rod
▁quedarte
▁Wat
▁empleada
▁Bron
▁minia
▁inspira
▁felicidades
vial
▁aprueba
1),
▁consecución
▁vigilar
▁Finlandia
También
▁atacante
inaron
▁merecido
▁incrementa
dimension
▁Pir
Acaso
▁instantes
▁ABC
▁placent
▁codo
ars
▁casilla
▁ofrecieron
▁restante
▁octavo
▁especialidades
proyec
▁gusten
▁residencias
▁granito
patía
▁analizado
▁concluido
▁necesitarás
▁escap
▁acome
ueño
▁reiteró
▁superhéro
?:
▁cemento
▁quisieron
▁marcados
señor
▁siniestro
▁insumos
▁Chel
▁embajada
▁brasileña
▁habitan
▁desple
▁máscaras
▁admira
▁formales
▁edificación
ffs
▁deton
▁vasco
▁táctica
▁invento
▁vicepresiden
▁marg
▁ciego
▁debutó
▁cadera
▁álbumes
▁encontrados
▁Cerro
▁administradores
▁plenitud
▁intuición
▁sindicales
lazamiento
▁asfalto
▁sentó
▁alusión
gones
▁prohibir
tifica
▁Kir
55
▁2006.
▁caute
inaria
ílica
▁desarrolladas
▁88
▁gla
▁parlamentario
cribir
▁podcast
▁calaba
▁editores
▁titularidad
▁registradas
76
▁psiquia
▁históricamente
▁seremos
2).
▁EC
▁latín
▁lapso
mentaria
▁imposibles
▁Máster
vamos
▁vina
▁Buda
▁apuntado
▁Urban
▁22,
España
▁descentr
▁terapias
▁incompren
▁ame
▁entab
▁conectarse
▁sostenibles
▁introducido
▁SD
▁estipul
▁matado
udio
▁unida
▁costoso
▁socor
▁imperme
▁interpretado
gicas
▁dinosau
▁ilusion
▁colocan
▁teatral
▁monasterio
kis
▁ergon
▁hito
▁pudiese
inte
2),
▁Aprender
▁emplean
▁ofrezca
alizaron
PM
▁fluido
▁gestor
pra
▁producidos
▁aborda
▁distingue
▁haberme
▁acudieron
20,
▁reclama
▁Casino
▁votado
mera
▁Autoridad
▁Ano
▁celda
▁atrapado
▁interese
▁ke
▁Occidental
nada
▁promocional
▁Frida
▁Jardín
▁descubrieron
▁completado
?¿
icismo
▁Ball
▁grandeza
▁boletos
▁articulación
▁alcaldía
▁Kra
letismo
▁cordo
▁sentados
▁recortar
▁Dragon
▁arrancó
pecu
▁versos
yentes
kistán
trarse
▁señalaron
▁íntegra
▁auxili
▁eventual
▁cadáveres
▁curación
▁tub
▁cubren
▁Bush
▁Instal
▁condenados
cont
▁cervezas
▁clasifica
▁salvador
ésima
▁necesitará
▁rayo
▁cejas
▁toalla
▁manus
▁Chrome
yuge
▁priori
▁apetito
▁golpear
▁retroceso
▁provinciales
▁indiferente
alina
FL
▁terribles
gamonedas
▁inversionistas
▁amables
▁Encuentra
▁Uber
▁sustancial
▁béisbol
▁optado
▁personalizadas
▁pertenencia
▁urnas
▁marchas
americanas
▁socioecon
▁tumor
▁critica
▁colas
producción
talo
▁pescadores
▁dudos
▁estables
deas
tana
▁compatibilidad
▁ejecutiva
▁formulación
▁sabio
▁ambicioso
▁Pom
▁Premier
▁fasti
▁budi
qués
▁Aprende
▁esperemos
▁Nat
▁enfermería
▁Ustedes
usse
▁anticipación
▁Saber
▁extensiones
▁Hablar
▁dejaría
fato
Pues
lea
▁adaptan
▁añadimos
▁Wh
EE
zzi
▁EM
▁democra
usia
▁equipado
▁desvan
▁mism
▁Monum
▁trián
▁comido
▁sonreír
▁separadas
▁salvó
▁Sher
▁lote
pues
▁unanimidad
▁(8
▁Isl
▁dragón
▁continúe
▁som
▁ratos
hoy
▁dispuso
gimiento
▁resumir
▁suplementos
any
▁ofrecía
cala
▁beneficiar
▁versátil
espa
▁prestan
▁sobrepeso
▁orientada
word
▁geno
▁Gua
▁próximamente
▁reúnen
▁Mini
▁indiscutible
▁alteración
▁Aqui
▁sacaron
▁Hun
▁tremendamente
ties
▁Jonathan
mienta
▁anon
Aquí
▁urgencias
cable
▁protagonizada
▁looks
▁Palmas
▁Diez
▁duerme
▁Jeff
▁evidentes
▁alcanzando
▁habilitar
▁Athle
▁olvidemos
▁sostenido
▁cocaína
▁orgas
▁apuest
Ni
▁órbita
▁dirigen
dil
▁guardado
▁aproximación
hon
▁Quisiera
▁semejantes
▁Alar
▁currículum
▁61
ezco
▁noci
▁evolucionar
etario
▁Cav
▁bendi
▁dependientes
aduría
▁dijimos
▁Hungría
▁comunitarios
▁pape
udor
▁inmobiliaria
▁Observatorio
pí
▁vivas
▁zur
▁ejecutado
▁$1
▁liberado
▁Adolfo
▁someterse
▁reinado
▁170
▁depil
▁Argentino
▁orina
▁Key
▁Long
▁curiosos
▁rio
▁durmiendo
▁escalada
▁visitando
▁despacio
▁apostando
▁Betis
áce
▁fortalezas
▁cansada
apas
▁Ander
▁mochil
▁dejara
▁orillas
▁consultora
▁BBVA
▁Bl
▁Usa
▁tronco
▁diges
itivo
▁cúpula
▁Laguna
íticos
▁mineros
▁significaba
iares
▁idiota
▁inusual
▁desnudo
▁ingesta
▁25,
▁generalizada
éndolos
▁Ár
▁latina
▁soja
▁posibili
gogía
aton
▁verb
ái
▁superficial
▁cómodamente
SO
▁aportado
▁tip
▁descendientes
▁suavemente
▁Cosas
▁Jenni
▁filósofo
uman
▁legislador
Puedes
▁Plataforma
▁Dem
▁asistieron
▁Ry
▁esperada
▁Forma
toriamente
▁inquil
▁Viejo
▁proveniente
▁RO
▁ternura
ENCIA
cionismo
instein
peras
▁pañales
▁canon
▁sexy
▁reconozco
▁Prepar
▁Observ
▁originalidad
▁cuidando
▁Pamplona
▁Femen
▁falsi
▁Bautista
edy
▁firmes
▁delegados
▁Crear
▁Concl
▁Magdalena
▁periódicamente
ADOS
Alguien
▁Florencia
onales
turalmente
▁gestación
▁Méndez
▁patologías
▁apareciendo
presidente
▁espíritus
iba
▁fracción
▁Ginebra
▁traición
commerce
▁contextos
▁Rue
▁acumular
▁75%
▁tristes
Ci
▁conservador
▁Stephen
▁surgieron
▁carbohidra
bidos
▁conocerse
▁umbral
Bueno
IÓN
▁Linked
▁micros
▁profesiones
▁Inc
▁hispano
▁ladrón
▁salvajes
▁cantantes
▁Trinidad
davía
▁Galle
arto
▁Nacho
▁grav
▁sucio
▁asignaturas
▁persu
▁Definitivamente
▁Kit
▁conoc
▁desarrollos
▁contenedores
▁conciliación
▁deform
▁leen
SL
▁tapas
▁Tren
▁recuerde
▁hidrául
▁combates
▁muestre
▁enmiendas
▁tiras
▁Natalia
▁vest
▁elijas
▁jajaj
ence
▁agilidad
cante
bay
▁cepillo
▁Stra
78
▁relajarse
utbol
▁registrarse
▁Sistemas
▁derivadas
▁homolog
▁Punto
▁MÁS
uig
▁Reda
▁Polo
▁ésto
▁expulsado
▁prostitución
?-
▁recorre
▁extraordinarias
▁patología
▁metabolismo
▁Andes
alizador
▁(+
▁sufra
▁socialmente
▁ní
▁Tema
▁alimenta
▁demócratas
▁homosexuales
▁Ciertamente
iremos
vilidad
▁judía
▁Sino
▁espir
▁cualita
▁escuchan
▁cañón
▁EFE
▁atmos
▁Investigaciones
sus
▁ató
▁Verdad
▁entramos
▁volverán
▁porcentajes
▁Bell
ARIO
▁márgenes
▁Ye
▁designación
▁fijas
▁apostó
olin
▁fusil
▁cotidianas
▁contraseñas
▁Estatuto
▁temores
▁Posted
▁acabas
▁impiden
▁precisos
▁viajando
ficada
▁concentra
▁XII
▁mejoría
▁escondido
▁debida
rias
cultural
▁Pascua
▁gradualmente
▁puramente
▁obtuvieron
▁Jud
▁med
▁Petro
▁absorción
casi
IOS
31
▁lien
▁casero
élica
▁veterano
▁sop
▁Yuca
tify
▁86
▁cív
▁moni
▁pincel
▁partiendo
▁integrados
▁Mah
▁soportes
▁Nombre
▁Uso
erry
▁persigue
▁conformado
érf
▁semá
▁Apertura
▁Papá
▁recuperó
▁creyendo
▁transformado
▁Watch
met
▁Contamos
▁Prado
▁Bruno
49
▁dueña
▁Género
TIC
▁Cerca
▁bené
▁Aur
▁OR
▁anticon
▁rituales
erense
▁encantada
▁Arias
▁cupón
▁viajan
▁acertada
▁secas
úd
▁lotería
ticar
▁principiantes
inetes
▁resultaba
▁Colum
▁concurs
▁señorita
▁Conver
▁Lugo
ócrata
ão
▁Solamente
▁arresto
▁republicano
▁deshacerse
▁Alejandra
▁utilizaron
▁Caballero
▁escapara
pete
▁apto
▁guionista
▁gobernante
▁triunfar
▁juntar
▁auténticos
▁Ibiza
▁marchar
▁suplemento
▁suspendido
PER
Jo
glo
▁significó
▁expuestas
ments
▁húmedo
▁traducido
▁Mr
▁wifi
▁químico
▁Jour
▁Proce
▁DNI
war
▁Endesa
undan
▁CB
▁activación
▁ordenada
▁cocción
▁relajado
▁Armando
▁abogada
▁Sego
▁diploma
▁admisión
▁ensalada
▁alfabe
heimer
▁1%
tarra
▁Respuesta
▁grosor
▁gad
▁amorosa
▁docena
▁24,
▁predetermin
▁feed
▁fisio
▁reembolso
▁almend
▁indicaron
▁feminismo
▁tapar
▁piratas
GP
▁disfraz
▁palma
▁acordes
▁consultoría
▁progresos
mino
▁Jr
▁proporciones
Fran
▁franja
▁Davis
▁circo
ject
▁cónyuge
▁1.5
▁Pun
▁recogen
vatar
▁Stal
▁Vlad
▁liderar
ueces
79
▁MO
alth
▁textil
▁Queda
▁caracterizado
iedad
▁Lady
▁veran
▁ferias
▁amistoso
▁definidos
▁rug
▁correa
Era
GE
▁carecen
▁quiebra
ímenes
éstor
▁Io
ADOR
▁depositar
▁majes
▁ayudarme
▁Residen
▁consuelo
▁introduc
▁Vélez
▁faltó
▁admir
▁frenos
▁mítico
▁cualidad
▁lev
▁funcionaba
▁acoge
▁rendimientos
▁Román
▁descubrimientos
▁Colonia
▁juzgados
ION
▁enven
▁describen
▁secuela
▁Coca
▁causada
▁respondido
ñan
▁combinan
uró
▁opositores
▁Bellas
▁ventan
secretario
▁Beatriz
turar
amina
TML
▁intercep
▁nieto
dear
▁Royal
▁imaginas
▁euf
venidas
▁Much
▁ofensivo
▁colester
▁concentrado
▁pusimos
▁Emer
▁excepcionales
poder
▁Reno
▁perdí
▁apri
▁regulaciones
▁faceta
▁lógicamente
▁vici
▁emocionado
isimo
▁Antiguo
▁hablé
▁fro
▁Templo
▁cesión
▁Chia
cibles
▁Hogar
▁empiezo
▁AB
▁Cay
▁-¡
▁quedara
▁Book
▁inestabilidad
▁vinagre
inería
▁vacas
▁Justin
▁cinematográfica
▁Pis
▁ofrecerle
▁Juana
▁colesterol
Or
▁encontre
▁Micro
▁problemáticas
▁párrafos
▁Solici
▁elija
▁presuntamente
▁perfum
▁mediana
▁Lewis
▁preocupada
km
▁Esperemos
▁subven
▁irres
▁deberemos
▁pacífica
▁Gian
▁neoliberal
▁Quién
▁escribía
▁ánimos
demo
▁Comenzó
▁Basta
▁islam
▁crezca
▁Emma
olis
▁infil
▁FBI
▁Bry
ój
▁volvi
▁Colec
▁desembol
▁luchan
▁dirán
ING
▁enviando
▁sospechosos
▁presumir
▁puntualizó
▁agarre
▁refería
▁inédi
▁complicidad
▁califica
▁duran
▁complicadas
▁comparativa
▁franco
▁enfoques
▁automati
▁escuchaba
trick
viado
▁deseada
▁inocentes
▁Sindica
▁duradero
▁Cumbre
▁resume
▁Redes
ajust
donado
▁nobles
▁encargan
▁Ningún
giles
▁absorber
▁jurídicos
▁cría
tum
piros
▁dorada
▁impreso
Ay
▁ingenio
▁aba
▁carbohidratos
▁Alz
▁liderado
erie
▁pasajero
urbios
▁criticado
▁comunicó
▁respeta
▁implí
▁aumentaron
▁monitoreo
▁anunciaron
▁preparadas
▁aprovechan
▁Hero
▁Tem
réis
▁balas
▁duque
▁Athletic
▁basándose
▁inmort
▁vintage
▁Partes
▁lava
▁fenomen
▁ye
▁gratific
INE
reste
▁precauciones
▁gradual
▁gravemente
▁incondicional
▁inher
▁experimental
▁boleto
▁Señal
▁trofeo
uston
▁predio
▁abrirse
▁asistido
▁almacenes
▁subidas
▁localizado
riz
▁stand
▁melodía
▁Huesca
▁tutor
▁altavoces
▁tibur
▁diócesis
▁tubos
▁león
chados
UT
iela
▁Serv
▁calibre
Dis
▁rechaza
▁nacieron
▁tragamonedas
▁pagas
▁izquierdas
▁autopista
▁superioridad
▁partí
▁urgentes
▁50.000
▁velar
▁parlamentarios
▁aconseja
▁Hur
▁metodologías
ités
▁muchacha
▁Acá
66
▁jajajaja
tiro
▁aseveró
▁plasmar
▁National
▁documentales
▁encontrarlo
▁fiscalía
▁íntima
▁Juven
▁transferir
▁tomaba
▁acreedores
▁obrero
▁mutuamente
▁Rubio
zer
▁But
▁Producto
▁calificaciones
▁formalmente
▁adelgazar
▁compil
▁tanques
''
▁Serrano
▁paran
▁poetas
▁Miss
cm
▁guardi
▁Cabo
▁asequibles
▁séptima
quillas
timar
▁haza
Cor
veda
▁Edgar
▁atribuye
▁destinar
▁replante
▁consistía
▁2-1
▁tropical
▁microondas
jillo
▁indignación
uelen
▁rar
▁Explor
48
▁deslum
▁mercad
donesia
íferos
▁telefónicas
▁silue
▁seguidas
▁Fuego
▁negado
▁alarmas
▁implicaciones
▁EUR
▁dirigía
▁subsidios
▁genere
▁orgánicos
Ad
eci
cub
▁ajenos
▁seré
▁obispos
▁partió
▁remonta
alos
▁alterar
▁funcionado
fet
▁tratara
▁pulsar
▁recibidas
▁preguntarse
▁altitud
▁caseros
▁Adicionalmente
▁casada
▁Lugar
grados
▁adoptadas
▁informados
▁Alb
▁important
▁peculiaridades
▁escaños
▁harían
▁beneficiarse
▁mantengan
▁ceremon
ariana
▁vacíos
▁prórroga
▁Miles
▁presenciales
ércitos
▁inclinación
▁gallego
▁Jaén
▁Promoción
▁Janeiro
▁pague
▁amabilidad
▁escuchas
▁cortinas
Go
tánico
▁concede
eche
▁reclu
▁legítimo
▁insistir
3).
▁Soria
▁Opinión
▁embri
jadas
▁preferible
▁ubicadas
▁ana
▁cirujano
▁Estuve
▁Estrella
▁reab
▁adjunto
▁Néstor
▁rebelión
▁inmejor
▁Hablando
▁resguard
▁perjudicar
bado
▁otorgó
TRO
▁carpin
▁limitados
untas
▁podés
▁3-
▁terminada
▁distanciamiento
▁Cielo
▁Empren
▁verteb
▁elevadas
▁Tucu
▁segmentos
andante
▁parlamentaria
▁EU
▁paleta
▁cabez
▁englo
▁alér
▁Inicia
▁adoptó
▁fabrica
▁generada
▁serpiente
▁Mala
▁cate
▁concedió
velo
▁formaron
rándose
lula
gaz
▁Acep
▁Bernardo
▁objetiva
▁actuó
▁Tos
▁Seat
▁cong
▁araña
▁Lago
▁disciplin
▁clari
▁alcanzaron
▁menús
▁Singa
▁SMS
quet
▁concedido
▁célebre
nik
▁católico
tificaciones
▁Neu
mall
▁air
▁conservadores
▁defienden
anual
▁contradicción
▁Cáceres
▁partidarios
pilar
▁intercambios
▁sábados
▁susur
▁reconciliación
▁agobi
non
▁Protocolo
ñó
▁fósiles
END
▁lineal
▁Cook
▁Felicidades
▁(9
▁TU
▁apoyó
▁Ryan
▁Gio
▁innovar
zaban
▁químicas
▁insos
▁razonamiento
▁Conde
eño
▁experimentando
▁transformó
▁Integral
▁pizza
▁Paseo
▁urbanización
▁Putin
▁Time
▁propiamente
▁liberales
▁parientes
▁plomo
▁Democrática
▁Mega
▁discapaci
cione
▁desechos
trados
▁subsidio
▁tormentas
▁fabricados
▁ralent
▁divertirse
▁Contr
▁SAL
▁hebre
▁indicada
▁Llega
▁Ingres
▁diferencial
orts
▁Wikipedia
▁infinita
▁bruto
▁trabaje
▁fotográfico
ih
▁brevemente
▁impidió
▁startu
▁organizan
▁jubilados
▁Maya
▁cargada
▁caprich
rosión
▁nut
▁destruido
▁seda
▁hostelería
Val
▁invernadero
folio
sales
▁pig
▁antibió
▁Luisa
▁Wilson
▁dog
▁Hernán
▁iconos
▁transcurrido
▁endure
▁instaló
seguridad
▁Nas
▁Productos
▁selecciona
▁comisaría
▁tím
▁armadas
▁disimul
▁Catalina
▁Nig
▁dotación
▁ramo
▁empaque
Gu
▁enfocada
▁vibración
▁pizarra
▁saltos
lexión
▁perver
▁inoxid
▁【
▁sentirme
▁Ojo
▁cuadra
▁alineación
timamente
tomía
▁editado
polis
▁avergon
▁Comercial
▁Hacia
▁sinfín
▁conocían
▁vacías
▁avisar
▁extor
▁Yucatán
▁Law
▁Nave
▁indicación
▁alent
IDO
fí
▁leves
ament
▁Nelson
▁comentas
itana
▁bañera
▁aceleración
éticamente
tativa
▁cooperativa
▁sobrino
▁Especi
▁Haití
▁finaliza
▁asegurarte
▁holandés
▁Reun
▁cometió
▁23,
▁79
▁imaginario
▁Simp
lips
▁ordinario
▁reorgan
▁fertiliz
thony
ólicos
▁amigable
▁sentencias
▁ligeros
▁PRES
▁animados
lete
▁convento
▁lanzada
▁chiste
gramos
▁imprev
▁definiciones
▁echarle
▁Ninguna
▁diente
▁encontrarán
▁encabezado
▁1991
▁matemática
...?
▁ocurría
▁inventar
▁laber
▁conozcas
▁91
▁pulmón
▁asfi
▁Jerez
▁insultos
▁anhel
ijón
▁descif
▁ortodo
▁cortado
▁Estadística
▁Tenga
▁bizco
▁false
adar
▁Puig
▁intercon
▁Gig
▁llanto
▁papas
▁idóneo
▁mario
▁sentenció
▁Sabía
sell
▁guardan
▁campeonatos
▁Gallar
▁lavan
RES
istentes
▁distribuidor
▁demol
▁optó
▁cerrando
▁Anto
▁aprobados
▁1989
▁hidratación
▁aumentará
▁sedes
▁Mila
▁garantizan
▁defendido
46
¡¡
▁proporcionado
3),
Do
▁echó
Na
▁Elizabeth
▁clínicos
▁catástrofe
▁Albacete
▁hubiesen
▁expedientes
▁Neymar
▁encaja
Emp
▁mancha
▁Viz
▁comunistas
idados
tx
▁Podríamos
▁pedazos
valos
▁ejecuta
▁albergar
▁solidario
▁inquiet
▁harás
▁arranca
▁secar
▁nicho
▁ingresado
▁Snap
▁run
uk
disciplin
▁novedoso
eli
▁formular
▁Juez
▁contaron
endar
▁4.000
▁lub
▁explicaba
▁sumaron
▁quitado
▁WiFi
▁Cabrera
▁dil
chuf
▁defenderse
▁fuesen
▁grises
▁nór
▁indo
▁pensada
laterales
▁productivas
igen
rase
▁mecánicas
▁averigu
▁furgon
▁Anim
▁librerías
▁impera
▁preferidos
▁proyectar
▁estaf
▁incomple
puede
▁resalta
ógn
▁transmiten
▁ach
▁patrio
inda
▁apellidos
▁Usuarios
▁comandos
▁hábitat
▁Pá
▁bendiciones
▁dominios
▁elaborada
▁niebla
▁cabida
▁utens
mín
▁estimulación
▁galardón
Cuántos
▁Políticas
▁vehic
▁enmienda
▁Award
▁susto
JE
▁SOL
▁siembra
▁latinos
▁mexicanas
▁pesim
▁sam
▁Cortés
▁Histórico
ÁN
▁criticó
nic
four
▁Sín
▁recogidos
▁escriben
▁agarrar
▁inso
▁evolucionando
▁Life
▁Kate
▁pabellón
▁pelicula
blas
sólo
▁giras
▁confiado
▁Frances
▁belga
▁fotográfica
▁grabó
▁Arena
▁Esther
▁fertilidad
▁entretenida
▁recaudar
▁caldo
▁encajar
pulo
▁octavos
▁simpatía
▁confirmaron
fue
didades
▁Lleva
▁poderosas
▁circula
▁llevados
acón
▁Oliver
▁retrasos
quien
▁Hoteles
ésemos
▁alojamientos
▁frágil
▁exi
ésel
gables
▁investigado
cuentro
▁eternidad
▁gasta
▁necesitaban
udar
▁manager
▁naturalidad
▁importan
▁compartirlo
▁escuchamos
emon
▁mediática
▁diccionario
▁formados
ríamos
▁Literatura
▁desapro
cres
▁sorprendentes
ajua
erne
▁autorizados
vard
▁Construcción
▁repito
▁spo
guración
▁minera
▁Beat
▁trasp
amentales
▁solidaria
▁perdidas
▁disfrutamos
▁hidrógeno
▁situados
▁aparezcan
▁resurrección
dell
▁cantera
▁mecánicos
▁Baleares
▁Romano
▁soñado
▁detecta
▁inoxidable
▁Fotografía
idó
▁cenizas
▁engran
▁EST
▁procura
▁profeta
▁30.000
ciable
▁Utiliza
▁reelección
fran
▁Filipinas
▁subasta
▁veteranos
▁antaño
▁delanteros
▁Jennifer
▁Coun
▁andaluz
▁terminamos
▁golpeó
▁veloz
▁admirar
▁Guarda
oacán
▁desembo
▁consistencia
▁quitó
▁valía
▁secuelas
▁Enc
▁señalados
▁cogido
▁medicación
onada
▁incluirá
ichos
▁preguntamos
▁residencial
ículas
▁visiones
▁turco
▁ecuación
▁sentirnos
incluso
▁vere
▁procurar
▁sumo
▁coser
▁calcio
▁HTML
▁plur
00,
▁jugamos
▁~
rene
gement
▁payas
▁progresivamente
▁drones
▁sistemática
▁Menor
▁Memoria
▁revelan
▁1999,
▁Maldonado
▁desl
posiciones
▁Patria
▁COR
▁nazis
▁Sede
tuosos
anista
▁responsabil
▁satisfactoria
▁bajista
▁Bayern
▁Lit
éxico
▁Conn
▁sugerir
▁IMP
▁guitarrista
▁Modelo
boy
▁sustento
▁FO
▁73
▁pit
▁Cog
▁lío
▁ayudamos
birá
▁entraba
▁vencido
▁Abel
▁maldita
▁ausente
▁pensarlo
▁estuviese
▁encla
▁Isaac
▁estúpido
▁alertas
▁oí
▁Acceso
▁importaba
▁dilema
▁carpetas
▁mamás
huahua
▁calificar
▁capitu
▁Izquierda
▁Consulta
▁mejore
▁Debería
▁dúo
▁evitarlo
▁Angeles
▁enti
▁valientes
▁desempeña
▁maris
▁fármacos
▁desprecio
sabes
▁MAN
▁relacionarse
▁High
▁Lion
▁equivocada
▁empuje
▁azu
▁versatilidad
▁Isidro
▁MAS
▁Andy
▁Qa
▁vencimiento
▁conocimos
▁ocultos
▁proporcional
▁implican
...),
▁leña
▁concesiones
▁Mach
Hz
▁Profesor
▁contaban
▁identificada
▁peaton
▁envenen
▁Aleg
▁máximas
▁oportuna
EB
▁Mec
▁Siglo
▁delgada
▁Software
▁suen
▁Evita
▁secretaría
▁defendiendo
CC
▁chofer
▁nacida
▁ticket
▁1.0
isfer
▁Puesto
▁ESO
▁retroalim
liqué
▁Ill
▁dispuestas
▁masajes
trada
▁llamaban
▁Nissan
▁Spotify
▁alejarse
uce
▁imputado
▁aviación
clan
▁teletrabajo
▁Oriental
▁Impres
▁Campeones
gate
▁gobernadores
▁consiga
▁cuaderno
itness
▁útero
▁Gabinete
▁silic
▁holan
allo
▁oriente
▁cruci
bit
▁olvidad
▁viuda
gulación
tré
▁INF
▁Raquel
▁2005.
▁abastecimiento
▁tesoros
▁2,5
▁composiciones
kov
zoso
▁Escucha
▁exitosos
▁debieron
▁tácticas
▁trascendencia
▁Peque
▁incógn
▁arb
▁More
▁hegem
▁termo
▁ventilador
▁orn
ESCO
▁heredero
▁formularios
▁bancario
▁perturb
▁defensivo
▁cazar
vit
▁moderado
2]
▁COMP
▁clasificados
▁adornos
▁aumente
▁acude
▁asumido
▁itinerario
▁ecosistemas
▁pelis
▁guitarras
▁sende
▁Land
rense
▁Juntos
▁sacrificios
▁Metropolitana
▁Levante
▁goza
▁postres
▁plumas
▁docencia
▁veras
▁aprendizajes
▁Llor
▁modernidad
▁flecha
▁configuraciones
▁moviendo
▁Jacob
▁excesos
onetas
▁normativas
▁biología
▁lata
▁Arist
nea
▁venas
▁impedi
▁Pop
lén
rit
▁Dead
▁deducir
▁desenlace
▁factible
dist
▁noroeste
▁enriquecer
▁extendida
▁caudal
▁cuartel
▁Wii
▁Libros
▁<
▁conservan
▁canasta
▁82
▁focos
vale
▁Vuelta
▁estrena
▁alternativos
centes
ARA
▁arca
oman
▁Squ
▁Comunicaciones
▁derrotado
▁TRA
▁usualmente
▁implementado
▁milen
▁lanzaron
Ho
▁ecológicos
▁estadía
▁mediciones
▁canciller
▁Secund
▁artesanos
▁Duran
▁desacel
▁Comunista
abezas
▁Violencia
88
▁añaden
▁Beach
▁Descub
▁Clinton
▁afectará
▁cooperativas
▁correspondencia
▁precedente
▁táctil
▁biológica
▁Disfruta
hoo
▁domésticos
▁Singapur
▁Pró
▁zombi
▁Incre
▁disminuido
▁pájaro
▁Kn
▁simulación
▁Antio
▁pretender
▁REC
▁lamentó
▁arraig
▁imitar
vadas
inarias
▁asamble
▁remuneración
▁Kid
▁boxeo
▁endo
▁informativa
▁completó
▁ambulancia
▁aguja
fox
onto
▁parlamento
▁deshidra
▁single
lines
▁Gregorio
▁marro
▁conduci
mic
▁Consultado
▁quedarnos
▁continuado
Bien
▁descripciones
tinal
▁pronos
idane
▁explicaron
▁kirchner
MX
▁damas
▁utilicen
tain
▁dividida
dizaje
▁dejaban
▁videoc
oral
▁Marín
day
▁ése
▁Compan
▁dirigencia
▁apariciones
▁historiadores
▁geométr
vita
▁Banda
tuve
▁96
▁1970
▁biodiversidad
▁esculturas
▁psicólogos
▁confiesa
▁negativamente
▁vola
▁erig
▁Chelsea
▁múltiple
▁utilidades
▁taquilla
▁Salta
▁aconsejar
▁Hall
▁podáis
▁terminará
▁(2)
▁Ejemplo
▁Médico
▁ovejas
▁interrupción
▁asombro
▁dimin
▁estrechamente
▁garra
▁Anthony
▁transportes
▁techos
▁mantenerlo
▁aplicará
▁golpeado
▁mandado
▁Comienza
▁perdonar
▁recorda
▁Cierto
▁imaginado
▁perfume
▁Amigos
▁leido
▁modifica
▁Cabil
áculo
▁psicológicos
▁traerá
▁plagas
▁impotencia
▁SUV
▁iner
▁despidos
▁entretener
▁sic
▁imperfec
eños
▁estall
tiza
▁llamamiento
▁Coordinación
▁reciban
▁collar
eal
▁expuesta
ram
▁nazi
▁procesión
▁Goya
▁Enferme
▁Comenz
▁causados
▁Seis
▁acné
▁Alrededor
▁tuyos
▁McC
▁Bis
▁agradecida
yd
enciada
▁ahorra
bridge
▁recarga
▁digit
▁registran
▁mangas
▁investigadora
▁Aérea
▁ligada
▁Bomberos
▁guapo
▁Base
▁insoport
zen
▁%.
icado
gaban
▁ángulos
▁disfruten
▁dobla
▁are
▁enfermeras
hue
▁aceptada
eroides
ánime
ducto
▁entregaron
▁DA
▁recompensas
▁santuario
▁suscriptores
▁Cáncer
▁Evo
▁Eze
▁compramos
▁ingenu
▁etiquetada
▁dramática
óstol
▁minorías
▁llevarte
▁cedido
▁Segovia
▁3:
▁salían
▁Octa
▁FR
▁miramos
▁50,
inamente
▁espaciales
▁distribuidores
▁consigues
▁radicalmente
ele
▁71
▁sigas
▁disfraces
▁Series
▁exclusivas
▁medicin
▁jugaron
▁recopilar
uertas
vuel
▁empuj
▁Acom
▁contraer
▁Juvent
renta
ampe
▁huérf
▁trin
As
▁Corri
aná
dromo
▁contractu
▁ético
▁desigualdades
▁extremas
▁aterrizaje
▁Casta
▁Estrategia
▁CIA
▁inmedi
Madrid
vang
▁jar
▁Palabras
▁nido
▁Buscar
▁teleno
▁Josep
ficas
critos
▁adhes
▁emisora
etafe
▁suavi
▁autode
▁norteamericanos
kea
▁obtenga
▁cargador
mentado
▁Bluetooth
▁abol
▁corporativo
▁manualidades
▁2000.
isas
▁Piñera
▁Gabri
▁doctorado
rigor
▁seguiré
▁analizó
guerra
▁arbol
▁Arquitectura
▁2%
íjate
▁enj
▁cuantita
▁mago
▁salgo
▁dolorosa
▁compartidos
▁Office
▁estaríamos
▁regaló
▁Potter
iros
uado
▁vecinas
€,
▁3%
▁??
▁pondría
▁paraguay
▁Labora
▁anomal
▁torpe
▁inscripciones
▁coyuntura
▁reinici
▁enér
▁Simon
▁ocasionar
rudencia
▁Voz
▁expresan
▁simbólico
▁hash
▁sugirió
▁comerciante
▁Presupuestos
▁HP
lova
▁Augusto
▁compresión
▁biológico
▁empleadores
▁realismo
▁Siete
▁mango
ligencias
▁acompañando
▁Miller
▁atravesando
▁podria
▁3.-
▁navideñas
▁misiles
▁escuadra
▁bende
▁confirman
▁ilustra
▁anhe
rosas
▁ET
▁ascender
wal
losa
▁Saba
leros
▁Elías
▁realizaba
▁PV
▁simula
▁abonar
Hace
▁coge
▁Mariana
▁encontrarnos
»..
▁Considera
▁mediático
rela
▁pica
▁resbal
▁ofrecidos
▁Americana
▁sospechas
▁Café
▁marchó
▁duradera
▁Pav
▁desarrollador
▁Maj
▁impartir
▁Box
▁ocupando
▁mayormente
▁desarrollaron
▁estableciendo
▁clínico
▁sinceridad
▁anar
▁obrera
▁Gijón
▁cañ
sado
▁esperados
▁conseguí
▁repercusiones
▁rod
▁tv
▁Darío
,000
▁estereotipos
▁cham
▁consumi
▁%,
▁Vox
▁audiovisuales
▁hallado
▁aislados
▁Viernes
▁proyecta
▁garantizado
▁desol
▁avalan
▁volveré
▁Escobar
▁Actividades
lim
▁machista
▁senos
toshop
▁UP
▁coin
GU
uida
▁trabajas
▁arrestado
▁escru
rina
▁Déj
psis
▁convocó
▁libera
▁terrazas
▁›
▁capturado
▁debiera
▁agotado
▁tributaria
▁valiosos
▁mentalmente
▁Título
▁Pros
▁enviaron
▁South
coa
▁Palestina
▁estatura
riéndose
▁amortigu
vé
▁DS
▁peruanos
▁colorido
lear
▁agrupaciones
▁demócrata
bran
▁vería
▁22.
▁homogén
▁fé
onesa
▁Podéis
▁quitarle
▁refuerzos
▁irrever
▁remodelación
▁incorporó
▁espejos
▁bate
▁traum
▁dejarla
▁Lola
▁himno
▁riv
▁Dejar
carb
▁preguntaron
▁algoritmos
▁penalti
▁celebrando
▁delgado
▁rubia
inario
▁Número
Mon
▁jugadoras
▁estudiantil
▁espes
▁escuche
▁prohíbe
dig
alidades
▁Precio
▁Celeb
▁sexualmente
▁ray
parable
▁subieron
▁vernos
▁yogur
▁entro
▁Zidane
igna
▁abarcar
▁huele
▁DIS
▁tuviese
▁suene
▁palestinos
▁cohesión
▁boletín
▁afines
▁tocan
grano
dalos
▁Indonesia
teto
andy
▁aprecio
▁haberle
▁felicitaciones
▁redactar
▁oso
▁plie
▁actualizados
▁monitores
▁prometo
▁bó
▁Rivas
▁enviada
▁irra
▁vestimenta
▁Bienestar
▁filo
▁africanos
▁vendrán
▁450
aren
zul
▁resi
▁esquinas
cern
▁conducido
▁amen
▁térmica
▁neto
▁comprometió
gento
▁Chen
▁Joy
▁Nazar
▁aspirar
▁sillón
▁rige
▁contradicciones
vestre
lege
▁Edición
▁madura
▁abundantes
amon
▁Sarah
▁subraya
▁ajenas
▁―
▁borrador
▁técnicamente
▁Gom
▁revolucionaria
macul
ertas
phy
▁convin
▁vergon
▁CAP
▁parking
oreste
▁Sep
▁instin
▁forzado
▁haberte
74
▁travesía
▁insur
Somos
▁cotiz
▁Tucumán
guro
▁estricta
▁leía
▁buscaban
ticidad
socia
▁maniobras
▁aleja
rick
▁atmosf
▁matrimonios
▁Marcel
▁cuestionar
▁desacuerdo
río
▁Amaz
▁Partici
élico
▁confesión
billas
▁abandona
cándose
▁hablaban
▁higi
▁flamenco
▁saltó
▁comunitarias
▁antepasados
▁arrepi
étaro
▁cuenca
▁especifica
▁carnaval
óticos
▁trampas
▁derma
mela
▁jes
▁trataron
▁Curiosamente
▁bromas
ctel
▁Planeta
▁lubric
▁repun
▁inesperada
erba
Col
▁Note
▁saneamiento
▁Artículos
gata
▁teclas
▁maldito
▁Mamá
▁inspirada
burg
▁lent
▁ligeras
▁recto
cord
▁limpios
▁saliera
tella
elo
▁musculares
▁agresor
antemente
▁perderte
▁GO
dd
▁sustituido
▁Salinas
▁justos
pping
▁auxiliares
▁GP
▁tirada
▁destacable
▁AFP
gad
▁brig
sticamente
▁Oran
▁rezar
▁continental
íble
▁legitimidad
chain
▁PH
▁Teo
▁creían
ustro
▁sonrisas
▁prolong
▁VIII
▁cui
▁interpretó
▁recibía
▁Fol
▁desta
▁descubrimos
artén
▁debili
▁experimenta
estial
▁marinos
▁busquen
▁Ariel
▁Dio
cima
▁donantes
▁pertenecía
▁tribus
▁frías
EZ
▁dejarnos
▁rond
▁89
teur
▁hostil
▁infinitas
jimo
▁cruces
métr
▁invitaciones
▁tributo
▁intensas
citamente
▁Testamento
▁Ultra
▁terminé
manuel
▁Muse
ENTO
▁inmunidad
▁perif
▁viera
▁Digo
▁Num
▁sacrific
▁Operación
▁prolongado
▁perjuicios
POR
deste
estra
▁Cecilia
CL
▁plural
iadas
▁bits
▁eliminando
▁Corpora
▁pechos
▁Jimmy
▁voluntariamente
▁Carlo
▁traducciones
▁cardenal
▁reducidos
sica
▁tutoriales
▁expresarse
▁colaboraciones
trabaj
▁limitadas
▁acompañante
▁doctores
▁acordar
▁fat
▁Ambiental
▁adquiriendo
▁cera
▁auda
▁Mata
dental
▁Houston
bueno
▁diosa
▁ladrillo
▁ácidos
▁rebaja
lock
▁Valverde
tarme
▁Grado
peo
▁generados
list
▁cannab
▁ful
▁elevación
▁plugin
▁tíos
▁tableta
Después
▁deseados
▁desal
▁rendición
▁alargar
▁andaba
▁Apoyo
▁incorporan
▁alegrías
▁rentables
▁indique
Muchas
▁significan
▁ayudante
▁profec
▁ironía
arrea
▁raros
▁desenf
▁seren
hace
▁riquezas
▁expro
▁fijación
ÑO
▁pida
caristía
▁Gabriela
▁Info
▁adhi
▁llevara
▁determinan
▁AV
▁Croacia
▁agresiva
▁recuento
vey
▁Cuán
▁enfrentado
▁tiró
iat
▁Jac
▁LGB
▁365
▁ginec
▁rebelde
▁traductor
▁Directora
kh
▁amores
iy
▁Colorado
▁resultante
gonal
▁Mantener
▁Filosofía
▁recopila
▁pedal
▁requerida
▁Bad
▁turísticas
patri
▁Fotos
▁desarrolle
Cada
▁interven
bot
▁Kon
▁Enseñ
dú
▁Getafe
oC
▁asignar
▁Deben
gunos
▁leemos
▁sitúan
▁entrenando
encio
▁fiables
▁flora
▁Varias
▁arrastrar
antino
▁querías
▁ejércitos
▁torrent
▁enco
▁crono
▁emocionalmente
▁incorporando
ucción
tálico
▁soporta
▁actrices
▁peatones
▁propongo
▁dene
▁Rose
▁Sports
▁delegaciones
vira
▁Ofer
▁sartén
▁exen
▁Fuera
▁octava
▁entregan
▁ML
▁matando
▁1-0
dadora
avidad
▁Carnaval
▁informativos
▁enterado
▁Rodolfo
▁resultará
▁Jordan
▁98
▁opositor
▁Salazar
pad
▁pasarán
▁impugn
thur
▁continentes
▁perjudicial
▁desent
▁subyac
▁recalcó
ANDO
▁Entren
▁asegurarnos
▁bonaerense
▁87
▁encaje
dencial
▁mutua
▁Permite
ilios
Les
▁especul
▁Carras
▁inmediaciones
▁recibirás
▁relacionan
▁vec
▁Semin
▁apasionado
▁maldad
▁pincha
▁Ára
▁til
▁Naturaleza
▁sul
▁recorriendo
▁Mire
ize
▁irrump
▁Sanz
▁disfrutes
▁homicidios
▁cineasta
▁Bruce
▁ocurrieron
▁Bosque
▁escalar
▁subsidi
▁equilibrado
▁confrontación
▁gozo
▁sumarse
tórica
tróp
▁teórica
▁jaula
CP
▁Coronel
▁bellos
▁dinas
▁concentrarse
▁declarada
▁matricul
▁Seguros
▁Sporting
▁Met
▁Priva
roco
▁Ola
▁dejarán
▁Infra
▁carica
▁hembra
▁influencer
▁pasivo
fés
▁Elige
▁Berg
▁Montero
▁Horacio
▁Chiapas
▁cortesía
▁jal
▁extrad
▁atacado
tory
▁anestes
▁pelotas
bierta
▁empujar
▁ganamos
▁alfombras
▁quie
▁coe
iche
▁enrol
ceramente
ptos
▁carnet
▁integrales
▁raya
▁patentes
ajuato
▁casados
▁haciéndose
▁brotes
tivismo
▁Philip
▁combustión
▁llamarse
▁supresión
▁separada
▁Kenn
▁contienda
▁hala
▁1990,
▁""
uty
▁Islam
erras
▁cobar
▁Portal
▁presuntos
▁OTAN
▁franquicias
▁motocicleta
▁Prime
▁00
▁Premium
▁federación
sider
▁inversa
tuber
▁devuelve
▁Studio
guesas
▁Whatsapp
▁boom
▁recomendada
▁pertenencias
▁Cabildo
▁correctos
▁petrolera
▁acumulada
▁observan
▁Barb
▁Padres
▁piedad
Él
▁espiritualidad
toriedad
▁Harvard
issa
▁inventado
▁enteros
▁cosméticos
▁afecte
▁célula
▁involucrar
▁citados
▁Hermandad
▁componer
▁manzanas
▁PRD
▁Querétaro
▁disuel
▁abandonados
▁visite
▁Stone
▁profundiz
▁80,
▁tontería
▁preparativos
▁Lozano
▁parecidas
▁Oce
▁ordinaria
▁Young
▁instala
▁reconocimientos
▁llenan
▁Depende
▁gestores
gets
▁tenerla
▁Negra
▁Ninguno
▁mataron
▁manta
▁creído
▁comprensible
▁envej
quismo
▁Solar
▁sintonía
▁conceptual
▁indiferencia
▁Here
▁publicitaria
▁Fro
▁consecutiva
▁cancer
▁conejo
▁labi
▁verlas
▁eri
▁catedr
▁cierran
▁cálida
▁mitología
arch
ecimiento
▁mansión
richo
▁inces
▁colocando
▁XIV
▁inspi
▁Golfo
▁existió
▁oficialismo
▁rotura
peda
▁fractura
lices
69
▁inne
sibles
▁dramático
▁estratégicas
▁dictador
▁Vila
▁Cárdenas
▁burgues
▁apasiona
▁entendiendo
▁estadios
▁disfruto
tedra
▁progresión
▁trabajen
▁apasionante
▁fuegos
▁estimula
▁comisario
ols
▁consent
▁envuelto
ichi
▁Anun
▁deno
▁nombra
▁titulo
▁calib
▁conseguirás
▁mármol
▁Manolo
▁erradicar
gueros
▁fragmento
▁Irene
▁articular
▁motivaciones
▁aseguraron
▁frentes
▁traga
▁paró
▁estigma
▁pronunció
plas
▁multinacional
▁centran
▁barbar
▁indispensables
▁adquieren
▁respir
▁zapato
▁aludi
▁diseñadora
▁pse
▁relu
▁incapaces
ckey
▁Carol
▁Doug
▁Pakistán
▁meramente
▁planear
▁abejas
▁parás
▁invierte
▁impregn
▁vislum
▁compensa
▁inaugurado
ríe
cript
▁IT
cionarios
▁Procuraduría
▁CM
▁observamos
▁vibraciones
▁secuencias
▁aportó
▁detective
▁UD
▁flui
▁precoz
▁bati
blemas
▁accionar
▁Checa
▁cráneo
▁pureza
▁cascos
▁suelto
▁Journal
▁representaba
▁Norma
▁esplén
▁Chihuahua
▁contenedor
▁enteras
arlas
▁intersec
▁asegúrese
▁Georgia
▁salvado
▁internado
▁1985
▁181
▁contrarrestar
▁publicitarios
▁aprendan
▁sellos
▁oficios
▁femeninos
▁tomes
▁Nou
▁adjudicación
▁décima
▁masacre
▁respondiendo
▁Vino
▁adaptada
moso
▁semifinal
-15
▁sell
▁chaval
▁bajan
ns
▁Nuevas
wski
▁preliminar
▁mitigar
▁antena
▁Ibar
▁póliza
▁hil
▁perra
▁estri
▁avanzó
▁gastado
menos
▁Tribut
▁organizadas
vente
▁gestiona
▁emprende
▁solventar
▁extermin
▁Jazz
▁exf
▁tabletas
▁joyería
▁desarrollará
▁significados
▁impactante
▁obsta
▁aguard
▁aplausos
bate
▁doña
icciones
▁picos
▁contenía
▁chinas
▁Sas
▁Belgrano
▁repiten
▁creyó
▁contingencia
mont
▁Trujillo
▁Ata
▁Pare
▁joder
▁Vio
▁Flash
▁bahía
▁sensibilización
▁abono
▁representados
ston
▁volveremos
▁INTER
▁trabajaron
▁Espera
icha
▁soltera
▁Guanajuato
itiva
wan
▁Dream
▁muertas
▁Satur
▁escan
▁ídolo
▁alejados
more
▁Sigo
▁alias
▁construyeron
▁yu
▁dañado
rust
tición
▁hosting
▁metálico
▁vitalidad
udes
ury
▁Dark
ily
gana
▁presunta
▁Verónica
▁utilizaba
▁escomb
▁enfrentamos
▁representó
▁provocada
▁frescas
▁Michelle
▁aho
▁hadas
▁ordenación
▁buceo
▁Fle
▁contenida
etta
▁Negocios
▁derivada
▁desesti
bana
▁informan
biana
sie
Ra
▁complica
▁nombró
▁nula
fle
▁exitosas
▁det
▁Good
▁1998,
▁mandan
▁primario
grana
▁generoso
▁VPN
▁adaptados
ixa
▁Revolucion
▁corba
fab
▁confían
▁Color
▁galerías
▁construidos
ámicas
▁reproductor
▁INE
▁medianoche
▁batir
tritis
▁machos
▁Coronavirus
▁presupuestaria
▁Wes
▁IM
▁recreación
▁2004.
▁Camilo
▁gemelos
▁Tercer
▁Entrevista
ístas
▁consejeros
▁archiv
▁aproximado
▁consigna
▁zana
▁decepcion
▁conformar
▁Audio
▁protegerse
▁spa
▁hablaron
ombo
▁Electrón
▁presentador
reta
▁adición
▁colina
▁brindó
mba
▁Estuvo
▁Concurso
fieren
▁encantador
▁adic
▁estrell
▁SL
▁Praga
garo
▁huecos
▁pozos
▁resum
▁Asunción
▁condujo
tit
▁procesado
▁apego
▁domina
uevan
▁generalizado
eidad
▁Moham
▁hipotecas
onar
drías
▁produzcan
▁veneno
▁Américas
▁Zen
▁AQU
▁castigar
▁hembras
▁entendió
ferentes
mible
chera
▁salta
▁teóricos
▁ampliando
▁maximizar
▁90,
▁malware
!...
▁incentivar
▁deser
crita
▁depri
▁entras
icom
uble
zor
▁aconsejo
▁diversa
▁desaparecen
▁economistas
ragona
ací
digo
rú
ché
▁Islandia
▁telesco
AND
▁saludar
▁unieron
kín
uters
▁acabará
▁suscribir
▁zumo
aloa
cié
▁refuerza
▁what
▁diésel
úper
▁repasar
68
▁consultor
▁cruza
▁carisma
▁URSS
▁creces
▁instalados
▁glam
▁arroj
▁lazo
▁Doña
▁pionero
▁prever
▁UNESCO
▁valió
teando
▁curiosamente
▁mole
▁volatilidad
▁juegue
▁pom
gueras
▁despedido
cún
sk
portivo
▁arist
▁eludi
▁Kas
▁sucesivamente
▁UEFA
quías
iqui
▁3000
▁movido
▁conducen
eme
rendo
▁derrotó
▁caminata
▁Valor
▁especulación
▁progresivo
▁pastores
▁Muerte
▁relevo
▁dedicamos
▁descontento
▁representando
▁escasas
▁retira
▁empiezas
▁coño
▁It
éri
pea
▁condens
áñez
▁paralela
▁corporales
▁celeste
▁pirámide
▁paternidad
▁Gim
▁prójimo
▁dificulta
▁revisado
▁traspaso
▁inco
▁Titan
Am
▁huerto
▁Descargar
▁tallas
▁desayunar
viene
▁ganadería
▁Lord
▁Jamás
▁entregados
▁programada
▁Amp
▁Encar
sulas
▁bíbl
▁barran
▁WW
▁influyentes
▁establezca
▁acelerado
▁recomendados
▁cuadras
bell
▁marroquí
▁fisc
▁Associa
▁ingresa
▁envidi
▁espor
▁practicando
▁mac
fiero
director
▁resolvió
▁recambi
▁Descripción
▁TA
▁notó
▁parche
▁satélites
▁cimientos
▁fluidez
cillos
▁impuestas
▁suprema
Podemos
▁riendas
▁barb
▁muriendo
iestas
▁colgado
▁madrileña
Book
▁sucia
▁Joven
▁aren
▁burguesía
▁fichajes
▁nas
▁cambiarlo
▁medicinas
▁Ejerci
▁escalo
▁Toronto
uyo
▁albergue
▁Hot
▁desnuda
eri
▁Michoacán
▁multinacionales
▁sembrar
▁tratos
deraciones
▁sobrena
▁Barra
▁Laboral
▁sustituto
▁Cres
▁reactivación
▁parcela
47
▁teme
▁von
▁mares
paron
▁suizo
alizará
▁Mejores
▁seminarios
▁Mam
vando
▁candidaturas
▁lesionado
▁proliferación
▁disminuyendo
▁navideña
▁Ore
ionaje
▁Sostenible
▁unidas
▁Tigres
5%.
▁renombre
▁costará
▁1986
rid
▁ponte
▁constituido
▁Tendrás
▁testamento
▁Lázaro
▁Pau
▁enseñando
▁81
▁infectados
▁Elimin
▁abrazos
▁descarta
▁drenaje
▁sueco
cuatro
▁Agen
▁Ráp
▁aplique
▁26,
▁monarca
▁FARC
sun
▁costura
▁dero
▁bodegas
▁adren
▁captación
▁masivos
▁unico
▁enchuf
▁peri
▁Gü
▁protegen
▁frescura
put
▁Inés
▁tent
▁pisar
▁transparentes
▁Eléctr
Star
▁asumiendo
▁cuestan
▁cór
▁Creador
▁dinamismo
▁restablecer
▁degen
vinas
▁Parecía
▁oponente
▁monos
▁practican
▁Asegúrate
▁fidel
▁centenares
▁polo
kan
▁encomend
▁TODO
▁Llo
▁Cambiemos
▁Celta
▁predicciones
▁Verg
▁patriar
▁Llegamos
▁conspiración
▁alimenticios
▁Realizar
▁invitada
siete
▁lastim
▁autismo
▁motivar
▁Cliente
▁rayas
▁prorro
▁peluquería
▁escapada
▁Vivir
▁animada
▁esteril
▁Express
▁calcetines
osis
▁frecuent
▁gratificante
▁Castellón
▁College
▁92
diales
▁diplomático
ology
▁perciben
▁graduación
▁verticales
versal
▁Nova
▁actuado
▁prudente
▁Switch
▁monarquía
▁Villarreal
mentados
▁avisos
▁desempleados
ternamente
▁pierdan
▁veracidad
▁fusion
▁mejoró
icks
▁audición
▁Rece
▁aprehen
▁convocatorias
tuarios
nunca
▁83
▁canje
Queremos
llev
▁individualmente
▁Fecha
▁27,
▁Juvenil
▁doblar
▁baje
▁Villan
▁moléculas
▁Escal
▁participen
▁trío
▁polémico
▁desarrollen
▁asesorar
▁Salom
cr
ckchain
▁organizador
▁adje
▁ph
▁arrastra
▁Spider
▁cueste
▁charlar
67
▁dotado
▁Ear
▁convencida
▁Work
▁atrevido
▁Johnny
▁Org
▁limitan
▁Euros
▁envases
▁electrónicas
▁servía
▁tráiler
gracias
quiá
▁querría
▁manifiestan
tete
▁Medios
▁Bernab
▁Steven
▁fenomenal
brado
isferio
▁convertiría
imenea
uila
▁seleccionadas
▁Regist
▁publicando
▁funeral
mne
laro
rima
▁inevitablemente
▁infiel
▁quehacer
▁BU
▁portadas
▁Orange
▁dicta
▁fall
Sabías
▁contracción
▁grabados
▁1988
▁AMLO
▁cazadores
▁Mexicano
▁insignific
▁Rossi
▁navideño
avent
▁Conserv
▁McL
▁Run
▁anular
▁ayudarles
cinos
▁amada
▁Internacionales
▁guerreros
▁ane
▁alojar
▁emotivo
▁tóxicos
ances
▁Alber
▁UNAM
▁llenado
▁salpic
▁cansados
▁exportar
▁carrocería
▁consultado
▁comodidades
▁secundarias
ision
▁agradecidos
▁aclam
▁valorados
▁promet
▁Caracter
▁enterrado
▁mochilas
▁Cano
▁Posiblemente
▁institutos
▁Pasa
▁forestales
bulo
▁Cursos
▁Gente
▁garantice
ticias
▁educadores
▁Península
▁noveno
▁Sorp
fron
▁misteriosa
▁tutela
▁Centroamérica
RI
▁representada
sul
▁Permanente
▁elas
factos
iko
▁Veremos
▁ordena
▁Cross
▁pulmon
▁Ilust
▁ofreci
▁revisa
▁note
▁Anteriormente
▁renunció
▁♪
▁dilu
▁quemaduras
▁malici
▁Efe
▁milímetros
ANO
▁Concre
▁Mid
tarle
▁traslada
Solo
▁cobrando
imato
▁regala
▁contesta
▁bachillerato
▁Clausura
▁desme
estres
▁chistes
▁pereza
▁ampliado
▁Andrew
▁guerrero
▁emblemáticos
vó
▁Tipo
▁hubiéramos
▁cuestionario
▁desmante
iff
▁metáfora
udita
piélago
▁reencon
Cal
chor
▁encabeza
avier
▁dude
▁tobillo
▁aseme
▁homosexual
▁ataca
▁comentan
▁aspirante
▁insatisf
▁Sinaloa
▁llamativos
ibu
▁viajado
▁odon
▁africano
▁atienden
▁subcampe
▁televisores
▁comete
▁Alexis
▁dale
dete
▁equilibrar
▁lamento
▁OCDE
▁autóc
▁marcaron
▁venda
erve
▁narices
▁inad
jano
▁impens
▁paginas
cede
▁discern
▁Ges
▁it
▁escriba
▁entendí
tale
▁firmaron
▁Redacción
▁establecieron
hl
ette
▁vagin
▁funcionaria
▁SIN
▁promocionales
▁Tuvimos
▁surreal
laza
▁generador
▁encerrado
▁Hard
▁atu
▁terminaba
▁piensen
adía
▁Alt
estamos
▁asco
▁académicas
▁Deportiva
▁Jurí
▁Regres
▁discrep
▁Maz
zador
▁confesar
▁ucran
▁Creación
▁asin
▁sedi
▁cobi
▁operando
conse
!!!.
aster
▁complementaria
▁faena
▁Ideal
entino
bidas
▁catalo
▁Quím
▁Sindicato
▁inscritos
▁comenté
▁Borja
▁queria
▁Fuerte
▁literal
▁falló
▁indul
▁cositas
▁archi
▁afluencia
▁Atra
▁austeridad
▁Dul
tech
▁enamorados
▁America
ato
▁consecutivas
▁Gracia
▁intu
▁Liz
▁triángulo
ffer
▁Hizo
▁caderas
pecabezas
▁ruleta
▁Valores
▁cenas
▁fruc
house
▁revivir
▁interrumpir
▁Noel
▁costaba
▁Mand
▁agrada
▁solicitan
▁inmersión
▁retratos
hol
▁hábil
ífice
▁contorno
▁concebir
▁marítimo
▁maldición
▁consens
CS
▁Import
▁TH
illar
▁tam
▁legislativas
▁lagos
▁cesta
▁requieran
videncia
▁tecla
▁apuntes
ienses
kas
Is
▁Ps
gueses
lanca
▁aglom
▁bruja
▁Fuen
▁severa
▁entiendes
▁terapeuta
▁Sonora
▁igualar
▁Barack
▁1987
▁Recon
▁conste
▁Glas
▁invol
▁autoría
▁obligan
▁detenida
▁tratará
▁bienvenido
▁bailando
bien
▁asesinada
grafos
▁Agro
toso
▁trágico
icial
▁vine
▁militante
▁enumer
▁adquisitivo
▁advertido
▁Company
▁participaciones
Pas
▁hacienda
gieron
▁master
▁seguidor
▁Prof
▁mora
Du
▁Fiestas
▁pagados
▁Yoga
▁constructor
▁examin
biciones
▁Aquella
▁aprobadas
▁suenan
▁IX
ísticamente
▁Revis
▁astrona
▁brillar
▁God
▁rib
▁indio
▁usaban
30,
Sa
▁encaden
▁Call
▁acreditación
▁harto
▁lun
loso
▁Morgan
fusión
▁consolidado
▁llevadas
▁cotizaciones
▁recuperando
▁Eche
▁cogió
▁porteño
▁híbrido
▁rondas
▁resplan
copio
▁oposiciones
vino
ensores
ásquez
▁Island
▁Actualidad
▁guerrilla
arizar
gido
Señ
▁{
▁uniformes
igmas
▁precep
▁1960
▁adecuación
▁TODOS
▁Golden
▁conectada
▁israelíes
▁forzada
izaba
▁decorado
ferir
▁cuevas
▁tengáis
▁6.000
▁Napole
▁razonables
uss
▁vendidas
▁pesadas
▁recurrentes
▁jueza
terona
▁Naval
▁Detal
▁decidida
▁apagado
▁construyen
cual
Ac
▁anonimato
▁luci
▁cobrado
▁genético
▁Corre
▁pobla
▁28,
▁eliminatoria
▁invención
▁Nike
▁casera
▁curiosidades
▁simpático
▁dam
▁necesitados
▁PO
▁Representantes
▁identifican
▁adjun
▁vó
▁rastrear
ricos
▁Analy
▁irte
▁fea
▁paj
▁rene
▁Iron
the
▁primos
▁rebas
▁publicaron
▁vagina
▁Cloud
▁preocupe
Muy
▁regímenes
▁desesperada
▁emergente
▁vejez
▁bull
▁antioxidantes
▁uses
▁Arroyo
dillas
▁disculpa
▁23.
▁asesinar
▁desil
▁repleto
▁sirvan
▁opta
▁Space
▁?.
▁reformar
vania
▁1.9
▁sonrió
▁pronunciado
gadura
▁merecía
▁inmejorable
▁retrans
▁Valde
▁alleg
cedente
▁win
▁merced
▁pretexto
▁existiendo
▁2-0
▁pp
▁Moda
▁trago
▁continuas
▁solicitando
▁vide
▁Rami
!!.
▁Cancún
derse
Cas
▁peleando
▁prótesis
4).
▁Hici
▁chimenea
hai
▁Líbano
creo
▁nena
▁pulsera
▁involucradas
guilas
▁Gimnas
▁Hermanos
▁almohada
▁pronósticos
▁dormitorios
▁Acosta
▁pill
▁matemático
hima
▁Habla
▁crecieron
▁reportado
▁letal
▁Alzheimer
▁unánime
▁tod
▁trabajaban
▁releg
▁mencionan
▁moderada
▁narrador
▁escalas
▁mezclas
▁sanar
▁rutin
▁insistencia
▁vulgar
coso
Podría
quila
▁tang
▁Coopera
▁promoviendo
▁Abu
▁FOR
▁relajante
▁territoriales
▁constatar
▁penitenci
▁intrín
▁angel
▁Abierto
paraíso
▁teñ
dafone
▁nacionalistas
▁imped
gelo
▁Crédito
▁olvidó
▁Comandante
▁alumnas
▁manualmente
hattan
▁EA
▁meditar
tientes
▁intervienen
cultura
ilas
▁shock
▁Magos
▁orgasmo
▁NUE
▁abandonada
▁Shin
▁lanzando
Aunque
▁traía
calipsis
▁entré
▁aéreos
úan
▁ejercen
▁farmacias
▁interminable
udul
▁SIM
▁disolución
ministro
▁uvas
▁cercanías
vieja
▁Manager
▁movilizaciones
▁Christop
acal
▁campan
▁Secundaria
famil
▁supiera
▁gratuitamente
▁injer
rueba
éplica
▁eclesiá
▁Design
▁Adán
▁Reco
rimidos
▁despierto
▁feroz
ermo
▁solicitante
▁pierdes
▁Cuentas
▁Hermano
▁pescar
▁arcos
▁nudo
▁desconectar
abineros
▁globos
▁despertado
▁Kennedy
▁179
ecieron
▁sentar
▁comporta
▁herederos
▁my
▁cicatriz
canos
▁litro
▁€.
mens
▁psicóloga
▁Agrade
▁Pekín
▁procesados
▁sometida
vierten
▁servirán
▁arzobispo
▁VO
...¿
▁ayuno
oney
▁confirmados
▁repetidas
▁deli
▁magistrado
▁autenticidad
▁radios
Usted
▁vinilo
▁campana
▁Sust
▁Sector
▁caía
▁bonificación
▁simpatiz
▁youtube
▁militancia
▁confección
▁potes
▁Trabajamos
▁Peru
▁Venus
▁activado
▁novias
▁irnos
▁favorecen
▁silencioso
omba
▁memb
▁Vive
▁percu
▁finas
▁UV
▁UCI
▁despejar
▁escapó
▁suavidad
▁verle
▁Baby
▁Emo
▁cay
HS
fel
▁sumas
ENTA
▁maestras
▁argumenta
omagn
▁ando
–.
▁metaf
▁cerraron
▁Martí
pata
▁satisfactorio
▁interanual
▁preferida
▁Arsenal
▁Sinceramente
trajes
▁campamentos
▁capturas
▁brome
▁spam
▁2003.
▁AU
▁nutricional
▁indirecta
ONA
▁pillar
genas
▁estatutos
▁iniciación
▁elegimos
▁Participación
▁Trata
mirante
▁intensamente
▁pesas
▁infel
▁utensilios
▁podías
▁adrenalina
▁horne
▁amaba
▁pasarela
dex
▁elabora
▁informacion
▁silicona
▁nacionalismo
▁capricho
rison
5%,
piter
▁niegan
▁descender
▁Bec
▁corruptos
▁cubo
▁sabría
▁Asistencia
▁tonta
financi
▁usarlos
▁Norteamérica
▁ahog
▁chasis
▁agujas
▁pesetas
trinas
▁(15
▁carcaj
▁Delegación
icé
▁fichero
zal
▁200.000
formance
▁altavoz
▁Avis
▁amplía
▁honra
▁vom
▁Marie
▁Nuevos
▁Lyn
ócratas
▁crack
▁Perón
▁uva
▁Alas
onera
▁apreciación
▁alejada
▁encantará
▁Renta
▁sabios
▁Obispo
▁Cambridge
▁convul
▁contador
▁electores
pus
▁espiral
▁cabellos
ERS
▁azucar
▁llevarlos
▁perdemos
▁Morelos
▁taxis
▁aconsejamos
▁estampados
▁Mejora
▁poseía
▁obstru
▁senderismo
▁pondrán
▁Interes
trán
▁fracasos
▁voluntariado
edi
▁imponente
▁Tesoro
▁capacitado
▁plasma
▁Bou
oter
Men
▁Compren
▁cafés
cosas
▁coordinadora
▁desconcer
▁Manual
▁atrapados
▁estampado
▁Institución
▁desempeñó
▁Hierro
▁aplicadas
▁contribuyendo
▁Virtual
▁opinan
ev
írculo
▁minero
▁facilitando
▁infarto
▁publicitario
calo
▁melodías
▁Pocos
▁Trabajar
▁Get
has
▁enfocados
▁sco
campo
▁corría
▁incierto
▁contemporáneos
ollos
▁redonde
guiendo
politano
side
▁prudencia
▁Tron
▁Zar
ineo
▁promotores
nistía
▁cripto
▁destin
▁pensaban
esio
▁redondo
▁Legislatura
▁Diver
▁auditor
▁afirmando
▁apelación
▁atletismo
▁anunciada
▁hormona
▁experimentan
▁reprodu
inz
gie
equi
ecedor
▁OP
▁Cuidado
▁parciales
▁particularidad
▁moment
zzo
▁indirectamente
psia
▁Valdés
▁valoran
▁regulador
tore
▁Night
▁vocales
▁Str
▁conciliar
▁Dick
▁dedico
▁llevé
▁minús
▁Econom
▁automotriz
▁esperábamos
díb
▁PE
▁1500
llos
▁anónima
▁Proceso
▁orientados
cordia
abal
▁fraudul
▁inspiró
▁Herra
▁Terra
20.
▁foc
volver
▁apostado
▁Prima
▁subtí
▁40,
▁camuf
▁orar
▁extraordinarios
▁paño
▁libra
▁amamos
▁degradación
▁transmitido
wen
▁(0
▁Duarte
▁agropecu
▁titulación
▁Salvo
▁contratados
▁Gallardo
▁suprimir
▁echando
▁insignia
▁Fácil
▁leyó
▁grifo
▁experimentados
▁distribuidos
▁marea
ibo
▁Iraq
▁temen
tiempos
▁usen
▁haberla
▁Silver
▁regeneración
lama
▁protegidas
▁entres
▁quitan
▁Libia
▁shows
▁Pierre
▁desobe
▁pretensiones
millon
▁ermita
▁paja
▁ner
▁Parro
▁dejarte
▁paraguas
▁discrimina
▁René
▁capit
▁esperes
3]
▁CAS
▁Jason
▁fomenta
▁Bá
sub
▁delincuente
bella
▁colmo
▁tropez
tanás
▁Network
bí
jito
▁enver
▁sandal
▁abismo
▁System
▁inse
▁bitcoin
gy
▁saldrán
▁1997,
gli
▁sodio
▁convención
▁infracciones
▁Obra
▁explique
▁burocracia
▁Titu
▁Escrito
▁provee
▁4)
▁tric
▁verbo
▁frigor
lata
▁cachorro
▁prestando
▁mandíb
▁Tér
▁Tari
▁Adobe
▁cárceles
ítez
▁mixta
▁escur
▁muelle
▁inmune
▁paradero
▁aterrizar
▁insom
▁siesta
nel
▁entrará
▁Toni
▁cannabis
▁Maris
juana
reak
lanes
▁auxilio
dt
▁paradój
▁dinosaurios
▁comunismo
▁diagnostic
▁Alimentos
▁Girona
▁colaborado
torrique
proyecto
anismo
▁regulado
▁evang
DR
▁hacíamos
▁iraquí
▁volviera
▁inexplic
pper
fero
▁solían
▁lamenta
▁Campaña
meral
▁aguda
▁obediencia
▁empezará
UES
▁disparado
▁Haciendo
▁colaborando
entamos
damiento
tricidad
ote
▁prisas
▁GM
▁armarios
▁Temas
▁proporcionando
▁callar
▁lobos
▁calidez
exo
▁ordenamiento
ISA
▁ganaba
▁Tecnologías
▁cigarrillos
▁predisposición
▁anticoncep
▁olímpico
▁Empezamos
▁Velas
▁endeudamiento
Cap
▁movió
▁ponían
▁bailes
mascar
▁embarcaciones
▁alcista
gobern
técn
▁vosotras
▁precisar
yl
▁sustanci
gamiento
▁ratas
▁gro
▁Soledad
▁Secretaria
▁enseño
tame
▁quitarse
▁brujas
▁centavos
▁PY
▁manifestaron
▁tirón
ficos
▁habilitado
▁bauti
▁impulsada
▁North
▁argumentó
cky
males
▁BCE
▁cruj
▁Patricio
▁respiro
▁gorda
▁impulsó
drola
▁celebramos
▁Tienda
pectiva
▁anten
▁engor
▁vienes
▁1984
▁Operaciones
▁Ocu
▁visibil
▁Móvil
aquí
▁Oxford
▁agotamiento
▁producirá
▁gruesa
omar
▁tercios
▁garantizando
▁concentraciones
▁gritando
▁occidente
▁aptitudes
▁obsesion
▁fluida
▁dominado
▁apretar
▁Adu
▁escombros
asen
▁acarre
▁facetas
pósito
▁Movilidad
▁peronismo
▁frio
▁Dale
▁Vivo
▁SM
▁meren
▁tazas
▁AA
▁orientadas
▁bocad
▁ambientación
▁desmo
▁dejaré
▁legend
▁asisten
▁tramitar
ilea
▁embarcación
▁Vos
▁contribuyó
▁Origin
▁tuer
▁filtrar
▁multijugador
▁conocerlo
▁terceras
▁esposas
pura
▁Solid
▁funer
▁enterarse
▁empare
▁Totalmente
camientos
▁producidas
▁Aire
Sólo
▁implantar
quén
▁manto
tem
bando
▁magistrados
▁bancarios
▁BR
▁sn
▁Régimen
▁apuestan
▁envergadura
▁protagonizado
▁despist
▁atendidos
guito
izadores
▁niñ
▁University
lao
▁Juventus
▁Benítez
▁paliar
▁balones
▁ubicaciones
▁laguna
▁galaxia
▁promueven
▁aislada
▁emul
▁piña
▁Picas
▁94
very
▁parab
▁Adriana
▁planeación
▁refrigeración
▁gerentes
▁defraud
▁ponerla
▁difundido
▁Drive
▁diamantes
▁adivinar
▁precipitaciones
▁patrulla
▁Cen
▁climáticas
▁Volun
▁adquirida
▁Misa
▁93
▁encantadora
▁durará
▁etiquetado
▁egoísta
▁réplica
anco
▁vicepresidenta
med
▁Aer
▁Ami
▁confortable
▁enojo
▁exponen
▁tonterías
loque
▁regrese
▁dialogar
ski
▁Manhattan
▁destreza
▁Planificación
deramiento
▁29,
▁terminación
▁leones
▁evitan
ÑA
▁enteró
cap
▁depres
CT
▁burocrá
ximadamente
▁insulina
▁muu
▁cacao
▁dinastía
itaba
▁cordob
▁glucosa
osidad
▁pasarlo
▁CNN
▁Light
▁Melilla
▁Wu
▁artísticos
▁ficheros
toma
▁canchas
▁ausp
▁especificar
▁insertar
▁Kal
▁Salas
▁ratones
landesa
▁Inmedia
▁lees
▁oh
▁trí
▁intervin
bres
social
candida
▁señalización
▁vestida
▁puño
▁Patrick
ark
▁automáticos
cient
sio
ábado
▁155
▁desma
▁VIP
sent
▁hídr
▁correcciones
▁agregando
▁Jóvenes
▁Porto
▁convence
▁dentales
▁TS
▁contable
elamente
▁Project
▁1994,
▁hashtag
▁adoptada
▁dispens
▁sangri
▁Explicó
▁decíamos
"?.
▁Naran
▁Minu
▁Palacios
▁redund
▁Quiere
▁Eugenia
▁propuestos
▁deban
▁pdf
ladel
ACE
▁interrogantes
▁festivos
▁infidelidad
▁forestal
▁Tún
uit
▁coorden
▁sótano
▁formarse
▁cote
▁index
▁viví
▁retrasar
▁benefician
▁hipoté
▁insoportable
▁olvidarse
▁iniciará
▁apu
▁espionaje
▁70,
dorf
▁beneficiado
▁metiendo
▁festejos
Lu
▁links
▁navidades
▁busques
▁actas
▁extracto
▁Yama
▁senderos
dillera
▁polémicas
▁protectora
▁demandante
▁legislativa
análisis
▁millonario
▁lindas
▁transitar
▁afección
fondo
▁Guard
▁Responder
riam
▁feministas
lers
▁rompecabezas
▁femeninas
pino
continu
▁exquisito
▁Alco
▁esbo
defin
▁taj
▁Elche
▁presume
▁Batalla
▁Empieza
ciso
▁paguen
▁inna
▁legendario
▁rompiendo
▁impresoras
▁encierro
rores
▁seleccione
▁negación
▁Fru
ñeta
▁marcadas
▁respondieron
▁salariales
▁Ibero
▁intermi
▁Pascual
▁prohibida
▁plaga
▁seguí
▁LinkedIn
▁diseñó
tólogo
▁mejorará
▁ministerios
▁Oliv
▁operado
meras
▁longe
▁incómoda
TT
▁desplegar
▁Hice
▁continuaron
▁alegres
▁Alemán
▁chispa
▁met
▁Meg
▁inscribirse
▁hort
▁mías
▁175
▁Cooper
▁dejarme
▁supervisar
▁Escuelas
Liga
ídate
▁invirtiendo
▁GU
▁festivo
▁Arthur
profes
▁cordial
▁Mí
▁consejera
▁estallido
▁Mobile
▁atacó
▁faldas
ínate
▁Escrib
▁toallas
▁Índice
▁hipertensión
parencia
▁dejemos
▁animó
▁ensu
▁alergias
cuito
▁gluten
▁enfoca
▁usaron
▁decisiva
▁repetido
▁contaré
▁rojib
▁deficiente
▁abras
▁gremios
▁Cup
volta
▁Ponce
tológico
▁invitan
interrump
▁perlas
▁omi
▁infal
▁sufrag
▁analizan
▁Sosa
▁60,
▁condicion
▁presentadora
▁conmemoración
▁congre
▁festejo
▁impulsos
▁rigen
▁suministrar
allen
▁tontos
▁Einstein
▁Tera
▁reglamentos
▁Común
▁lingüística
▁drásticamente
▁controlan
tecnología
▁Villanueva
▁revolucionarios
adita
▁sentirás
▁novena
▁sanas
▁puntaje
▁Lista
▁Compra
▁encarar
▁Acompañ
▁detenerse
▁preservación
▁honesta
▁organizando
▁alti
▁Borges
▁especias
▁recorrió
▁lavadora
ecencia
▁viniendo
▁fantasías
hire
esan
▁Categoría
▁imaginaba
▁respetuoso
Tal
▁SEM
▁Tla
ulum
OG
▁atendió
▁supere
▁humildes
▁redise
▁sacarlo
▁Ross
▁Gay
Esper
▁silueta
▁recomendaría
▁cuanta
▁ponente
▁Legen
▁pregunte
▁Propor
▁entrenado
▁llueve
▁malla
▁asentamiento
▁cilindros
moder
▁acapar
▁velada
▁dióxido
▁océanos
)?
▁Ulti
▁Cola
pé
arcas
▁Carrillo
▁otorgan
4),
▁Shang
▁Nokia
▁visado
lins
▁Cry
▁Iberdrola
denciales
▁lenguajes
▁creyente
▁radar
▁demostraron
▁confiables
▁cumplieron
▁cruzó
▁vacantes
▁caribe
▁negligencia
▁Kin
▁fuere
▁dedicarle
▁lácteos
▁respiratorias
▁armadura
Gen
▁insinu
▁poni
▁sabías
▁procesadores
adajo
▁Arizona
amilitar
▁repeticiones
▁llenó
▁cordón
▁solicitados
▁Eng
▁ideológica
▁descrip
▁decadencia
▁pornografía
▁Beatles
▁impuesta
▁levante
▁Casado
▁aproximada
ogía
▁seleccionada
▁eslo
▁nativo
▁experimentación
▁Pent
▁hablen
▁votaron
▁efectuado
▁funcionará
▁digestión
▁cosmética
▁consulte
▁robó
▁Auton
▁textiles
▁Hacía
▁acercaba
▁pedirá
▁nobleza
▁Gobier
▁zoom
▁GRACIAS
▁MIN
▁Ideas
▁Skype
ises
▁alivi
▁4%
▁RS
teó
▁transversal
▁PayPal
jote
▁2001.
▁comprue
▁progresar
▁festividad
▁iniciada
▁SN
▁FP
▁adaptaciones
▁Varela
▁`
elec
▁cognitivo
▁mágicos
▁iluminar
▁Ital
▁sinerg
▁dentista
▁preventivo
▁Potos
iang
▁recomen
▁Euskadi
▁preside
▁reflejos
▁muralla
▁privilegiada
▁Ofrecemos
▁subli
▁terrestres
▁noreste
▁valenciano
▁15.000
▁erección
▁débito
▁heroína
▁rej
▁preventivas
▁Paraná
▁claus
▁2.5
▁Lorca
▁alli
!).
run
▁Tarje
▁Valparaíso
▁proac
▁ESTA
güe
cess
▁bár
visor
▁rasgo
▁íntegramente
▁Meta
▁analítica
▁acumulando
▁destitu
▁2002.
▁Lionel
▁satisfecha
▁lleves
▁antibióticos
ety
iación
▁corteza
▁espontánea
▁grand
▁folcl
▁Superman
▁resultando
▁juro
▁almor
▁Roque
▁remover
▁artesanía
▁Abre
▁conviven
▁Alterna
▁reunidos
▁reconociendo
▁filtración
▁Sto
▁acuario
▁Gram
▁subterrán
desarrol
▁Ferrer
zante
lier
▁Sonia
▁rotos
▁Imagina
▁pir
ping
▁plantearse
xon
▁distorsion
▁Alimentación
▁civilizaciones
▁corporativos
6).
▁incentivo
▁enchu
▁emitida
▁aburrida
▁encontremos
▁RR
▁computación
--.
▁enton
▁Napoleón
▁YO
▁planteamientos
▁macroecon
▁utilizas
▁susceptibles
▁conectan
pía
▁superhéroes
apropi
▁controlados
▁fluctu
▁sexos
▁generen
▁prioritario
▁glú
émica
cli
▁perseverancia
master
▁Hombres
▁Guardiola
onna
▁prós
▁aspiración
▁tenor
iese
▁inician
▁Vodafone
▁lotes
▁cós
▁Letras
▁mudanza
corpor
▁escép
▁destacaron
▁Consum
▁autorizada
▁183
▁1996,
▁Expres
▁pij
▁Seminario
▁azulgrana
ágeno
▁alentar
FO
▁despidió
▁cinematográfico
▁masculinos
▁preparó
tidor
▁1-1
guin
▁decorativos
▁Legal
▁reciclar
▁Line
▁sucedía
▁Infin
▁Arn
▁legu
▁tenerlos
▁Bárbara
▁obligadas
▁sanguíneo
▁peregrinos
▁transcurre
▁creíble
▁resil
▁cañones
▁Abogados
7).
▁Legan
▁alcantar
▁espía
▁news
▁obvia
▁gallina
▁Pur
▁grupal
▁#1
▁incidencias
▁Porsche
▁pondré
▁desconocen
▁Flam
▁Detrás
hr
▁Escolar
ilers
▁imagenes
▁deseable
▁CAL
▁Damas
ponerse
▁rinde
▁biológicos
▁cerradura
▁Ens
▁previsible
▁francesas
▁Mún
▁Vivimos
▁Cuarto
▁cambien
▁Disco
▁donar
▁señas
▁Objetivos
▁bilingü
▁clausura
▁sureste
▁Ampl
▁comprueba
▁estrenar
arizado
▁Rat
▁sustentable
DAD
▁BA
▁térmico
▁Argel
▁corrido
▁Món
▁expreso
▁pediatra
':
▁trasladarse
▁afirmaba
▁entenderse
adajoz
▁viajaba
▁Jessica
▁ropas
erados
▁Antioquia
▁guardería
▁villano
▁Vitoria
▁despropor
▁repel
▁via
▁Howard
▁reivin
▁Visita
▁black
▁asistencial
▁desconocidas
▁bell
▁Jú
▁SP
▁Intenta
«,
▁McLaren
▁apuntando
▁sacamos
illado
▁inval
emi
▁Depart
▁pasarse
▁llevarnos
▁decirnos
tándole
▁cuidada
▁visualmente
▁Sean
▁porcentuales
▁Clase
▁1995,
itadas
▁prescripción
▁coincidiendo
▁celdas
▁Tarragona
▁Km
▁receptores
▁dime
ollas
▁financiado
▁minoristas
▁nominación
▁Republic
xias
▁efím
▁delicia
▁refieres
▁declive
▁valga
▁Privacidad
ary
▁apoyada
wi
▁entenderlo
▁sirvieron
▁hechizo
▁afiliación
▁artefactos
especialmente
▁planeando
▁innecesario
▁hubieras
▁conson
▁polaco
▁Rally
lying
▁Road
AMA
▁evalúa
▁explosivos
▁utilizará
▁Denun
▁::
▁taur
▁protestar
▁desapercibido
▁enviará
fs
▁broker
«.
▁Tigre
▁Informa
▁bec
arie
▁palp
▁promin
solu
▁Airlines
▁optan
▁protagonizó
▁respetado
quitas
▁implicado
▁Atlas
▁Verano
▁24.
▁felicito
▁alega
▁conno
▁Rincón
▁dieran
▁escandal
▁Viene
▁cortó
▁viñe
▁alab
bour
▁Biel
usco
▁violentas
▁Boe
▁noto
▁sepamos
ries
▁adoración
▁supondrá
ficantes
oloca
▁obedecer
▁repartidos
▁fantásticos
ICEF
▁Fir
mando
▁Emerg
só
▁animaciones
▁obstacul
▁Brexit
▁Thom
▁solicitantes
▁cogiendo
neces
▁Ofrece
▁utilizarla
▁autonómico
▁Taiw
hy
▁Fras
▁prescindir
▁culminó
▁restaur
▁acompañadas
▁separan
▁agresividad
▁situadas
gins
▁detuvieron
▁Hisp
▁tierna
▁Corp
▁Categorías
▁responda
▁aromas
▁revoluciones
▁Gaza
▁árbitros
▁cicatrices
▁votaciones
iamos
▁pino
8).
▁inmovil
▁australiano
▁comunal
▁casta
▁definidas
xicación
▁provisión
▁),
▁cupo
▁decidan
▁cardíaca
lava
anamente
▁IG
▁llegados
▁entregada
▁generosa
▁garantizada
▁simultánea
▁jurisdic
▁atado
▁ocupantes
▁supondría
ternal
▁planteando
▁rigi
▁promotor
▁causante
Nuestro
▁fianza
▁Alguna
▁continuos
▁wa
▁Atlanta
▁poética
▁olvidan
▁denominados
ost
Nuestra
▁controlador
▁fanático
▁patrocinadores
▁Aplicación
mientas
▁Photoshop
stata
ternos
plá
▁helados
▁periódica
▁JU
▁Hue
Ese
▁agilizar
▁Tijuana
▁respaldar
▁Legislativo
▁comenzarán
▁patronal
▁empleadas
▁perd
▁subo
▁canela
▁Ann
avera
▁privilegiado
▁francamente
bieran
▁capacitados
▁circulan
▁LU
▁Universitaria
▁Bit
▁necesitado
▁Crí
▁API
▁licenciatura
idón
▁SAR
▁Nuevamente
▁Jay
▁with
▁leas
42
▁Barranquilla
ógrafo
▁serenidad
▁revolu
▁barbie
▁esclavo
▁intuitiva
▁acertar
uster
▁policia
▁alquil
▁tendido
our
▁git
▁observador
▁Jersey
▁MED
▁gustaron
▁pastoral
▁Decir
▁moderación
ojo
▁vicio
▁97
▁acumulan
▁ruina
▁CRE
cienden
▁reconstru
▁RT
▁circuns
▁Anderson
▁perdu
▁Dirig
▁sabrán
▁colocarse
▁mola
▁divisa
uild
▁regalado
▁finalistas
▁Múnich
▁trajeron
▁cabaña
▁pusiera
ibar
▁descifrar
▁patrimonial
▁Fres
▁reve
tene
▁Alcan
▁95%
▁complementarias
▁diur
Entre
▁Repar
▁Bros
senger
didamente
▁abdominal
▁pasiva
▁ocupaba
▁confirmada
▁lanzan
▁segundas
▁anticuer
▁Firefox
lis
▁defend
▁hablemos
▁Roo
ciclo
▁ilus
▁barri
▁Gobiernos
▁aprendemos
▁similitudes
ficó
▁construidas
▁sábanas
▁dispones
▁Piedra
▁submarino
▁probé
▁contrata
▁agran
▁boce
▁Eth
▁bran
lymp
▁Iberia
▁Tas
▁1982
[...]
